{
  "version": "1.0",
  "truncation": null,
  "padding": null,
  "added_tokens": [
    {
      "id": 0,
      "content": "<s>",
      "single_word": false,
      "lstrip": false,
      "rstrip": false,
      "normalized": false,
      "special": true
    },
    {
      "id": 1,
      "content": "<pad>",
      "single_word": false,
      "lstrip": false,
      "rstrip": false,
      "normalized": false,
      "special": true
    },
    {
      "id": 2,
      "content": "</s>",
      "single_word": false,
      "lstrip": false,
      "rstrip": false,
      "normalized": false,
      "special": true
    },
    {
      "id": 3,
      "content": "<unk>",
      "single_word": false,
      "lstrip": false,
      "rstrip": false,
      "normalized": false,
      "special": true
    }
  ],
  "normalizer": {
    "type": "Lowercase"
  },
  "pre_tokenizer": {
    "type": "ByteLevel",
    "add_prefix_space": true,
    "trim_offsets": true,
    "use_regex": true
  },
  "post_processor": {
    "type": "ByteLevel",
    "add_prefix_space": true,
    "trim_offsets": true,
    "use_regex": true
  },
  "decoder": {
    "type": "ByteLevel",
    "add_prefix_space": true,
    "trim_offsets": true,
    "use_regex": true
  },
  "model": {
    "type": "BPE",
    "dropout": null,
    "unk_token": "<unk>",
    "continuing_subword_prefix": null,
    "end_of_word_suffix": null,
    "fuse_unk": false,
    "vocab": {
      "<s>": 0,
      "<pad>": 1,
      "</s>": 2,
      "<unk>": 3,
      "!": 4,
      "\"": 5,
      "#": 6,
      "$": 7,
      "%": 8,
      "&": 9,
      "'": 10,
      "(": 11,
      ")": 12,
      "*": 13,
      "+": 14,
      ",": 15,
      "-": 16,
      ".": 17,
      "/": 18,
      "0": 19,
      "1": 20,
      "2": 21,
      "3": 22,
      "4": 23,
      "5": 24,
      "6": 25,
      "7": 26,
      "8": 27,
      "9": 28,
      ":": 29,
      ";": 30,
      "<": 31,
      "=": 32,
      ">": 33,
      "?": 34,
      "@": 35,
      "A": 36,
      "B": 37,
      "C": 38,
      "D": 39,
      "E": 40,
      "F": 41,
      "G": 42,
      "H": 43,
      "I": 44,
      "J": 45,
      "K": 46,
      "L": 47,
      "M": 48,
      "N": 49,
      "O": 50,
      "P": 51,
      "Q": 52,
      "R": 53,
      "S": 54,
      "T": 55,
      "U": 56,
      "V": 57,
      "W": 58,
      "X": 59,
      "Y": 60,
      "Z": 61,
      "[": 62,
      "\\": 63,
      "]": 64,
      "^": 65,
      "_": 66,
      "`": 67,
      "a": 68,
      "b": 69,
      "c": 70,
      "d": 71,
      "e": 72,
      "f": 73,
      "g": 74,
      "h": 75,
      "i": 76,
      "j": 77,
      "k": 78,
      "l": 79,
      "m": 80,
      "n": 81,
      "o": 82,
      "p": 83,
      "q": 84,
      "r": 85,
      "s": 86,
      "t": 87,
      "u": 88,
      "v": 89,
      "w": 90,
      "x": 91,
      "y": 92,
      "z": 93,
      "{": 94,
      "|": 95,
      "}": 96,
      "~": 97,
      "¡": 98,
      "¢": 99,
      "£": 100,
      "¤": 101,
      "¥": 102,
      "¦": 103,
      "§": 104,
      "¨": 105,
      "©": 106,
      "ª": 107,
      "«": 108,
      "¬": 109,
      "®": 110,
      "¯": 111,
      "°": 112,
      "±": 113,
      "²": 114,
      "³": 115,
      "´": 116,
      "µ": 117,
      "¶": 118,
      "·": 119,
      "¸": 120,
      "¹": 121,
      "º": 122,
      "»": 123,
      "¼": 124,
      "½": 125,
      "¾": 126,
      "¿": 127,
      "À": 128,
      "Á": 129,
      "Â": 130,
      "Ã": 131,
      "Ä": 132,
      "Å": 133,
      "Æ": 134,
      "Ç": 135,
      "È": 136,
      "É": 137,
      "Ê": 138,
      "Ë": 139,
      "Ì": 140,
      "Í": 141,
      "Î": 142,
      "Ï": 143,
      "Ð": 144,
      "Ñ": 145,
      "Ò": 146,
      "Ó": 147,
      "Ô": 148,
      "Õ": 149,
      "Ö": 150,
      "×": 151,
      "Ø": 152,
      "Ù": 153,
      "Ú": 154,
      "Û": 155,
      "Ü": 156,
      "Ý": 157,
      "Þ": 158,
      "ß": 159,
      "à": 160,
      "á": 161,
      "â": 162,
      "ã": 163,
      "ä": 164,
      "å": 165,
      "æ": 166,
      "ç": 167,
      "è": 168,
      "é": 169,
      "ê": 170,
      "ë": 171,
      "ì": 172,
      "í": 173,
      "î": 174,
      "ï": 175,
      "ð": 176,
      "ñ": 177,
      "ò": 178,
      "ó": 179,
      "ô": 180,
      "õ": 181,
      "ö": 182,
      "÷": 183,
      "ø": 184,
      "ù": 185,
      "ú": 186,
      "û": 187,
      "ü": 188,
      "ý": 189,
      "þ": 190,
      "ÿ": 191,
      "Ā": 192,
      "ā": 193,
      "Ă": 194,
      "ă": 195,
      "Ą": 196,
      "ą": 197,
      "Ć": 198,
      "ć": 199,
      "Ĉ": 200,
      "ĉ": 201,
      "Ċ": 202,
      "ċ": 203,
      "Č": 204,
      "č": 205,
      "Ď": 206,
      "ď": 207,
      "Đ": 208,
      "đ": 209,
      "Ē": 210,
      "ē": 211,
      "Ĕ": 212,
      "ĕ": 213,
      "Ė": 214,
      "ė": 215,
      "Ę": 216,
      "ę": 217,
      "Ě": 218,
      "ě": 219,
      "Ĝ": 220,
      "ĝ": 221,
      "Ğ": 222,
      "ğ": 223,
      "Ġ": 224,
      "ġ": 225,
      "Ģ": 226,
      "ģ": 227,
      "Ĥ": 228,
      "ĥ": 229,
      "Ħ": 230,
      "ħ": 231,
      "Ĩ": 232,
      "ĩ": 233,
      "Ī": 234,
      "ī": 235,
      "Ĭ": 236,
      "ĭ": 237,
      "Į": 238,
      "į": 239,
      "İ": 240,
      "ı": 241,
      "Ĳ": 242,
      "ĳ": 243,
      "Ĵ": 244,
      "ĵ": 245,
      "Ķ": 246,
      "ķ": 247,
      "ĸ": 248,
      "Ĺ": 249,
      "ĺ": 250,
      "Ļ": 251,
      "ļ": 252,
      "Ľ": 253,
      "ľ": 254,
      "Ŀ": 255,
      "ŀ": 256,
      "Ł": 257,
      "ł": 258,
      "Ń": 259,
      "->": 260,
      "re": 261,
      "in": 262,
      "Ġ=": 263,
      "st": 264,
      ");": 265,
      "er": 266,
      "Ġi": 267,
      "de": 268,
      "se": 269,
      "Ġ(": 270,
      "Ġ*": 271,
      "Ġc": 272,
      "Ġs": 273,
      "at": 274,
      "en": 275,
      "Ġa": 276,
      "Ġ}": 277,
      "or": 278,
      "Ġt": 279,
      "on": 280,
      "Ġ{": 281,
      "Ġ0": 282,
      "int": 283,
      "Ġif": 284,
      "ct": 285,
      "Ġb": 286,
      "le": 287,
      "Ġf": 288,
      "lo": 289,
      "am": 290,
      "Ġre": 291,
      "it": 292,
      "Ġp": 293,
      "ar": 294,
      "si": 295,
      "al": 296,
      "co": 297,
      "et": 298,
      "ze": 299,
      "Ġav": 300,
      "ad": 301,
      "Ġ&": 302,
      "el": 303,
      "Ġ/": 304,
      "id": 305,
      "Ġm": 306,
      "ff": 307,
      "op": 308,
      "Ġg": 309,
      "ck": 310,
      "Ġv": 311,
      "Ġn": 312,
      "ur": 313,
      "an": 314,
      "Ġ1": 315,
      "Ġret": 316,
      "Ġ\"": 317,
      "Ġint": 318,
      "he": 319,
      "pu": 320,
      "Ġ/*": 321,
      "size": 322,
      "ic": 323,
      "Ġ*/": 324,
      "te": 325,
      "ase": 326,
      "un": 327,
      "err": 328,
      "mp": 329,
      "Ġ+": 330,
      "Ġd": 331,
      "ma": 332,
      "la": 333,
      "ame": 334,
      "set": 335,
      "ot": 336,
      "Ġst": 337,
      "ch": 338,
      "bu": 339,
      "Ġ<": 340,
      "ate": 341,
      "ul": 342,
      "pe": 343,
      "fi": 344,
      "em": 345,
      "di": 346,
      "dr": 347,
      "00": 348,
      "Ġ-": 349,
      "Ġcase": 350,
      "urn": 351,
      "Ġreturn": 352,
      "ctx": 353,
      "code": 354,
      "get": 355,
      "pr": 356,
      "tr": 357,
      "Ġr": 358,
      "Ġo": 359,
      "con": 360,
      "ex": 361,
      "ion": 362,
      "ut": 363,
      "av": 364,
      "32": 365,
      "io": 366,
      "Ġ%": 367,
      "ak": 368,
      "ata": 369,
      "ue": 370,
      "Ġq": 371,
      "Ġu": 372,
      "Ġw": 373,
      "Ġ==": 374,
      "reak": 375,
      "lock": 376,
      "))": 377,
      "Ġbreak": 378,
      "Ġh": 379,
      "ed": 380,
      "ty": 381,
      "mm": 382,
      "ing": 383,
      "dev": 384,
      "ss": 385,
      "64": 386,
      "error": 387,
      "(&": 388,
      "ab": 389,
      "\",": 390,
      "rame": 391,
      "else": 392,
      "len": 393,
      "Ġin": 394,
      "log": 395,
      "Ġ>": 396,
      "ce": 397,
      "Ġfor": 398,
      "rc": 399,
      "Ġ|": 400,
      "Ġelse": 401,
      "pa": 402,
      "type": 403,
      "Ġsi": 404,
      "pi": 405,
      "Ġ2": 406,
      "bit": 407,
      "++": 408,
      "ts": 409,
      "th": 410,
      "Ġthe": 411,
      "reg": 412,
      "um": 413,
      "li": 414,
      "data": 415,
      "sc": 416,
      "frame": 417,
      "pc": 418,
      "Ġcon": 419,
      "];": 420,
      "ro": 421,
      "val": 422,
      "ull": 423,
      "is": 424,
      "env": 425,
      "ode": 426,
      "us": 427,
      "str": 428,
      "Ġde": 429,
      "lag": 430,
      "Ġtc": 431,
      "cpu": 432,
      "buf": 433,
      "Ġsize": 434,
      "Ġ#": 435,
      "as": 436,
      "ig": 437,
      "ffset": 438,
      "Ġ!": 439,
      "ge": 440,
      "im": 441,
      "16": 442,
      "il": 443,
      "codec": 444,
      "ream": 445,
      "ir": 446,
      "Ġ&&": 447,
      "if": 448,
      "able": 449,
      "ps": 450,
      "Ġtcg": 451,
      "tex": 452,
      "dex": 453,
      "state": 454,
      "Ġuint": 455,
      "ine": 456,
      "ac": 457,
      "arget": 458,
      "Ġgen": 459,
      "of": 460,
      "mb": 461,
      "][": 462,
      "Ġ(!": 463,
      "addr": 464,
      "Ġstat": 465,
      "emu": 466,
      "Ġch": 467,
      "flag": 468,
      "Ġl": 469,
      "));": 470,
      "],": 471,
      "Ġcpu": 472,
      "bits": 473,
      "ice": 474,
      "Ġ%%": 475,
      "Ġnull": 476,
      "fo": 477,
      "text": 478,
      "up": 479,
      "),": 480,
      "oid": 481,
      "oto": 482,
      "avctx": 483,
      "and": 484,
      "stream": 485,
      "ter": 486,
      "ov": 487,
      "ra": 488,
      "ure": 489,
      "block": 490,
      "gb": 491,
      "out": 492,
      "Ġstatic": 493,
      "amp": 494,
      "read": 495,
      "put": 496,
      "iv": 497,
      "Ġ4": 498,
      "context": 499,
      "Ġff": 500,
      "++)": 501,
      "\");": 502,
      "ide": 503,
      "ol": 504,
      "art": 505,
      "loc": 506,
      "Ġto": 507,
      "Ġgoto": 508,
      "unt": 509,
      "Ġget": 510,
      "Ġ!=": 511,
      "ctor": 512,
      "Ġbu": 513,
      "Ġop": 514,
      "ample": 515,
      "Ġis": 516,
      "index": 517,
      "Ġ\\": 518,
      "sk": 519,
      "end": 520,
      "ster": 521,
      "no": 522,
      "mt": 523,
      "Ġx": 524,
      "fa": 525,
      "ffer": 526,
      "yte": 527,
      "igh": 528,
      "mat": 529,
      "ent": 530,
      "ptr": 531,
      "ext": 532,
      "offset": 533,
      "Ġqemu": 534,
      "sh": 535,
      "ub": 536,
      "pb": 537,
      "Ġconst": 538,
      "Ġar": 539,
      "cket": 540,
      "init": 541,
      "sp": 542,
      "ile": 543,
      "Ġ//": 544,
      "ne": 545,
      "to": 546,
      "Ġvoid": 547,
      "rit": 548,
      "num": 549,
      "Ġ3": 550,
      "].": 551,
      "Ġ||": 552,
      "nt": 553,
      "ort": 554,
      "ci": 555,
      "Ġ((": 556,
      "Ġ>>": 557,
      "count": 558,
      "nel": 559,
      "fd": 560,
      "sig": 561,
      "ree": 562,
      "mem": 563,
      "Ġ+=": 564,
      "add": 565,
      "que": 566,
      "ult": 567,
      "Ġ8": 568,
      "kt": 569,
      "ap": 570,
      "Ġtarget": 571,
      "ip": 572,
      "sample": 573,
      "fmt": 574,
      "ight": 575,
      "rite": 576,
      "Ġ<<": 577,
      "bs": 578,
      "Ġco": 579,
      "ix": 580,
      "Ġad": 581,
      "ret": 582,
      "table": 583,
      "pix": 584,
      "ref": 585,
      "po": 586,
      "Ġe": 587,
      "idth": 588,
      "head": 589,
      "src": 590,
      "name": 591,
      "for": 592,
      "tim": 593,
      "flags": 594,
      "buffer": 595,
      "info": 596,
      "gen": 597,
      "Ġse": 598,
      "list": 599,
      "pre": 600,
      "(\"": 601,
      "Ġbuf": 602,
      "Ġun": 603,
      "ver": 604,
      "max": 605,
      "arg": 606,
      "free": 607,
      "cp": 608,
      "Ġth": 609,
      "mov": 610,
      "Ġmem": 611,
      "line": 612,
      "Ġval": 613,
      "Ġsizeof": 614,
      "per": 615,
      "cture": 616,
      "ation": 617,
      "intf": 618,
      "device": 619,
      "nd": 620,
      "Ġj": 621,
      "base": 622,
      "Ġk": 623,
      "fil": 624,
      "ph": 625,
      "par": 626,
      "Ġerror": 627,
      "Ġex": 628,
      "Ġout": 629,
      "Ġy": 630,
      "Ġchar": 631,
      "header": 632,
      "0000": 633,
      "Ġstr": 634,
      "dst": 635,
      "sn": 636,
      "chan": 637,
      "Ġsrc": 638,
      "map": 639,
      "drv": 640,
      "Ġarg": 641,
      "endi": 642,
      "ta": 643,
      "lu": 644,
      "ob": 645,
      "ow": 646,
      "mv": 647,
      "write": 648,
      "Ġtmp": 649,
      "file": 650,
      "mask": 651,
      "Ġ:": 652,
      "nc": 653,
      "start": 654,
      "width": 655,
      "height": 656,
      "ys": 657,
      "Ġblock": 658,
      "Ġcode": 659,
      "ack": 660,
      "dc": 661,
      "alloc": 662,
      "]);": 663,
      "ost": 664,
      "ly": 665,
      "Ġreg": 666,
      "cur": 667,
      "ory": 668,
      "filter": 669,
      "printf": 670,
      "fault": 671,
      "md": 672,
      "();": 673,
      "tmp": 674,
      "Ġ'": 675,
      "sign": 676,
      "Ġavctx": 677,
      "tion": 678,
      "def": 679,
      "es": 680,
      "endif": 681,
      "packet": 682,
      "Ġoffset": 683,
      "uct": 684,
      "Ġfa": 685,
      "Ġbe": 686,
      "format": 687,
      "ms": 688,
      "stat": 689,
      "picture": 690,
      "bus": 691,
      "load": 692,
      "tx": 693,
      "Ġdo": 694,
      "inval": 695,
      "Ġlen": 696,
      "mode": 697,
      "Ġ16": 698,
      "ister": 699,
      "heck": 700,
      "Ġal": 701,
      "Ġpa": 702,
      "Ġma": 703,
      "Ġwe": 704,
      "Ġsw": 705,
      "Ġenv": 706,
      "Ġ?": 707,
      "Ġne": 708,
      "cb": 709,
      "ert": 710,
      "qu": 711,
      "channel": 712,
      "sub": 713,
      "sl": 714,
      "res": 715,
      "Ġnot": 716,
      "Ġen": 717,
      "000": 718,
      "der": 719,
      "ong": 720,
      "lk": 721,
      "lay": 722,
      "fig": 723,
      "time": 724,
      "me": 725,
      "be": 726,
      "nb": 727,
      "pkt": 728,
      "fe": 729,
      "target": 730,
      "rent": 731,
      "byte": 732,
      "Ġwh": 733,
      "Ġaverror": 734,
      "ram": 735,
      "cr": 736,
      "itch": 737,
      "new": 738,
      "last": 739,
      "lev": 740,
      "ec": 741,
      "Ġof": 742,
      "Ġpr": 743,
      "Ġbyte": 744,
      "uint": 745,
      "tl": 746,
      "Ġframe": 747,
      "vm": 748,
      "level": 749,
      "comp": 750,
      "port": 751,
      "ld": 752,
      "ale": 753,
      "signed": 754,
      "dio": 755,
      "ect": 756,
      "Ġ>=": 757,
      "temp": 758,
      "Ġdst": 759,
      "au": 760,
      "Ġbdrv": 761,
      "irt": 762,
      "Ġpci": 763,
      "ift": 764,
      "sion": 765,
      "tb": 766,
      "ind": 767,
      "idx": 768,
      "insn": 769,
      "sector": 770,
      "Ġaddr": 771,
      "ress": 772,
      "Ġctx": 773,
      "Ġsc": 774,
      "value": 775,
      "ache": 776,
      "){": 777,
      "irq": 778,
      "low": 779,
      "pci": 780,
      "nr": 781,
      "Ġon": 782,
      "Ġswitch": 783,
      "Ġsh": 784,
      "user": 785,
      "ject": 786,
      "ideo": 787,
      "ted": 788,
      "Ġdata": 789,
      "uv": 790,
      "Ġnb": 791,
      "pic": 792,
      "Ġtr": 793,
      "rate": 794,
      "so": 795,
      "opts": 796,
      "ser": 797,
      "region": 798,
      "((": 799,
      "luster": 800,
      "try": 801,
      "pl": 802,
      "Ġcodec": 803,
      "12": 804,
      "Ġerr": 805,
      "Ġavio": 806,
      "ey": 807,
      "ssert": 808,
      "Ġso": 809,
      "Ġmb": 810,
      "ave": 811,
      "eld": 812,
      "lename": 813,
      "stride": 814,
      "Ġfail": 815,
      "Ġ_": 816,
      "Ġand": 817,
      "status": 818,
      "Ġbit": 819,
      "pos": 820,
      "ction": 821,
      "Ġ.": 822,
      "aque": 823,
      "red": 824,
      "ith": 825,
      "bug": 826,
      "linesize": 827,
      "sy": 828,
      "bo": 829,
      "cc": 830,
      "Ġregister": 831,
      "pixel": 832,
      "Ġ5": 833,
      "Ġdefault": 834,
      "req": 835,
      "Ġ|=": 836,
      "min": 837,
      "++;": 838,
      "Ġpix": 839,
      "scale": 840,
      "lc": 841,
      "Ġ6": 842,
      "invalid": 843,
      "dir": 844,
      "ant": 845,
      "pro": 846,
      "ffff": 847,
      "gth": 848,
      "rd": 849,
      "rom": 850,
      "param": 851,
      "os": 852,
      "Ġ*)": 853,
      "inter": 854,
      "])": 855,
      "config": 856,
      "fs": 857,
      "Ġset": 858,
      "loat": 859,
      "Ġunsigned": 860,
      "Ġcheck": 861,
      "10": 862,
      "ive": 863,
      "Ġbs": 864,
      "prop": 865,
      "ath": 866,
      "rl": 867,
      "priv": 868,
      "Ġmax": 869,
      "enc": 870,
      "fl": 871,
      "iov": 872,
      "all": 873,
      "ag": 874,
      "cs": 875,
      "cess": 876,
      "ature": 877,
      "filename": 878,
      "ep": 879,
      "chr": 880,
      "adata": 881,
      "cmd": 882,
      "ft": 883,
      "elper": 884,
      "next": 885,
      "ore": 886,
      "ype": 887,
      "sw": 888,
      "Ġwhile": 889,
      "audio": 890,
      "cache": 891,
      "qemu": 892,
      "Ġas": 893,
      "irtio": 894,
      "tc": 895,
      "one": 896,
      "video": 897,
      "sb": 898,
      "slice": 899,
      "Ġindex": 900,
      "ink": 901,
      "cond": 902,
      "roma": 903,
      "decode": 904,
      "shift": 905,
      "host": 906,
      "Ġcur": 907,
      "Ġ7": 908,
      "act": 909,
      "regs": 910,
      "Ġpre": 911,
      "Ġinit": 912,
      "xf": 913,
      "page": 914,
      "sed": 915,
      "key": 916,
      "und": 917,
      "errp": 918,
      "memory": 919,
      "ial": 920,
      "fdt": 921,
      "ard": 922,
      "col": 923,
      "date": 924,
      "lem": 925,
      "opt": 926,
      "Ġvalue": 927,
      "Ġthis": 928,
      "ve": 929,
      "dict": 930,
      "cluster": 931,
      "Ġmemory": 932,
      "malloc": 933,
      "unk": 934,
      "ifdef": 935,
      "Ġput": 936,
      "ord": 937,
      "Ġit": 938,
      "fp": 939,
      "rect": 940,
      "zer": 941,
      "pts": 942,
      "field": 943,
      "streams": 944,
      "Ġfil": 945,
      "samples": 946,
      "unc": 947,
      "py": 948,
      "struct": 949,
      "helper": 950,
      "Ġnum": 951,
      "Ġpkt": 952,
      "sr": 953,
      "mu": 954,
      "Ġtype": 955,
      "feature": 956,
      "not": 957,
      "br": 958,
      "Ġread": 959,
      "local": 960,
      "24": 961,
      "Ġac": 962,
      "quest": 963,
      "xx": 964,
      "coder": 965,
      "do": 966,
      "current": 967,
      "Ġadd": 968,
      "channels": 969,
      "tab": 970,
      "Ġstruct": 971,
      "opaque": 972,
      "Ġte": 973,
      "Ġat": 974,
      "back": 975,
      "debug": 976,
      "mo": 977,
      "Ġdc": 978,
      "tag": 979,
      "reate": 980,
      "]=": 981,
      "Ġbo": 982,
      "Ġstart": 983,
      "void": 984,
      "Ġnew": 985,
      "ok": 986,
      "Ġflag": 987,
      "vc": 988,
      "lass": 989,
      "du": 990,
      "const": 991,
      "--": 992,
      "vlc": 993,
      "left": 994,
      "Ġ12": 995,
      "Ġ<=": 996,
      "sectors": 997,
      "band": 998,
      "264": 999
    },
    "merges": [
      "- >",
      "r e",
      "i n",
      "Ġ =",
      "s t",
      ") ;",
      "e r",
      "Ġ i",
      "d e",
      "s e",
      "Ġ (",
      "Ġ *",
      "Ġ c",
      "Ġ s",
      "a t",
      "e n",
      "Ġ a",
      "Ġ }",
      "o r",
      "Ġ t",
      "o n",
      "Ġ {",
      "Ġ 0",
      "in t",
      "Ġi f",
      "c t",
      "Ġ b",
      "l e",
      "Ġ f",
      "l o",
      "a m",
      "Ġ re",
      "i t",
      "Ġ p",
      "a r",
      "s i",
      "a l",
      "c o",
      "e t",
      "z e",
      "Ġa v",
      "a d",
      "Ġ &",
      "e l",
      "Ġ /",
      "i d",
      "Ġ m",
      "f f",
      "o p",
      "Ġ g",
      "c k",
      "Ġ v",
      "Ġ n",
      "u r",
      "a n",
      "Ġ 1",
      "Ġre t",
      "Ġ \"",
      "Ġ int",
      "h e",
      "p u",
      "Ġ/ *",
      "si ze",
      "i c",
      "Ġ* /",
      "t e",
      "a se",
      "u n",
      "er r",
      "m p",
      "Ġ +",
      "Ġ d",
      "m a",
      "l a",
      "am e",
      "se t",
      "o t",
      "Ġ st",
      "c h",
      "b u",
      "Ġ <",
      "at e",
      "u l",
      "p e",
      "f i",
      "e m",
      "d i",
      "d r",
      "0 0",
      "Ġ -",
      "Ġc ase",
      "ur n",
      "Ġret urn",
      "ct x",
      "co de",
      "g et",
      "p r",
      "t r",
      "Ġ r",
      "Ġ o",
      "c on",
      "e x",
      "i on",
      "u t",
      "a v",
      "3 2",
      "i o",
      "Ġ %",
      "a k",
      "at a",
      "u e",
      "Ġ q",
      "Ġ u",
      "Ġ w",
      "Ġ= =",
      "re ak",
      "lo ck",
      ") )",
      "Ġb reak",
      "Ġ h",
      "e d",
      "t y",
      "m m",
      "in g",
      "de v",
      "s s",
      "6 4",
      "err or",
      "( &",
      "a b",
      "\" ,",
      "r ame",
      "el se",
      "l en",
      "Ġ in",
      "lo g",
      "Ġ >",
      "c e",
      "Ġf or",
      "r c",
      "Ġ |",
      "Ġ else",
      "p a",
      "ty pe",
      "Ġs i",
      "p i",
      "Ġ 2",
      "b it",
      "+ +",
      "t s",
      "t h",
      "Ġt he",
      "re g",
      "u m",
      "l i",
      "d ata",
      "s c",
      "f rame",
      "p c",
      "Ġc on",
      "] ;",
      "r o",
      "v al",
      "ul l",
      "i s",
      "en v",
      "o de",
      "u s",
      "st r",
      "Ġ de",
      "la g",
      "Ġt c",
      "c pu",
      "bu f",
      "Ġsi ze",
      "Ġ #",
      "a s",
      "i g",
      "ff set",
      "Ġ !",
      "g e",
      "i m",
      "1 6",
      "i l",
      "code c",
      "re am",
      "i r",
      "Ġ& &",
      "i f",
      "ab le",
      "p s",
      "Ġtc g",
      "te x",
      "de x",
      "st ate",
      "Ġu int",
      "in e",
      "a c",
      "ar get",
      "Ġg en",
      "o f",
      "m b",
      "] [",
      "Ġ( !",
      "ad dr",
      "Ġst at",
      "em u",
      "Ġc h",
      "f lag",
      "Ġ l",
      ") );",
      "] ,",
      "Ġc pu",
      "bit s",
      "ic e",
      "Ġ% %",
      "Ġn ull",
      "f o",
      "tex t",
      "u p",
      ") ,",
      "o id",
      "ot o",
      "av ctx",
      "an d",
      "st ream",
      "t er",
      "o v",
      "r a",
      "u re",
      "b lock",
      "g b",
      "o ut",
      "Ġstat ic",
      "am p",
      "re ad",
      "pu t",
      "i v",
      "Ġ 4",
      "con text",
      "Ġf f",
      "++ )",
      "\" );",
      "i de",
      "o l",
      "ar t",
      "lo c",
      "Ġt o",
      "Ġg oto",
      "un t",
      "Ġg et",
      "Ġ! =",
      "ct or",
      "Ġb u",
      "Ġ op",
      "amp le",
      "Ġi s",
      "in dex",
      "Ġ \\",
      "s k",
      "en d",
      "st er",
      "n o",
      "m t",
      "Ġ x",
      "f a",
      "ff er",
      "y te",
      "ig h",
      "m at",
      "en t",
      "p tr",
      "ex t",
      "o ffset",
      "Ġq emu",
      "s h",
      "u b",
      "p b",
      "Ġcon st",
      "Ġa r",
      "ck et",
      "in it",
      "s p",
      "i le",
      "Ġ/ /",
      "n e",
      "t o",
      "Ġv oid",
      "r it",
      "n um",
      "Ġ 3",
      "] .",
      "Ġ| |",
      "n t",
      "or t",
      "c i",
      "Ġ( (",
      "Ġ> >",
      "co unt",
      "n el",
      "f d",
      "si g",
      "re e",
      "m em",
      "Ġ+ =",
      "ad d",
      "q ue",
      "ul t",
      "Ġ 8",
      "k t",
      "a p",
      "Ġt arget",
      "i p",
      "s ample",
      "f mt",
      "igh t",
      "rit e",
      "Ġ< <",
      "b s",
      "Ġc o",
      "i x",
      "Ġa d",
      "re t",
      "t able",
      "pi x",
      "re f",
      "p o",
      "Ġ e",
      "id th",
      "he ad",
      "s rc",
      "n ame",
      "f or",
      "t im",
      "flag s",
      "bu ffer",
      "in fo",
      "g en",
      "Ġ se",
      "li st",
      "p re",
      "( \"",
      "Ġbu f",
      "Ġ un",
      "v er",
      "ma x",
      "ar g",
      "f ree",
      "c p",
      "Ġt h",
      "m ov",
      "Ġm em",
      "l ine",
      "Ġv al",
      "Ġsize of",
      "p er",
      "ct ure",
      "at ion",
      "int f",
      "dev ice",
      "n d",
      "Ġ j",
      "b ase",
      "Ġ k",
      "fi l",
      "p h",
      "p ar",
      "Ġ error",
      "Ġ ex",
      "Ġo ut",
      "Ġ y",
      "Ġch ar",
      "head er",
      "00 00",
      "Ġst r",
      "d st",
      "s n",
      "ch an",
      "Ġs rc",
      "ma p",
      "dr v",
      "Ġar g",
      "en di",
      "t a",
      "l u",
      "o b",
      "o w",
      "m v",
      "w rite",
      "Ġt mp",
      "fi le",
      "ma sk",
      "Ġ :",
      "n c",
      "st art",
      "w idth",
      "he ight",
      "y s",
      "Ġb lock",
      "Ġc ode",
      "a ck",
      "d c",
      "al loc",
      "] );",
      "o st",
      "l y",
      "Ġre g",
      "c ur",
      "or y",
      "fil ter",
      "pr intf",
      "fa ult",
      "m d",
      "( );",
      "t mp",
      "Ġ '",
      "sig n",
      "Ġav ctx",
      "t ion",
      "de f",
      "e s",
      "endi f",
      "pa cket",
      "Ġo ffset",
      "u ct",
      "Ġf a",
      "Ġb e",
      "for mat",
      "m s",
      "st at",
      "pi cture",
      "bu s",
      "lo ad",
      "t x",
      "Ġd o",
      "in val",
      "Ġ len",
      "m ode",
      "Ġ1 6",
      "i ster",
      "he ck",
      "Ġa l",
      "Ġp a",
      "Ġm a",
      "Ġw e",
      "Ġs w",
      "Ġ env",
      "Ġ ?",
      "Ġn e",
      "c b",
      "er t",
      "q u",
      "chan nel",
      "s ub",
      "s l",
      "re s",
      "Ġn ot",
      "Ġ en",
      "00 0",
      "d er",
      "on g",
      "l k",
      "la y",
      "fi g",
      "tim e",
      "m e",
      "b e",
      "n b",
      "p kt",
      "f e",
      "t arget",
      "re nt",
      "b yte",
      "Ġw h",
      "Ġav error",
      "r am",
      "c r",
      "it ch",
      "ne w",
      "la st",
      "le v",
      "e c",
      "Ġo f",
      "Ġp r",
      "Ġb yte",
      "u int",
      "t l",
      "Ġf rame",
      "v m",
      "lev el",
      "co mp",
      "p ort",
      "l d",
      "a le",
      "sign ed",
      "di o",
      "e ct",
      "Ġ> =",
      "te mp",
      "Ġd st",
      "a u",
      "Ġb drv",
      "ir t",
      "Ġp ci",
      "if t",
      "si on",
      "t b",
      "in d",
      "id x",
      "in sn",
      "se ctor",
      "Ġad dr",
      "re ss",
      "Ġc tx",
      "Ġs c",
      "val ue",
      "ac he",
      ") {",
      "ir q",
      "lo w",
      "pc i",
      "n r",
      "Ġ on",
      "Ġsw itch",
      "Ġs h",
      "us er",
      "j ect",
      "ide o",
      "te d",
      "Ġd ata",
      "u v",
      "Ġn b",
      "p ic",
      "Ġt r",
      "r ate",
      "s o",
      "op ts",
      "s er",
      "reg ion",
      "( (",
      "lu ster",
      "tr y",
      "p l",
      "Ġcode c",
      "1 2",
      "Ġ err",
      "Ġav io",
      "e y",
      "ss ert",
      "Ġs o",
      "Ġm b",
      "av e",
      "el d",
      "len ame",
      "str ide",
      "Ġfa il",
      "Ġ _",
      "Ġa nd",
      "stat us",
      "Ġb it",
      "po s",
      "ct ion",
      "Ġ .",
      "a que",
      "re d",
      "it h",
      "bu g",
      "line size",
      "s y",
      "b o",
      "c c",
      "Ġreg ister",
      "pix el",
      "Ġ 5",
      "Ġde fault",
      "re q",
      "Ġ| =",
      "m in",
      "++ ;",
      "Ġp ix",
      "sc ale",
      "l c",
      "Ġ 6",
      "inval id",
      "di r",
      "an t",
      "pr o",
      "ff ff",
      "g th",
      "r d",
      "ro m",
      "par am",
      "o s",
      "Ġ* )",
      "int er",
      "] )",
      "con fig",
      "f s",
      "Ġ set",
      "lo at",
      "Ġun signed",
      "Ġc heck",
      "1 0",
      "iv e",
      "Ġb s",
      "pr op",
      "at h",
      "r l",
      "pr iv",
      "Ġma x",
      "en c",
      "f l",
      "io v",
      "al l",
      "a g",
      "c s",
      "ce ss",
      "at ure",
      "fi lename",
      "e p",
      "ch r",
      "ad ata",
      "c md",
      "f t",
      "el per",
      "n ext",
      "o re",
      "y pe",
      "s w",
      "Ġwh ile",
      "au dio",
      "c ache",
      "q emu",
      "Ġa s",
      "irt io",
      "t c",
      "on e",
      "v ideo",
      "s b",
      "sl ice",
      "Ġin dex",
      "in k",
      "con d",
      "ro ma",
      "de code",
      "sh ift",
      "h ost",
      "Ġc ur",
      "Ġ 7",
      "a ct",
      "reg s",
      "Ġp re",
      "Ġin it",
      "x f",
      "pa ge",
      "se d",
      "k ey",
      "un d",
      "err p",
      "mem ory",
      "i al",
      "fd t",
      "ar d",
      "co l",
      "d ate",
      "le m",
      "op t",
      "Ġval ue",
      "Ġth is",
      "v e",
      "di ct",
      "c luster",
      "Ġmem ory",
      "m alloc",
      "un k",
      "if def",
      "Ġp ut",
      "or d",
      "Ġi t",
      "f p",
      "re ct",
      "z er",
      "p ts",
      "fi eld",
      "stream s",
      "Ġf il",
      "sample s",
      "un c",
      "p y",
      "str uct",
      "h elper",
      "Ġn um",
      "Ġp kt",
      "s r",
      "m u",
      "Ġt ype",
      "fe ature",
      "n ot",
      "b r",
      "Ġre ad",
      "loc al",
      "2 4",
      "Ġa c",
      "que st",
      "x x",
      "co der",
      "d o",
      "cur rent",
      "Ġad d",
      "channel s",
      "t ab",
      "Ġstr uct",
      "op aque",
      "Ġt e",
      "Ġ at",
      "b ack",
      "de bug",
      "m o",
      "Ġd c",
      "ta g",
      "re ate",
      "] =",
      "Ġb o",
      "Ġst art",
      "v oid",
      "Ġne w",
      "o k",
      "Ġf lag",
      "v c",
      "la ss",
      "d u",
      "con st",
      "- -",
      "v lc",
      "le ft",
      "Ġ1 2",
      "Ġ< =",
      "sector s",
      "b and",
      "2 64"
    ]
  }
}