{
  "version": "1.0",
  "truncation": null,
  "padding": null,
  "added_tokens": [
    {
      "id": 0,
      "content": "<s>",
      "single_word": false,
      "lstrip": false,
      "rstrip": false,
      "normalized": false,
      "special": true
    },
    {
      "id": 1,
      "content": "<pad>",
      "single_word": false,
      "lstrip": false,
      "rstrip": false,
      "normalized": false,
      "special": true
    },
    {
      "id": 2,
      "content": "</s>",
      "single_word": false,
      "lstrip": false,
      "rstrip": false,
      "normalized": false,
      "special": true
    },
    {
      "id": 3,
      "content": "<unk>",
      "single_word": false,
      "lstrip": false,
      "rstrip": false,
      "normalized": false,
      "special": true
    }
  ],
  "normalizer": {
    "type": "Lowercase"
  },
  "pre_tokenizer": {
    "type": "ByteLevel",
    "add_prefix_space": true,
    "trim_offsets": true,
    "use_regex": true
  },
  "post_processor": {
    "type": "ByteLevel",
    "add_prefix_space": true,
    "trim_offsets": true,
    "use_regex": true
  },
  "decoder": {
    "type": "ByteLevel",
    "add_prefix_space": true,
    "trim_offsets": true,
    "use_regex": true
  },
  "model": {
    "type": "BPE",
    "dropout": null,
    "unk_token": "<unk>",
    "continuing_subword_prefix": null,
    "end_of_word_suffix": null,
    "fuse_unk": false,
    "vocab": {
      "<s>": 0,
      "<pad>": 1,
      "</s>": 2,
      "<unk>": 3,
      "!": 4,
      "\"": 5,
      "#": 6,
      "$": 7,
      "%": 8,
      "&": 9,
      "'": 10,
      "(": 11,
      ")": 12,
      "*": 13,
      "+": 14,
      ",": 15,
      "-": 16,
      ".": 17,
      "/": 18,
      "0": 19,
      "1": 20,
      "2": 21,
      "3": 22,
      "4": 23,
      "5": 24,
      "6": 25,
      "7": 26,
      "8": 27,
      "9": 28,
      ":": 29,
      ";": 30,
      "<": 31,
      "=": 32,
      ">": 33,
      "?": 34,
      "@": 35,
      "A": 36,
      "B": 37,
      "C": 38,
      "D": 39,
      "E": 40,
      "F": 41,
      "G": 42,
      "H": 43,
      "I": 44,
      "J": 45,
      "K": 46,
      "L": 47,
      "M": 48,
      "N": 49,
      "O": 50,
      "P": 51,
      "Q": 52,
      "R": 53,
      "S": 54,
      "T": 55,
      "U": 56,
      "V": 57,
      "W": 58,
      "X": 59,
      "Y": 60,
      "Z": 61,
      "[": 62,
      "\\": 63,
      "]": 64,
      "^": 65,
      "_": 66,
      "`": 67,
      "a": 68,
      "b": 69,
      "c": 70,
      "d": 71,
      "e": 72,
      "f": 73,
      "g": 74,
      "h": 75,
      "i": 76,
      "j": 77,
      "k": 78,
      "l": 79,
      "m": 80,
      "n": 81,
      "o": 82,
      "p": 83,
      "q": 84,
      "r": 85,
      "s": 86,
      "t": 87,
      "u": 88,
      "v": 89,
      "w": 90,
      "x": 91,
      "y": 92,
      "z": 93,
      "{": 94,
      "|": 95,
      "}": 96,
      "~": 97,
      "¡": 98,
      "¢": 99,
      "£": 100,
      "¤": 101,
      "¥": 102,
      "¦": 103,
      "§": 104,
      "¨": 105,
      "©": 106,
      "ª": 107,
      "«": 108,
      "¬": 109,
      "®": 110,
      "¯": 111,
      "°": 112,
      "±": 113,
      "²": 114,
      "³": 115,
      "´": 116,
      "µ": 117,
      "¶": 118,
      "·": 119,
      "¸": 120,
      "¹": 121,
      "º": 122,
      "»": 123,
      "¼": 124,
      "½": 125,
      "¾": 126,
      "¿": 127,
      "À": 128,
      "Á": 129,
      "Â": 130,
      "Ã": 131,
      "Ä": 132,
      "Å": 133,
      "Æ": 134,
      "Ç": 135,
      "È": 136,
      "É": 137,
      "Ê": 138,
      "Ë": 139,
      "Ì": 140,
      "Í": 141,
      "Î": 142,
      "Ï": 143,
      "Ð": 144,
      "Ñ": 145,
      "Ò": 146,
      "Ó": 147,
      "Ô": 148,
      "Õ": 149,
      "Ö": 150,
      "×": 151,
      "Ø": 152,
      "Ù": 153,
      "Ú": 154,
      "Û": 155,
      "Ü": 156,
      "Ý": 157,
      "Þ": 158,
      "ß": 159,
      "à": 160,
      "á": 161,
      "â": 162,
      "ã": 163,
      "ä": 164,
      "å": 165,
      "æ": 166,
      "ç": 167,
      "è": 168,
      "é": 169,
      "ê": 170,
      "ë": 171,
      "ì": 172,
      "í": 173,
      "î": 174,
      "ï": 175,
      "ð": 176,
      "ñ": 177,
      "ò": 178,
      "ó": 179,
      "ô": 180,
      "õ": 181,
      "ö": 182,
      "÷": 183,
      "ø": 184,
      "ù": 185,
      "ú": 186,
      "û": 187,
      "ü": 188,
      "ý": 189,
      "þ": 190,
      "ÿ": 191,
      "Ā": 192,
      "ā": 193,
      "Ă": 194,
      "ă": 195,
      "Ą": 196,
      "ą": 197,
      "Ć": 198,
      "ć": 199,
      "Ĉ": 200,
      "ĉ": 201,
      "Ċ": 202,
      "ċ": 203,
      "Č": 204,
      "č": 205,
      "Ď": 206,
      "ď": 207,
      "Đ": 208,
      "đ": 209,
      "Ē": 210,
      "ē": 211,
      "Ĕ": 212,
      "ĕ": 213,
      "Ė": 214,
      "ė": 215,
      "Ę": 216,
      "ę": 217,
      "Ě": 218,
      "ě": 219,
      "Ĝ": 220,
      "ĝ": 221,
      "Ğ": 222,
      "ğ": 223,
      "Ġ": 224,
      "ġ": 225,
      "Ģ": 226,
      "ģ": 227,
      "Ĥ": 228,
      "ĥ": 229,
      "Ħ": 230,
      "ħ": 231,
      "Ĩ": 232,
      "ĩ": 233,
      "Ī": 234,
      "ī": 235,
      "Ĭ": 236,
      "ĭ": 237,
      "Į": 238,
      "į": 239,
      "İ": 240,
      "ı": 241,
      "Ĳ": 242,
      "ĳ": 243,
      "Ĵ": 244,
      "ĵ": 245,
      "Ķ": 246,
      "ķ": 247,
      "ĸ": 248,
      "Ĺ": 249,
      "ĺ": 250,
      "Ļ": 251,
      "ļ": 252,
      "Ľ": 253,
      "ľ": 254,
      "Ŀ": 255,
      "ŀ": 256,
      "Ł": 257,
      "ł": 258,
      "Ń": 259,
      "->": 260,
      "re": 261,
      "in": 262,
      "Ġ=": 263,
      "st": 264,
      ");": 265,
      "er": 266,
      "Ġi": 267,
      "de": 268,
      "se": 269,
      "Ġ(": 270,
      "Ġ*": 271,
      "Ġc": 272,
      "Ġs": 273,
      "at": 274,
      "en": 275,
      "Ġa": 276,
      "Ġ}": 277,
      "or": 278,
      "Ġt": 279,
      "on": 280,
      "Ġ{": 281,
      "Ġ0": 282,
      "int": 283,
      "Ġif": 284,
      "ct": 285,
      "Ġb": 286,
      "le": 287,
      "Ġf": 288,
      "lo": 289,
      "am": 290,
      "Ġre": 291,
      "it": 292,
      "Ġp": 293,
      "ar": 294,
      "si": 295,
      "al": 296,
      "co": 297,
      "et": 298,
      "ze": 299,
      "Ġav": 300,
      "ad": 301,
      "Ġ&": 302,
      "el": 303,
      "Ġ/": 304,
      "id": 305,
      "Ġm": 306,
      "ff": 307,
      "op": 308,
      "Ġg": 309,
      "ck": 310,
      "Ġv": 311,
      "Ġn": 312,
      "ur": 313,
      "an": 314,
      "Ġ1": 315,
      "Ġret": 316,
      "Ġ\"": 317,
      "Ġint": 318,
      "he": 319,
      "pu": 320,
      "Ġ/*": 321,
      "size": 322,
      "ic": 323,
      "Ġ*/": 324,
      "te": 325,
      "ase": 326,
      "un": 327,
      "err": 328,
      "mp": 329,
      "Ġ+": 330,
      "Ġd": 331,
      "ma": 332,
      "la": 333,
      "ame": 334,
      "set": 335,
      "ot": 336,
      "Ġst": 337,
      "ch": 338,
      "bu": 339,
      "Ġ<": 340,
      "ate": 341,
      "ul": 342,
      "pe": 343,
      "fi": 344,
      "em": 345,
      "di": 346,
      "dr": 347,
      "00": 348,
      "Ġ-": 349,
      "Ġcase": 350,
      "urn": 351,
      "Ġreturn": 352,
      "ctx": 353,
      "code": 354,
      "get": 355,
      "pr": 356,
      "tr": 357,
      "Ġr": 358,
      "Ġo": 359,
      "con": 360,
      "ex": 361,
      "ion": 362,
      "ut": 363,
      "av": 364,
      "32": 365,
      "io": 366,
      "Ġ%": 367,
      "ak": 368,
      "ata": 369,
      "ue": 370,
      "Ġq": 371,
      "Ġu": 372,
      "Ġw": 373,
      "Ġ==": 374,
      "reak": 375,
      "lock": 376,
      "))": 377,
      "Ġbreak": 378,
      "Ġh": 379,
      "ed": 380,
      "ty": 381,
      "mm": 382,
      "ing": 383,
      "dev": 384,
      "ss": 385,
      "64": 386,
      "error": 387,
      "(&": 388,
      "ab": 389,
      "\",": 390,
      "rame": 391,
      "else": 392,
      "len": 393,
      "Ġin": 394,
      "log": 395,
      "Ġ>": 396,
      "ce": 397,
      "Ġfor": 398,
      "rc": 399,
      "Ġ|": 400,
      "Ġelse": 401,
      "pa": 402,
      "type": 403,
      "Ġsi": 404,
      "pi": 405,
      "Ġ2": 406,
      "bit": 407,
      "++": 408,
      "ts": 409,
      "th": 410,
      "Ġthe": 411,
      "reg": 412,
      "um": 413,
      "li": 414,
      "data": 415,
      "sc": 416,
      "frame": 417,
      "pc": 418,
      "Ġcon": 419,
      "];": 420,
      "ro": 421,
      "val": 422,
      "ull": 423,
      "is": 424,
      "env": 425,
      "ode": 426,
      "us": 427,
      "str": 428,
      "Ġde": 429,
      "lag": 430,
      "Ġtc": 431,
      "cpu": 432,
      "buf": 433,
      "Ġsize": 434,
      "Ġ#": 435,
      "as": 436,
      "ig": 437,
      "ffset": 438,
      "Ġ!": 439,
      "ge": 440,
      "im": 441,
      "16": 442,
      "il": 443,
      "codec": 444,
      "ream": 445,
      "ir": 446,
      "Ġ&&": 447,
      "if": 448,
      "able": 449,
      "ps": 450,
      "Ġtcg": 451,
      "tex": 452,
      "dex": 453,
      "state": 454,
      "Ġuint": 455,
      "ine": 456,
      "ac": 457,
      "arget": 458,
      "Ġgen": 459,
      "of": 460,
      "mb": 461,
      "][": 462,
      "Ġ(!": 463,
      "addr": 464,
      "Ġstat": 465,
      "emu": 466,
      "Ġch": 467,
      "flag": 468,
      "Ġl": 469,
      "));": 470,
      "],": 471,
      "Ġcpu": 472,
      "bits": 473,
      "ice": 474,
      "Ġ%%": 475,
      "Ġnull": 476,
      "fo": 477,
      "text": 478,
      "up": 479,
      "),": 480,
      "oid": 481,
      "oto": 482,
      "avctx": 483,
      "and": 484,
      "stream": 485,
      "ter": 486,
      "ov": 487,
      "ra": 488,
      "ure": 489,
      "block": 490,
      "gb": 491,
      "out": 492,
      "Ġstatic": 493,
      "amp": 494,
      "read": 495,
      "put": 496,
      "iv": 497,
      "Ġ4": 498,
      "context": 499,
      "Ġff": 500,
      "++)": 501,
      "\");": 502,
      "ide": 503,
      "ol": 504,
      "art": 505,
      "loc": 506,
      "Ġto": 507,
      "Ġgoto": 508,
      "unt": 509,
      "Ġget": 510,
      "Ġ!=": 511,
      "ctor": 512,
      "Ġbu": 513,
      "Ġop": 514,
      "ample": 515,
      "Ġis": 516,
      "index": 517,
      "Ġ\\": 518,
      "sk": 519,
      "end": 520,
      "ster": 521,
      "no": 522,
      "mt": 523,
      "Ġx": 524,
      "fa": 525,
      "ffer": 526,
      "yte": 527,
      "igh": 528,
      "mat": 529,
      "ent": 530,
      "ptr": 531,
      "ext": 532,
      "offset": 533,
      "Ġqemu": 534,
      "sh": 535,
      "ub": 536,
      "pb": 537,
      "Ġconst": 538,
      "Ġar": 539,
      "cket": 540,
      "init": 541,
      "sp": 542,
      "ile": 543,
      "Ġ//": 544,
      "ne": 545,
      "to": 546,
      "Ġvoid": 547,
      "rit": 548,
      "num": 549,
      "Ġ3": 550,
      "].": 551,
      "Ġ||": 552,
      "nt": 553,
      "ort": 554,
      "ci": 555,
      "Ġ((": 556,
      "Ġ>>": 557,
      "count": 558,
      "nel": 559,
      "fd": 560,
      "sig": 561,
      "ree": 562,
      "mem": 563,
      "Ġ+=": 564,
      "add": 565,
      "que": 566,
      "ult": 567,
      "Ġ8": 568,
      "kt": 569,
      "ap": 570,
      "Ġtarget": 571,
      "ip": 572,
      "sample": 573,
      "fmt": 574,
      "ight": 575,
      "rite": 576,
      "Ġ<<": 577,
      "bs": 578,
      "Ġco": 579,
      "ix": 580,
      "Ġad": 581,
      "ret": 582,
      "table": 583,
      "pix": 584,
      "ref": 585,
      "po": 586,
      "Ġe": 587,
      "idth": 588,
      "head": 589,
      "src": 590,
      "name": 591,
      "for": 592,
      "tim": 593,
      "flags": 594,
      "buffer": 595,
      "info": 596,
      "gen": 597,
      "Ġse": 598,
      "list": 599,
      "pre": 600,
      "(\"": 601,
      "Ġbuf": 602,
      "Ġun": 603,
      "ver": 604,
      "max": 605,
      "arg": 606,
      "free": 607,
      "cp": 608,
      "Ġth": 609,
      "mov": 610,
      "Ġmem": 611,
      "line": 612,
      "Ġval": 613,
      "Ġsizeof": 614,
      "per": 615,
      "cture": 616,
      "ation": 617,
      "intf": 618,
      "device": 619,
      "nd": 620,
      "Ġj": 621,
      "base": 622,
      "Ġk": 623,
      "fil": 624,
      "ph": 625,
      "par": 626,
      "Ġerror": 627,
      "Ġex": 628,
      "Ġout": 629,
      "Ġy": 630,
      "Ġchar": 631,
      "header": 632,
      "0000": 633,
      "Ġstr": 634,
      "dst": 635,
      "sn": 636,
      "chan": 637,
      "Ġsrc": 638,
      "map": 639,
      "drv": 640,
      "Ġarg": 641,
      "endi": 642,
      "ta": 643,
      "lu": 644,
      "ob": 645,
      "ow": 646,
      "mv": 647,
      "write": 648,
      "Ġtmp": 649,
      "file": 650,
      "mask": 651,
      "Ġ:": 652,
      "nc": 653,
      "start": 654,
      "width": 655,
      "height": 656,
      "ys": 657,
      "Ġblock": 658,
      "Ġcode": 659,
      "ack": 660,
      "dc": 661,
      "alloc": 662,
      "]);": 663,
      "ost": 664,
      "ly": 665,
      "Ġreg": 666,
      "cur": 667,
      "ory": 668,
      "filter": 669,
      "printf": 670,
      "fault": 671,
      "md": 672,
      "();": 673,
      "tmp": 674,
      "Ġ'": 675,
      "sign": 676,
      "Ġavctx": 677,
      "tion": 678,
      "def": 679,
      "es": 680,
      "endif": 681,
      "packet": 682,
      "Ġoffset": 683,
      "uct": 684,
      "Ġfa": 685,
      "Ġbe": 686,
      "format": 687,
      "ms": 688,
      "stat": 689,
      "picture": 690,
      "bus": 691,
      "load": 692,
      "tx": 693,
      "Ġdo": 694,
      "inval": 695,
      "Ġlen": 696,
      "mode": 697,
      "Ġ16": 698,
      "ister": 699,
      "heck": 700,
      "Ġal": 701,
      "Ġpa": 702,
      "Ġma": 703,
      "Ġwe": 704,
      "Ġsw": 705,
      "Ġenv": 706,
      "Ġ?": 707,
      "Ġne": 708,
      "cb": 709,
      "ert": 710,
      "qu": 711,
      "channel": 712,
      "sub": 713,
      "sl": 714,
      "res": 715,
      "Ġnot": 716,
      "Ġen": 717,
      "000": 718,
      "der": 719,
      "ong": 720,
      "lk": 721,
      "lay": 722,
      "fig": 723,
      "time": 724,
      "me": 725,
      "be": 726,
      "nb": 727,
      "pkt": 728,
      "fe": 729,
      "target": 730,
      "rent": 731,
      "byte": 732,
      "Ġwh": 733,
      "Ġaverror": 734,
      "ram": 735,
      "cr": 736,
      "itch": 737,
      "new": 738,
      "last": 739,
      "lev": 740,
      "ec": 741,
      "Ġof": 742,
      "Ġpr": 743,
      "Ġbyte": 744,
      "uint": 745,
      "tl": 746,
      "Ġframe": 747,
      "vm": 748,
      "level": 749,
      "comp": 750,
      "port": 751,
      "ld": 752,
      "ale": 753,
      "signed": 754,
      "dio": 755,
      "ect": 756,
      "Ġ>=": 757,
      "temp": 758,
      "Ġdst": 759,
      "au": 760,
      "Ġbdrv": 761,
      "irt": 762,
      "Ġpci": 763,
      "ift": 764,
      "sion": 765,
      "tb": 766,
      "ind": 767,
      "idx": 768,
      "insn": 769,
      "sector": 770,
      "Ġaddr": 771,
      "ress": 772,
      "Ġctx": 773,
      "Ġsc": 774,
      "value": 775,
      "ache": 776,
      "){": 777,
      "irq": 778,
      "low": 779,
      "pci": 780,
      "nr": 781,
      "Ġon": 782,
      "Ġswitch": 783,
      "Ġsh": 784,
      "user": 785,
      "ject": 786,
      "ideo": 787,
      "ted": 788,
      "Ġdata": 789,
      "uv": 790,
      "Ġnb": 791,
      "pic": 792,
      "Ġtr": 793,
      "rate": 794,
      "so": 795,
      "opts": 796,
      "ser": 797,
      "region": 798,
      "((": 799,
      "luster": 800,
      "try": 801,
      "pl": 802,
      "Ġcodec": 803,
      "12": 804,
      "Ġerr": 805,
      "Ġavio": 806,
      "ey": 807,
      "ssert": 808,
      "Ġso": 809,
      "Ġmb": 810,
      "ave": 811,
      "eld": 812,
      "lename": 813,
      "stride": 814,
      "Ġfail": 815,
      "Ġ_": 816,
      "Ġand": 817,
      "status": 818,
      "Ġbit": 819,
      "pos": 820,
      "ction": 821,
      "Ġ.": 822,
      "aque": 823,
      "red": 824,
      "ith": 825,
      "bug": 826,
      "linesize": 827,
      "sy": 828,
      "bo": 829,
      "cc": 830,
      "Ġregister": 831,
      "pixel": 832,
      "Ġ5": 833,
      "Ġdefault": 834,
      "req": 835,
      "Ġ|=": 836,
      "min": 837,
      "++;": 838,
      "Ġpix": 839,
      "scale": 840,
      "lc": 841,
      "Ġ6": 842,
      "invalid": 843,
      "dir": 844,
      "ant": 845,
      "pro": 846,
      "ffff": 847,
      "gth": 848,
      "rd": 849,
      "rom": 850,
      "param": 851,
      "os": 852,
      "Ġ*)": 853,
      "inter": 854,
      "])": 855,
      "config": 856,
      "fs": 857,
      "Ġset": 858,
      "loat": 859,
      "Ġunsigned": 860,
      "Ġcheck": 861,
      "10": 862,
      "ive": 863,
      "Ġbs": 864,
      "prop": 865,
      "ath": 866,
      "rl": 867,
      "priv": 868,
      "Ġmax": 869,
      "enc": 870,
      "fl": 871,
      "iov": 872,
      "all": 873,
      "ag": 874,
      "cs": 875,
      "cess": 876,
      "ature": 877,
      "filename": 878,
      "ep": 879,
      "chr": 880,
      "adata": 881,
      "cmd": 882,
      "ft": 883,
      "elper": 884,
      "next": 885,
      "ore": 886,
      "ype": 887,
      "sw": 888,
      "Ġwhile": 889,
      "audio": 890,
      "cache": 891,
      "qemu": 892,
      "Ġas": 893,
      "irtio": 894,
      "tc": 895,
      "one": 896,
      "video": 897,
      "sb": 898,
      "slice": 899,
      "Ġindex": 900,
      "ink": 901,
      "cond": 902,
      "roma": 903,
      "decode": 904,
      "shift": 905,
      "host": 906,
      "Ġcur": 907,
      "Ġ7": 908,
      "act": 909,
      "regs": 910,
      "Ġpre": 911,
      "Ġinit": 912,
      "xf": 913,
      "page": 914,
      "sed": 915,
      "key": 916,
      "und": 917,
      "errp": 918,
      "memory": 919,
      "ial": 920,
      "fdt": 921,
      "ard": 922,
      "col": 923,
      "date": 924,
      "lem": 925,
      "opt": 926,
      "Ġvalue": 927,
      "Ġthis": 928,
      "ve": 929,
      "dict": 930,
      "cluster": 931,
      "Ġmemory": 932,
      "malloc": 933,
      "unk": 934,
      "ifdef": 935,
      "Ġput": 936,
      "ord": 937,
      "Ġit": 938,
      "fp": 939,
      "rect": 940,
      "zer": 941,
      "pts": 942,
      "field": 943,
      "streams": 944,
      "Ġfil": 945,
      "samples": 946,
      "unc": 947,
      "py": 948,
      "struct": 949,
      "helper": 950,
      "Ġnum": 951,
      "Ġpkt": 952,
      "sr": 953,
      "mu": 954,
      "Ġtype": 955,
      "feature": 956,
      "not": 957,
      "br": 958,
      "Ġread": 959,
      "local": 960,
      "24": 961,
      "Ġac": 962,
      "quest": 963,
      "xx": 964,
      "coder": 965,
      "do": 966,
      "current": 967,
      "Ġadd": 968,
      "channels": 969,
      "tab": 970,
      "Ġstruct": 971,
      "opaque": 972,
      "Ġte": 973,
      "Ġat": 974,
      "back": 975,
      "debug": 976,
      "mo": 977,
      "Ġdc": 978,
      "tag": 979,
      "reate": 980,
      "]=": 981,
      "Ġbo": 982,
      "Ġstart": 983,
      "void": 984,
      "Ġnew": 985,
      "ok": 986,
      "Ġflag": 987,
      "vc": 988,
      "lass": 989,
      "du": 990,
      "const": 991,
      "--": 992,
      "vlc": 993,
      "left": 994,
      "Ġ12": 995,
      "Ġ<=": 996,
      "sectors": 997,
      "band": 998,
      "264": 999,
      "Ġno": 1000,
      "ist": 1001,
      "hand": 1002,
      "entry": 1003,
      "Ġpro": 1004,
      "Ġend": 1005,
      "errno": 1006,
      "cep": 1007,
      "Ġ32": 1008,
      "has": 1009,
      "cmp": 1010,
      "xy": 1011,
      "eff": 1012,
      "zero": 1013,
      "ask": 1014,
      "Ġload": 1015,
      "Ġtim": 1016,
      "Ġ~": 1017,
      "Ġheader": 1018,
      "input": 1019,
      "Ġor": 1020,
      "std": 1021,
      "Ġbytestream": 1022,
      "56": 1023,
      "ity": 1024,
      "output": 1025,
      "Ġid": 1026,
      "length": 1027,
      "chroma": 1028,
      "Ġrd": 1029,
      "ber": 1030,
      "hci": 1031,
      "extr": 1032,
      "Ġstream": 1033,
      "ga": 1034,
      "Ġres": 1035,
      "gn": 1036,
      "Ġ10": 1037,
      "ange": 1038,
      "path": 1039,
      "ernel": 1040,
      "string": 1041,
      "Ġ__": 1042,
      "desc": 1043,
      "spa": 1044,
      "Ġpar": 1045,
      "object": 1046,
      "uld": 1047,
      "86": 1048,
      "(*": 1049,
      "ment": 1050,
      "Ġline": 1051,
      "por": 1052,
      "hw": 1053,
      "ane": 1054,
      "pp": 1055,
      "mage": 1056,
      "Ġvirtio": 1057,
      "xff": 1058,
      "eg": 1059,
      "Ġdef": 1060,
      "ign": 1061,
      "intra": 1062,
      "20": 1063,
      "peg": 1064,
      "iver": 1065,
      "ev": 1066,
      "ies": 1067,
      "link": 1068,
      "fg": 1069,
      "rr": 1070,
      "Ġnext": 1071,
      "ips": 1072,
      "\";": 1073,
      "fix": 1074,
      "met": 1075,
      "timer": 1076,
      "ined": 1077,
      "blk": 1078,
      "cli": 1079,
      "Ġdevice": 1080,
      "Ġ**": 1081,
      "Ġcomp": 1082,
      "Ġtra": 1083,
      "Ġfd": 1084,
      "align": 1085,
      "Ġopc": 1086,
      "80": 1087,
      "ition": 1088,
      "lab": 1089,
      "thread": 1090,
      "class": 1091,
      "pred": 1092,
      "wa": 1093,
      "Ġwith": 1094,
      "Ġpc": 1095,
      "address": 1096,
      "Ġsample": 1097,
      "vp": 1098,
      "mc": 1099,
      "mmx": 1100,
      "args": 1101,
      "Ġdi": 1102,
      "bytes": 1103,
      "Ġ)": 1104,
      "Ġfprintf": 1105,
      "queue": 1106,
      "Ġflags": 1107,
      "check": 1108,
      "qp": 1109,
      "cpy": 1110,
      "Ġdis": 1111,
      "Ġmode": 1112,
      "Ġref": 1113,
      "uest": 1114,
      "Ġbuffer": 1115,
      "option": 1116,
      "scsi": 1117,
      "ans": 1118,
      "gr": 1119,
      "nal": 1120,
      "frames": 1121,
      "aio": 1122,
      "Ġrt": 1123,
      "(%": 1124,
      "yuv": 1125,
      "Ġsl": 1126,
      "11": 1127,
      "ception": 1128,
      "Ġassert": 1129,
      "ize": 1130,
      "assert": 1131,
      "Ġ-=": 1132,
      "xmm": 1133,
      "rt": 1134,
      "phys": 1135,
      "ded": 1136,
      "skip": 1137,
      "coded": 1138,
      "dest": 1139,
      "ents": 1140,
      "net": 1141,
      "func": 1142,
      "edge": 1143,
      "Ġ9": 1144,
      "Ġ\"\\": 1145,
      "Ġare": 1146,
      "pcm": 1147,
      "Ġsk": 1148,
      "driver": 1149,
      "Ġthat": 1150,
      "stderr": 1151,
      "ek": 1152,
      "Ġmv": 1153,
      "ler": 1154,
      "open": 1155,
      "Ġpos": 1156,
      "Ġpic": 1157,
      "Ġskip": 1158,
      "dec": 1159,
      "otion": 1160,
      "enable": 1161,
      "comm": 1162,
      "pha": 1163,
      "sizeof": 1164,
      ":%": 1165,
      "null": 1166,
      "create": 1167,
      "Ġup": 1168,
      "vs": 1169,
      "otal": 1170,
      "ls": 1171,
      "',": 1172,
      "rgb": 1173,
      "reset": 1174,
      "Ġob": 1175,
      "Ġwrite": 1176,
      "Ġan": 1177,
      "Ġfloat": 1178,
      "==": 1179,
      "lim": 1180,
      ">>": 1181,
      "]->": 1182,
      "pixels": 1183,
      "'t": 1184,
      "Ġfile": 1185,
      "spr": 1186,
      "fc": 1187,
      "seg": 1188,
      "quant": 1189,
      "Ġwidth": 1190,
      "Ġmemcpy": 1191,
      "Ġio": 1192,
      "Ġhave": 1193,
      "=%": 1194,
      "cel": 1195,
      "request": 1196,
      "Ġsub": 1197,
      "Ġrn": 1198,
      "tin": 1199,
      "**": 1200,
      "Ġinfo": 1201,
      "ding": 1202,
      "ulong": 1203,
      "off": 1204,
      "Ġpi": 1205,
      "invaliddata": 1206,
      "Ġ(*": 1207,
      "Ġdev": 1208,
      "ush": 1209,
      "use": 1210,
      "errup": 1211,
      "fn": 1212,
      "uration": 1213,
      "conf": 1214,
      "mpeg": 1215,
      "Ġtemp": 1216,
      "ust": 1217,
      "Ġtrue": 1218,
      "cow": 1219,
      "mmu": 1220,
      "movq": 1221,
      "Ġvnc": 1222,
      ")))": 1223,
      "Ġfi": 1224,
      "sync": 1225,
      "Ġoutput": 1226,
      "ary": 1227,
      "register": 1228,
      "now": 1229,
      "lb": 1230,
      "om": 1231,
      "atch": 1232,
      "iled": 1233,
      "extradata": 1234,
      "update": 1235,
      "Ġarm": 1236,
      "copy": 1237,
      "pect": 1238,
      "Ġsd": 1239,
      "Ġost": 1240,
      "Ġcan": 1241,
      "Ġconfig": 1242,
      "Ġpacket": 1243,
      "rb": 1244,
      "Ġmov": 1245,
      "scan": 1246,
      "ctl": 1247,
      "ray": 1248,
      "trol": 1249,
      "Ġpixel": 1250,
      "run": 1251,
      "Ġusb": 1252,
      "word": 1253,
      "dsp": 1254,
      "Ġ\"%": 1255,
      "long": 1256,
      "Ġsector": 1257,
      "Ġot": 1258,
      "Ġ&=": 1259,
      "Ġ(!(": 1260,
      "pth": 1261,
      "Ġfilter": 1262,
      "Ġkvm": 1263,
      "Ġlast": 1264,
      "medi": 1265,
      "Ġblk": 1266,
      "alse": 1267,
      "Ġsup": 1268,
      "decoder": 1269,
      "ios": 1270,
      "Ġhas": 1271,
      "strc": 1272,
      "plane": 1273,
      "pict": 1274,
      ")(": 1275,
      "ated": 1276,
      "Ġtime": 1277,
      "Ġfir": 1278,
      "Ġdefined": 1279,
      "cfg": 1280,
      "let": 1281,
      "tinue": 1282,
      "coeff": 1283,
      "Ġfrom": 1284,
      "Ġdecode": 1285,
      "version": 1286,
      "ds": 1287,
      "__": 1288,
      "chine": 1289,
      "Ġcount": 1290,
      "blocks": 1291,
      "order": 1292,
      "Ġbits": 1293,
      "ild": 1294,
      "Ġmemset": 1295,
      "gpr": 1296,
      "lose": 1297,
      "obj": 1298,
      "store": 1299,
      "ported": 1300,
      "Ġchan": 1301,
      "Ġband": 1302,
      "Ġmin": 1303,
      "eno": 1304,
      "errupt": 1305,
      "tcg": 1306,
      "einval": 1307,
      "44": 1308,
      "opc": 1309,
      "Ġlevel": 1310,
      "setg": 1311,
      "dp": 1312,
      "Ġpage": 1313,
      "float": 1314,
      "Ġfirst": 1315,
      "valid": 1316,
      "fir": 1317,
      "Ġfalse": 1318,
      "report": 1319,
      "loop": 1320,
      "Ġcontinue": 1321,
      "old": 1322,
      "Ġspa": 1323,
      "coding": 1324,
      "Ġbytes": 1325,
      "Ġuse": 1326,
      "Ġau": 1327,
      "Ġab": 1328,
      "test": 1329,
      "rx": 1330,
      "Ġpow": 1331,
      "cap": 1332,
      "Ġrs": 1333,
      "uid": 1334,
      "15": 1335,
      "sps": 1336,
      "arm": 1337,
      "itor": 1338,
      "disp": 1339,
      "ml": 1340,
      "Ġmask": 1341,
      "Ġtcgv": 1342,
      "Ġist": 1343,
      "Ġexit": 1344,
      "params": 1345,
      "\"\\": 1346,
      "erty": 1347,
      "pack": 1348,
      "Ġ[": 1349,
      "Ġhw": 1350,
      "Ġqdev": 1351,
      "event": 1352,
      "Ġname": 1353,
      "Ġobject": 1354,
      "sup": 1355,
      "Ġram": 1356,
      "lta": 1357,
      "face": 1358,
      "color": 1359,
      "ri": 1360,
      "codeccontext": 1361,
      "Ġpower": 1362,
      "Ġ(%": 1363,
      "Ġtb": 1364,
      "ctrl": 1365,
      "xb": 1366,
      "Ġpl": 1367,
      "ped": 1368,
      "ai": 1369,
      "pend": 1370,
      "Ġ%%\"": 1371,
      "aps": 1372,
      "dma": 1373,
      "Ġvs": 1374,
      "uff": 1375,
      "we": 1376,
      "Ġstride": 1377,
      "enomem": 1378,
      "ers": 1379,
      "Ġptr": 1380,
      "mon": 1381,
      "rix": 1382,
      "ning": 1383,
      "Ġtable": 1384,
      "Ġalloc": 1385,
      "13": 1386,
      "Ġbool": 1387,
      "..": 1388,
      "Ġdr": 1389,
      "Ġlong": 1390,
      "own": 1391,
      "bdrv": 1392,
      "core": 1393,
      "pm": 1394,
      "Ġby": 1395,
      "vector": 1396,
      "char": 1397,
      "space": 1398,
      "driverstate": 1399,
      "model": 1400,
      "first": 1401,
      "ound": 1402,
      "ify": 1403,
      "Ġaddress": 1404,
      "Ġmo": 1405,
      "Ġ);": 1406,
      "hot": 1407,
      "number": 1408,
      "xa": 1409,
      "Ġz": 1410,
      "Ġ64": 1411,
      "exp": 1412,
      "limit": 1413,
      "db": 1414,
      "Ġsys": 1415,
      "vdev": 1416,
      "xl": 1417,
      "dts": 1418,
      "Ġcb": 1419,
      "age": 1420,
      "exception": 1421,
      "yp": 1422,
      "mplem": 1423,
      "Ġcc": 1424,
      "Ġsn": 1425,
      "den": 1426,
      "top": 1427,
      "Ġhand": 1428,
      "leg": 1429,
      "Ġ$": 1430,
      "ren": 1431,
      "hdr": 1432,
      "<<": 1433,
      "point": 1434,
      "kernel": 1435,
      "26": 1436,
      "enabled": 1437,
      "sum": 1438,
      "ance": 1439,
      "Ġdesc": 1440,
      "idct": 1441,
      "Ġrun": 1442,
      ")));": 1443,
      "Ġdest": 1444,
      "ast": 1445,
      "ns": 1446,
      "Ġvec": 1447,
      "options": 1448,
      "property": 1449,
      "client": 1450,
      "xffff": 1451,
      "Ġlog": 1452,
      "node": 1453,
      "parse": 1454,
      "Ġshift": 1455,
      "label": 1456,
      "Ġinput": 1457,
      "ould": 1458,
      "ual": 1459,
      "Ġonly": 1460,
      ".\\": 1461,
      "excp": 1462,
      "Ġlist": 1463,
      "Ġmap": 1464,
      "(!": 1465,
      "urce": 1466,
      "Ġheight": 1467,
      "Ġpowerpc": 1468,
      "40": 1469,
      "fr": 1470,
      "attr": 1471,
      "Ġsign": 1472,
      "chunk": 1473,
      "Ġsy": 1474,
      "Ġtag": 1475,
      "dis": 1476,
      "gp": 1477,
      "Ġhost": 1478,
      "image": 1479,
      "Ġback": 1480,
      "raw": 1481,
      "02": 1482,
      "Ġcop": 1483,
      "55": 1484,
      "tries": 1485,
      "rip": 1486,
      "pass": 1487,
      "vq": 1488,
      "cal": 1489,
      "Ġvc": 1490,
      "media": 1491,
      "Ġchannel": 1492,
      "track": 1493,
      "are": 1494,
      "Ġ};": 1495,
      "()": 1496,
      "gh": 1497,
      "Ġ15": 1498,
      "sd": 1499,
      "handle": 1500,
      "*)": 1501,
      "Ġle": 1502,
      "Ġspe": 1503,
      "row": 1504,
      "layout": 1505,
      "hd": 1506,
      "rag": 1507,
      "ector": 1508,
      "Ġold": 1509,
      "Ġall": 1510,
      "':": 1511,
      "lash": 1512,
      "sys": 1513,
      "range": 1514,
      "used": 1515,
      "Ġcmd": 1516,
      "Ġformat": 1517,
      "ping": 1518,
      "Ġaudio": 1519,
      "fore": 1520,
      "ake": 1521,
      "cryp": 1522,
      "Ġsamples": 1523,
      "indow": 1524,
      "lac": 1525,
      "matrix": 1526,
      "uble": 1527,
      "delay": 1528,
      "ail": 1529,
      "Ġneed": 1530,
      "sent": 1531,
      "Ġextr": 1532,
      "lette": 1533,
      "mx": 1534,
      "prog": 1535,
      "only": 1536,
      "conne": 1537,
      "server": 1538,
      "her": 1539,
      "Ġopaque": 1540,
      "ops": 1541,
      "ill": 1542,
      "Ġdprintf": 1543,
      "clock": 1544,
      "sel": 1545,
      "find": 1546,
      "Ġoff": 1547,
      "mpu": 1548,
      "qscale": 1549,
      "Ġbase": 1550,
      "handler": 1551,
      "Ġrc": 1552,
      "Ġopen": 1553,
      "Ġfl": 1554,
      "aut": 1555,
      "url": 1556,
      "Ġtci": 1557,
      "depth": 1558,
      "Ġfp": 1559,
      "Ġstate": 1560,
      "ble": 1561,
      "Ġcurrent": 1562,
      "++){": 1563,
      "Ġtrace": 1564,
      "sse": 1565,
      "Ġev": 1566,
      "50": 1567,
      "oc": 1568,
      "rs": 1569,
      "Ġhe": 1570,
      "lete": 1571,
      "mul": 1572,
      "form": 1573,
      "Ġcol": 1574,
      "freep": 1575,
      "drm": 1576,
      "book": 1577,
      "ppc": 1578,
      "Ġcopy": 1579,
      "gic": 1580,
      "Ġoption": 1581,
      "Ġargs": 1582,
      "go": 1583,
      "Ġvis": 1584,
      "arch": 1585,
      "non": 1586,
      "Ġupdate": 1587,
      "Ġspapr": 1588,
      "Ġlength": 1589,
      "ken": 1590,
      "dirty": 1591,
      "opcode": 1592,
      "vert": 1593,
      "ax": 1594,
      "spe": 1595,
      "abort": 1596,
      "prev": 1597,
      "td": 1598,
      "Ġfix": 1599,
      "trans": 1600,
      "motion": 1601,
      "Ġspr": 1602,
      "Ġinter": 1603,
      "Ġguest": 1604,
      "flush": 1605,
      "got": 1606,
      "msi": 1607,
      "Ġ11": 1608,
      "step": 1609,
      "mips": 1610,
      "\"))": 1611,
      "Ġcor": 1612,
      "Ġvp": 1613,
      "ented": 1614,
      "Ġomap": 1615,
      "strcmp": 1616,
      "interrupt": 1617,
      "ell": 1618,
      "main": 1619,
      "cpus": 1620,
      "ise": 1621,
      "Ġxxx": 1622,
      "div": 1623,
      "exit": 1624,
      "alpha": 1625,
      "Ġprev": 1626,
      "nown": 1627,
      "')": 1628,
      "dct": 1629,
      "Ġstatus": 1630,
      "Ġcp": 1631,
      "sid": 1632,
      "inc": 1633,
      "Ġcluster": 1634,
      "Ġinvalid": 1635,
      "Ġlinesize": 1636,
      "Ġqu": 1637,
      "access": 1638,
      "Ġstore": 1639,
      "Ġmat": 1640,
      "Ġvideo": 1641,
      "22": 1642,
      "pps": 1643,
      "ef": 1644,
      "ration": 1645,
      "Ġrm": 1646,
      "avcodeccontext": 1647,
      "stem": 1648,
      "diff": 1649,
      "Ġsysbus": 1650,
      "Ġkernel": 1651,
      "features": 1652,
      "xc": 1653,
      "seek": 1654,
      "ach": 1655,
      "var": 1656,
      "default": 1657,
      "rosk": 1658,
      "padd": 1659,
      "lob": 1660,
      "Ġra": 1661,
      "sa": 1662,
      "sing": 1663,
      "Ġbut": 1664,
      "arning": 1665,
      "Ġext": 1666,
      "Ġver": 1667,
      "can": 1668,
      "ript": 1669,
      "from": 1670,
      "tp": 1671,
      "roup": 1672,
      "od": 1673,
      "Ġimage": 1674,
      "01": 1675,
      "encode": 1676,
      "Ġslice": 1677,
      "Ġts": 1678,
      "Ġqcow": 1679,
      "bitmap": 1680,
      "Ġscsi": 1681,
      "Ġreq": 1682,
      "display": 1683,
      "Ġir": 1684,
      "ence": 1685,
      "Ġvector": 1686,
      "Ġnbd": 1687,
      "cle": 1688,
      "machine": 1689,
      "Ġqdict": 1690,
      "Ġ*/\\": 1691,
      "Ġ24": 1692,
      "mplemented": 1693,
      "socket": 1694,
      "control": 1695,
      "Ġunlock": 1696,
      "formatcontext": 1697,
      "itle": 1698,
      "Ġva": 1699,
      "duration": 1700,
      "Ġone": 1701,
      "wr": 1702,
      "urface": 1703,
      "roska": 1704,
      ")\\": 1705,
      "move": 1706,
      "metadata": 1707,
      "jpeg": 1708,
      "Ġph": 1709,
      "Ġentry": 1710,
      "*/": 1711,
      "ll": 1712,
      "mr": 1713,
      "window": 1714,
      "swap": 1715,
      "Ġpicture": 1716,
      "Ġ20": 1717,
      "irr": 1718,
      "Ġaccess": 1719,
      "Ġlock": 1720,
      "Ġdir": 1721,
      "send": 1722,
      "Ġchunk": 1723,
      "tile": 1724,
      "total": 1725,
      "real": 1726,
      "Ġshould": 1727,
      "dup": 1728,
      "lum": 1729,
      "lot": 1730,
      "files": 1731,
      "Ġoffsetof": 1732,
      "Ġmips": 1733,
      "rep": 1734,
      "Ġavmedia": 1735,
      "mutex": 1736,
      "90": 1737,
      "guest": 1738,
      "over": 1739,
      "Ġ'%": 1740,
      "Ġrequest": 1741,
      "Ġtotal": 1742,
      "Ġkey": 1743,
      "lp": 1744,
      "none": 1745,
      "\\\"": 1746,
      "msg": 1747,
      "Ġnv": 1748,
      "Ġ256": 1749,
      "oll": 1750,
      "Ġprintf": 1751,
      "abs": 1752,
      "common": 1753,
      ")*": 1754,
      "title": 1755,
      "pte": 1756,
      "bd": 1757,
      "uc": 1758,
      "128": 1759,
      "\")": 1760,
      "Ġper": 1761,
      "apshot": 1762,
      "ork": 1763,
      "ang": 1764,
      "Ġme": 1765,
      "Ġexcp": 1766,
      "Ġ},": 1767,
      "2000": 1768,
      "nv": 1769,
      "Ġnumber": 1770,
      "Ġser": 1771,
      "Ġbus": 1772,
      "vga": 1773,
      "array": 1774,
      "frag": 1775,
      "mac": 1776,
      "ioc": 1777,
      "08": 1778,
      "Ġfield": 1779,
      "legal": 1780,
      "led": 1781,
      "active": 1782,
      "cnt": 1783,
      "save": 1784,
      "virtio": 1785,
      "Ġ\",": 1786,
      "Ġ%\"": 1787,
      "va": 1788,
      "scard": 1789,
      "delta": 1790,
      "Ġpo": 1791,
      "Ġfailed": 1792,
      "warning": 1793,
      "Ġali": 1794,
      "Ġirq": 1795,
      "ie": 1796,
      "eric": 1797,
      "Ġover": 1798,
      "job": 1799,
      "backing": 1800,
      "ifi": 1801,
      "Ġcomm": 1802,
      "Ġsm": 1803,
      "Ġppc": 1804,
      "yn": 1805,
      "atio": 1806,
      "Ġavpkt": 1807,
      "Ġerrp": 1808,
      "usb": 1809,
      "connect": 1810,
      "bgr": 1811,
      "iz": 1812,
      "rou": 1813,
      "Ġide": 1814,
      "bp": 1815,
      "part": 1816,
      "Ġlow": 1817,
      "ib": 1818,
      "Ġchr": 1819,
      "000000": 1820,
      "ync": 1821,
      "aspect": 1822,
      "1000": 1823,
      "ysi": 1824,
      "bl": 1825,
      "unsigned": 1826,
      "define": 1827,
      "qui": 1828,
      "lib": 1829,
      "close": 1830,
      "Ġfind": 1831,
      "Ġavcodec": 1832,
      "Ġinsn": 1833,
      "34": 1834,
      "down": 1835,
      "ark": 1836,
      "vd": 1837,
      "entries": 1838,
      "Ġopt": 1839,
      "fifo": 1840,
      "sock": 1841,
      "rence": 1842,
      "jmp": 1843,
      "vfp": 1844,
      "lomb": 1845,
      "ailab": 1846,
      "48": 1847,
      "sg": 1848,
      "cor": 1849,
      "lace": 1850,
      "Ġcli": 1851,
      "mux": 1852,
      "Ġpps": 1853,
      "ins": 1854,
      "Ġport": 1855,
      "img": 1856,
      "ste": 1857,
      "source": 1858,
      "tail": 1859,
      "ause": 1860,
      "fio": 1861,
      "Ġscale": 1862,
      "eded": 1863,
      "ysical": 1864,
      "263": 1865,
      "Ġsp": 1866,
      "Ġtest": 1867,
      "section": 1868,
      "Ġsps": 1869,
      "prob": 1870,
      "Ġsig": 1871,
      "ely": 1872,
      "Ġdebug": 1873,
      "poc": 1874,
      ")[": 1875,
      "supported": 1876,
      "golomb": 1877,
      "ailable": 1878,
      "dictor": 1879,
      "ratio": 1880,
      "Ġvm": 1881,
      "perm": 1882,
      "mallocz": 1883,
      "fx": 1884,
      "Ġiov": 1885,
      "Ġmust": 1886,
      "Ġseek": 1887,
      "Ġdct": 1888,
      "lug": 1889,
      "Ġmotion": 1890,
      "Ġscan": 1891,
      "msr": 1892,
      "sf": 1893,
      "Ġbios": 1894,
      "Ġfill": 1895,
      "bar": 1896,
      "Ġil": 1897,
      "mple": 1898,
      "present": 1899,
      "Ġ==,": 1900,
      "erate": 1901,
      "0000000": 1902,
      "Ġidx": 1903,
      "Ġwill": 1904,
      "riptor": 1905,
      "lit": 1906,
      "ension": 1907,
      "Ġfree": 1908,
      "Ġuv": 1909,
      "luma": 1910,
      "elem": 1911,
      "Ġtrack": 1912,
      "qdev": 1913,
      "Ġaio": 1914,
      "lobal": 1915,
      "nopts": 1916,
      "Ġmpeg": 1917,
      "ump": 1918,
      "Ġ]": 1919,
      "atile": 1920,
      "call": 1921,
      "Ġ++": 1922,
      "Ġ##": 1923,
      "ansl": 1924,
      "ical": 1925,
      "Ġqp": 1926,
      "wd": 1927,
      "+=": 1928,
      "lease": 1929,
      "ich": 1930,
      "paramet": 1931,
      "direct": 1932,
      "Ġenc": 1933,
      "vis": 1934,
      "failed": 1935,
      "sec": 1936,
      "Ġact": 1937,
      "avformatcontext": 1938,
      "Ġillegal": 1939,
      "rm": 1940,
      "ics": 1941,
      "Ġinline": 1942,
      "Ġparam": 1943,
      "Ġnode": 1944,
      "lik": 1945,
      "refcount": 1946,
      "clip": 1947,
      "Ġpath": 1948,
      "ither": 1949,
      "Ġany": 1950,
      "Ġalign": 1951,
      "ick": 1952,
      "Ġsnprintf": 1953,
      "Ġ*(": 1954,
      "Ġtlb": 1955,
      "Ġcoeff": 1956,
      "Ġdisp": 1957,
      "Ġcolor": 1958,
      "unit": 1959,
      "ved": 1960,
      "tlb": 1961,
      "Ġ31": 1962,
      "spapr": 1963,
      "tsp": 1964,
      "Ġ^": 1965,
      "--;": 1966,
      "outine": 1967,
      "390": 1968,
      "system": 1969,
      "Ġasf": 1970,
      "boot": 1971,
      "api": 1972,
      "Ġavpacket": 1973,
      "Ġtodo": 1974,
      "iss": 1975,
      "raph": 1976,
      "plug": 1977,
      "ring": 1978,
      "bitstream": 1979,
      "prec": 1980,
      "ain": 1981,
      "group": 1982,
      "kvm": 1983,
      "resh": 1984,
      "Ġmsr": 1985,
      "****": 1986,
      "fpr": 1987,
      "Ġqxl": 1988,
      "Ġpass": 1989,
      "quence": 1990,
      "wait": 1991,
      "Ġthere": 1992,
      "endian": 1993,
      "qiov": 1994,
      "rp": 1995,
      "auth": 1996,
      "):": 1997,
      "accel": 1998,
      "Ġparse": 1999,
      "laced": 2000,
      "bi": 2001,
      "elf": 2002,
      "high": 2003,
      "Ġnow": 2004,
      "Ġhandle": 2005,
      "pt": 2006,
      "stamp": 2007,
      "ite": 2008,
      "(\"%": 2009,
      "ready": 2010,
      "xe": 2011,
      "strdup": 2012,
      "Ġchroma": 2013,
      "[(": 2014,
      "mod": 2015,
      "lx": 2016,
      "rot": 2017,
      "Ġmon": 2018,
      "print": 2019,
      "palette": 2020,
      "Ġtoo": 2021,
      "clusters": 2022,
      "Ġdone": 2023,
      "avg": 2024,
      "gpio": 2025,
      "14": 2026,
      "cv": 2027,
      "hod": 2028,
      "etch": 2029,
      "serial": 2030,
      "stop": 2031,
      "coun": 2032,
      "fds": 2033,
      "flash": 2034,
      "Ġpb": 2035,
      "Ġpte": 2036,
      "rap": 2037,
      "ifier": 2038,
      "Ġcreate": 2039,
      "Ġdon": 2040,
      "freq": 2041,
      "gain": 2042,
      "eta": 2043,
      "np": 2044,
      "Ġavfilter": 2045,
      "blockdriverstate": 2046,
      "Ġffmin": 2047,
      "Ġisa": 2048,
      "Ġ,": 2049,
      "msa": 2050,
      "isa": 2051,
      "Ġsupported": 2052,
      "Ġpts": 2053,
      "alt": 2054,
      "Ġcontrol": 2055,
      "Ġdec": 2056,
      "hed": 2057,
      "Ġrgb": 2058,
      "Ġ%[": 2059,
      "movi": 2060,
      "30": 2061,
      "vnc": 2062,
      "discard": 2063,
      "bc": 2064,
      "Ġzero": 2065,
      "lect": 2066,
      "lun": 2067,
      "ux": 2068,
      "\"(": 2069,
      "fid": 2070,
      "sm": 2071,
      "mmio": 2072,
      "Ġinitrd": 2073,
      "qdict": 2074,
      "reo": 2075,
      "Ġpred": 2076,
      "Ġlo": 2077,
      "Ġdsp": 2078,
      "setup": 2079,
      "Ġinitial": 2080,
      "Ġleft": 2081,
      "Ġfound": 2082,
      "'s": 2083,
      "surface": 2084,
      "psr": 2085,
      "Ġfilename": 2086,
      "ged": 2087,
      "yv": 2088,
      "Ġ!(": 2089,
      "olatile": 2090,
      "Ġ'\\": 2091,
      "modrm": 2092,
      "virt": 2093,
      "Ġlocal": 2094,
      "Ġcle": 2095,
      "Ġclose": 2096,
      "by": 2097,
      "mult": 2098,
      "exec": 2099,
      "Ġ(((": 2100,
      "Ġfw": 2101,
      "pow": 2102,
      "bands": 2103,
      "side": 2104,
      "ways": 2105,
      "asm": 2106,
      "Ġseg": 2107,
      "coeffs": 2108,
      "yload": 2109,
      "command": 2110,
      "xbf": 2111,
      "ont": 2112,
      "qpel": 2113,
      "256": 2114,
      "hi": 2115,
      "puts": 2116,
      "++,": 2117,
      "codecpar": 2118,
      "Ġhere": 2119,
      "Ġtswap": 2120,
      "Ġused": 2121,
      "Ġ1024": 2122,
      "vec": 2123,
      "child": 2124,
      "Ġwhen": 2125,
      "Ġsupport": 2126,
      "++]": 2127,
      "Ġexception": 2128,
      "lpc": 2129,
      "orm": 2130,
      "simple": 2131,
      "physical": 2132,
      "ose": 2133,
      "rn": 2134,
      "Ġip": 2135,
      "Ġcall": 2136,
      "Ġreal": 2137,
      "00000": 2138,
      "Ġvirt": 2139,
      "Ġcond": 2140,
      "Ġxen": 2141,
      "Ġdouble": 2142,
      "eax": 2143,
      "wb": 2144,
      "igration": 2145,
      "Ġld": 2146,
      "weight": 2147,
      "Ġ512": 2148,
      "Ġdiff": 2149,
      "token": 2150,
      "angle": 2151,
      "pen": 2152,
      "Ġstrlen": 2153,
      "Ġhwaddr": 2154,
      "04": 2155,
      "Ġ...": 2156,
      "unknown": 2157,
      "full": 2158,
      "parent": 2159,
      "Ġnet": 2160,
      "ime": 2161,
      "fer": 2162,
      "pal": 2163,
      "async": 2164,
      "asl": 2165,
      "Ġmp": 2166,
      "Ġ13": 2167,
      "Ġalpha": 2168,
      "unction": 2169,
      "Ġversion": 2170,
      "Ġqobject": 2171,
      "Ġmay": 2172,
      "Ġap": 2173,
      "Ġpart": 2174,
      "Ġnal": 2175,
      "25": 2176,
      "cl": 2177,
      "ucture": 2178,
      "coord": 2179,
      "cbp": 2180,
      "Ġsocket": 2181,
      "Ġreset": 2182,
      "bytestream": 2183,
      "complete": 2184,
      "Ġmm": 2185,
      "cause": 2186,
      "Ġmult": 2187,
      "neon": 2188,
      "Ġacb": 2189,
      "Ġmachine": 2190,
      "Ġrow": 2191,
      "generic": 2192,
      "fter": 2193,
      "Ġmy": 2194,
      "ific": 2195,
      "Ġprint": 2196,
      "mpute": 2197,
      "global": 2198,
      "Ġrange": 2199,
      "Ġsend": 2200,
      "Ġwhich": 2201,
      "xor": 2202,
      "Ġavframe": 2203,
      ")){": 2204,
      "fff": 2205,
      "scr": 2206,
      "Ġregion": 2207,
      "Ġtrans": 2208,
      "dump": 2209,
      "Ġavstream": 2210,
      "Ġefault": 2211,
      "right": 2212,
      "pad": 2213,
      "Ġti": 2214,
      "onent": 2215,
      "movd": 2216,
      "lan": 2217,
      "snapshot": 2218,
      "subtitle": 2219,
      "Ġfixme": 2220,
      "18": 2221,
      "fin": 2222,
      "Ġuser": 2223,
      "internal": 2224,
      "ay": 2225,
      "gin": 2226,
      "tain": 2227,
      "Ġrequi": 2228,
      "Ġblocks": 2229,
      "Ġallocate": 2230,
      "rw": 2231,
      "work": 2232,
      "Ġsave": 2233,
      "brid": 2234,
      "fixme": 2235,
      "ized": 2236,
      "slot": 2237,
      "Ġtop": 2238,
      "listen": 2239,
      "done": 2240,
      "vid": 2241,
      "Ġmatroska": 2242,
      "ten": 2243,
      "Ġmx": 2244,
      "31": 2245,
      "diction": 2246,
      "Ġ128": 2247,
      "sz": 2248,
      "fied": 2249,
      "round": 2250,
      "disas": 2251,
      "unref": 2252,
      "tern": 2253,
      "bpp": 2254,
      "xd": 2255,
      "resp": 2256,
      "disk": 2257,
      "Ġpfl": 2258,
      "tls": 2259,
      "Ġresult": 2260,
      "Ġplane": 2261,
      "eb": 2262,
      "Ġsome": 2263,
      "Ġurl": 2264,
      "420": 2265,
      "pid": 2266,
      "vi": 2267,
      "punp": 2268,
      "method": 2269,
      "punpck": 2270,
      "Ġtimer": 2271,
      "Ġspeci": 2272,
      "partition": 2273,
      "predictor": 2274,
      "ling": 2275,
      "Ġrb": 2276,
      "program": 2277,
      "bios": 2278,
      "Ġsum": 2279,
      "prefix": 2280,
      "flow": 2281,
      "could": 2282,
      "ious": 2283,
      "verify": 2284,
      "compres": 2285,
      "Ġsdl": 2286,
      "Ġextract": 2287,
      "Ġcommand": 2288,
      "implemented": 2289,
      "short": 2290,
      "likely": 2291,
      "Ġ\"\\\"\\": 2292,
      "Ġbad": 2293,
      "interlaced": 2294,
      "Ġcr": 2295,
      "Ġvar": 2296,
      "Ġshort": 2297,
      "Ġtransl": 2298,
      "Ġsock": 2299,
      "profile": 2300,
      "100": 2301,
      "tell": 2302,
      "ative": 2303,
      "ank": 2304,
      "mtc": 2305,
      "hwaccel": 2306,
      "less": 2307,
      "proto": 2308,
      "ccontext": 2309,
      "eio": 2310,
      "nz": 2311,
      "ormat": 2312,
      "Ġvhost": 2313,
      "notifier": 2314,
      "irror": 2315,
      "Ġcs": 2316,
      "msix": 2317,
      "vt": 2318,
      "initial": 2319,
      "nse": 2320,
      "son": 2321,
      "sor": 2322,
      "ses": 2323,
      "Ġjust": 2324,
      "qcow": 2325,
      "signal": 2326,
      "fat": 2327,
      "dx": 2328,
      "release": 2329,
      "Ġ14": 2330,
      "result": 2331,
      "cmdline": 2332,
      "Ġquant": 2333,
      "gid": 2334,
      "imm": 2335,
      "[]": 2336,
      "Ġfe": 2337,
      "Ġmmu": 2338,
      "fast": 2339,
      "\\\\": 2340,
      "iop": 2341,
      "del": 2342,
      "Ġmc": 2343,
      "Ġrefcount": 2344,
      "Ġrtas": 2345,
      "Ġother": 2346,
      "--)": 2347,
      "('": 2348,
      "fb": 2349,
      "fprintf": 2350,
      "Ġvolatile": 2351,
      "Ġdelta": 2352,
      ").": 2353,
      "','": 2354,
      "fw": 2355,
      "qxl": 2356,
      "initrd": 2357,
      "pending": 2358,
      "Ġmake": 2359,
      "Ġdepth": 2360,
      "oft": 2361,
      "uvlinesize": 2362,
      "bh": 2363,
      "poll": 2364,
      "pri": 2365,
      "fields": 2366,
      "*(": 2367,
      "422": 2368,
      "Ġmemoryregion": 2369,
      "\"),": 2370,
      "Ġpxa": 2371,
      "eq": 2372,
      "Ġrename": 2373,
      "ulate": 2374,
      "Ġqlist": 2375,
      "bool": 2376,
      "build": 2377,
      "Ġthan": 2378,
      "change": 2379,
      "erence": 2380,
      "fpu": 2381,
      "ou": 2382,
      "uma": 2383,
      "Ġmac": 2384,
      "structure": 2385,
      "intr": 2386,
      "Ġprop": 2387,
      "ached": 2388,
      "crypto": 2389,
      "Ġevent": 2390,
      "unlock": 2391,
      "insns": 2392,
      "())": 2393,
      "]]": 2394,
      "Ġround": 2395,
      "Ġframes": 2396,
      "Ġinterrupt": 2397,
      "444": 2398,
      "otto": 2399,
      "subregion": 2400,
      "Ġacpi": 2401,
      "Ġdisas": 2402,
      "win": 2403,
      "Ġsce": 2404,
      "Ġsbr": 2405,
      "double": 2406,
      "\\\"\",": 2407,
      "stereo": 2408,
      ")>>": 2409,
      "pdu": 2410,
      "Ġimm": 2411,
      "Ġtile": 2412,
      "Ġmsi": 2413,
      "Ġhigh": 2414,
      "filtersize": 2415,
      "Ġnon": 2416,
      "cpux": 2417,
      "sv": 2418,
      "Ġffmax": 2419,
      "buffers": 2420,
      "Ġthread": 2421,
      "qual": 2422,
      "rough": 2423,
      ")&": 2424,
      "wrap": 2425,
      "Ġem": 2426,
      "bitcontext": 2427,
      "Ġoptions": 2428,
      "Ġmonitor": 2429,
      "};": 2430,
      "Ġsame": 2431,
      "Ġaml": 2432,
      "eth": 2433,
      "aved": 2434,
      "factor": 2435,
      "03": 2436,
      "Ġfmt": 2437,
      "prim": 2438,
      "Ġelem": 2439,
      "ottom": 2440,
      "encoder": 2441,
      "reser": 2442,
      "cell": 2443,
      "Ġstep": 2444,
      "Ġalways": 2445,
      "Ġerrno": 2446,
      "Ġuvlinesize": 2447,
      "Ġig": 2448,
      "sws": 2449,
      "';": 2450,
      "wo": 2451,
      "sequence": 2452,
      "hash": 2453,
      "foreach": 2454,
      "guid": 2455,
      "Ġcl": 2456,
      "Ġfs": 2457,
      "abled": 2458,
      "Ġphys": 2459,
      "aff": 2460,
      "anch": 2461,
      "tran": 2462,
      "mpty": 2463,
      "roy": 2464,
      "allocated": 2465,
      "cmpint": 2466,
      "21": 2467,
      "action": 2468,
      "graph": 2469,
      "ments": 2470,
      "Ġmkt": 2471,
      ")->": 2472,
      "ward": 2473,
      "tach": 2474,
      "clk": 2475,
      "gram": 2476,
      "resample": 2477,
      "visitor": 2478,
      "rle": 2479,
      "drc": 2480,
      "Ġprot": 2481,
      "any": 2482,
      "Ġneon": 2483,
      "Ġmktag": 2484,
      "%\"": 2485,
      "pand": 2486,
      "Ġos": 2487,
      "spar": 2488,
      "Ġnote": 2489,
      "19": 2490,
      "eration": 2491,
      "avpkt": 2492,
      "endor": 2493,
      "Ġbefore": 2494,
      "----": 2495,
      "ware": 2496,
      "509": 2497,
      "ole": 2498,
      "tle": 2499,
      "sizes": 2500,
      "segment": 2501,
      "bridge": 2502,
      "Ġrep": 2503,
      "Ġinc": 2504,
      "ume": 2505,
      "Ġtry": 2506,
      "abil": 2507,
      "Ġalready": 2508,
      "mapping": 2509,
      "aiocb": 2510,
      "Ġflush": 2511,
      "ape": 2512,
      "tailq": 2513,
      "aac": 2514,
      "tm": 2515,
      "acb": 2516,
      "Ġep": 2517,
      "Ġprocess": 2518,
      "watch": 2519,
      "Ġiscsi": 2520,
      "Ġfull": 2521,
      "ssd": 2522,
      "Ġbest": 2523,
      "encdec": 2524,
      "Ġ~(": 2525,
      "vectors": 2526,
      "Ġgb": 2527,
      "Ġinto": 2528,
      "abac": 2529,
      "cpl": 2530,
      "rac": 2531,
      "seq": 2532,
      "thresh": 2533,
      "cpuid": 2534,
      "asf": 2535,
      "adpcm": 2536,
      "magic": 2537,
      "Ġjpeg": 2538,
      "Ġsws": 2539,
      "Ġboot": 2540,
      "Ġchannels": 2541,
      "dlog": 2542,
      "eof": 2543,
      "tt": 2544,
      "xen": 2545,
      "Ġwas": 2546,
      "reference": 2547,
      "Ġdrive": 2548,
      "crypt": 2549,
      "mfc": 2550,
      "ended": 2551,
      "idc": 2552,
      "genccontext": 2553,
      "Ġpalette": 2554,
      "cept": 2555,
      "cfi": 2556,
      "hevc": 2557,
      "Ġpict": 2558,
      "Ġigno": 2559,
      "]));": 2560,
      "slices": 2561,
      "/%": 2562,
      "oth": 2563,
      "descriptor": 2564,
      "Ġcorrect": 2565,
      "arker": 2566,
      "Ġcal": 2567,
      "Ġduration": 2568,
      "movl": 2569,
      "spec": 2570,
      "tainer": 2571,
      "fli": 2572,
      "master": 2573,
      "aw": 2574,
      "wh": 2575,
      "Ġ->": 2576,
      "Ġavpriv": 2577,
      "acy": 2578,
      "sole": 2579,
      "]))": 2580,
      "kind": 2581,
      "Ġbecause": 2582,
      "Ġtiff": 2583,
      "gt": 2584,
      "ute": 2585,
      "remove": 2586,
      "inux": 2587,
      "Ġvb": 2588,
      "Ġrtsp": 2589,
      "Ġblockdriverstate": 2590,
      "aligned": 2591,
      "xffffffff": 2592,
      "dstw": 2593,
      "struction": 2594,
      "destroy": 2595,
      "42": 2596,
      "Ġedge": 2597,
      "Ġvga": 2598,
      "Ġ18": 2599,
      "plan": 2600,
      "Ġmodrm": 2601,
      "ng": 2602,
      "vr": 2603,
      "ator": 2604,
      "Ġeach": 2605,
      "irqs": 2606,
      "fixed": 2607,
      "bil": 2608,
      "ui": 2609,
      "Ġaac": 2610,
      "Ġreser": 2611,
      "sive": 2612,
      "coef": 2613,
      "Ġdma": 2614,
      "Ġlink": 2615,
      "iw": 2616,
      "Ġast": 2617,
      "Ġps": 2618,
      "Ġro": 2619,
      "Ġneeded": 2620,
      "tbl": 2621,
      "rdma": 2622,
      "Ġtranslation": 2623,
      "Ġenum": 2624,
      "rrr": 2625,
      ")\",": 2626,
      "dyn": 2627,
      "mix": 2628,
      "tick": 2629,
      "erge": 2630,
      "Ġmet": 2631,
      "anup": 2632,
      "pcr": 2633,
      "Ġbug": 2634,
      "Ġpriv": 2635,
      "mmxt": 2636,
      "Ġbacking": 2637,
      "sch": 2638,
      "wl": 2639,
      "rece": 2640,
      "Ġpg": 2641,
      "Ġvlc": 2642,
      "available": 2643,
      "rerr": 2644,
      "Ġbr": 2645,
      "Ġwrit": 2646,
      "Ġcould": 2647,
      "reslevel": 2648,
      "Ġclient": 2649,
      "sparc": 2650,
      "]+": 2651,
      "esc": 2652,
      "ke": 2653,
      "Ġthen": 2654,
      "139": 2655,
      "single": 2656,
      "]*": 2657,
      "Ġimplemented": 2658,
      "sible": 2659,
      "ternal": 2660,
      "Ġserial": 2661,
      ")];": 2662,
      "with": 2663,
      "Ġnr": 2664,
      "refetch": 2665,
      "names": 2666,
      "Ġdoes": 2667,
      "extra": 2668,
      "iscsi": 2669,
      "power": 2670,
      "my": 2671,
      "Ġaut": 2672,
      "Ġafter": 2673,
      "onse": 2674,
      "loor": 2675,
      "pool": 2676,
      "rtp": 2677,
      "rerror": 2678,
      "[-": 2679,
      "wap": 2680,
      "Ġflash": 2681,
      "Ġgo": 2682,
      "Ġhelper": 2683,
      "Ġ>>=": 2684,
      "apter": 2685,
      "iovec": 2686,
      "dt": 2687,
      "Ġfo": 2688,
      "Ġvalid": 2689,
      "parser": 2690,
      "Ġallow": 2691,
      "Ġcbp": 2692,
      "ks": 2693,
      "kv": 2694,
      "trunc": 2695,
      "Ġabort": 2696,
      "8000": 2697,
      "mi": 2698,
      "Ġvdev": 2699,
      "Ġoc": 2700,
      "notify": 2701,
      "sprite": 2702,
      "maining": 2703,
      "ating": 2704,
      "Ġpri": 2705,
      "cy": 2706,
      "cabac": 2707,
      "dd": 2708,
      "ry": 2709,
      "reen": 2710,
      "apic": 2711,
      "Ġcompute": 2712,
      "Ġatom": 2713,
      "realize": 2714,
      "vendor": 2715,
      "Ġ22": 2716,
      "Ġ*)&": 2717,
      "dither": 2718,
      "Ġvfio": 2719,
      "lirp": 2720,
      "compat": 2721,
      "nof": 2722,
      "Ġcache": 2723,
      "Ġfin": 2724,
      "Ġmatch": 2725,
      "Ġdb": 2726,
      "avail": 2727,
      "Ġ!!": 2728,
      "Ġexp": 2729,
      "select": 2730,
      "noaccess": 2731,
      "Ġparamet": 2732,
      "transp": 2733,
      "ting": 2734,
      "rescale": 2735,
      "Ġ(;": 2736,
      "tect": 2737,
      "Ġstop": 2738,
      "prot": 2739,
      "avs": 2740,
      "cpustate": 2741,
      "match": 2742,
      "legacy": 2743,
      "Ġavcodeccontext": 2744,
      "avfilter": 2745,
      "00000000": 2746,
      "timestamp": 2747,
      "backend": 2748,
      "reply": 2749,
      "70": 2750,
      "ttp": 2751,
      "Ġass": 2752,
      "Ġqtailq": 2753,
      "Ġhdr": 2754,
      "append": 2755,
      "Ġspec": 2756,
      "dv": 2757,
      "ular": 2758,
      "scal": 2759,
      "Ġcontext": 2760,
      "found": 2761,
      "fill": 2762,
      "clear": 2763,
      "onents": 2764,
      "tra": 2765,
      "Ġexec": 2766,
      "1024": 2767,
      "iwmmxt": 2768,
      "rv": 2769,
      "prid": 2770,
      "Ġdelay": 2771,
      "Ġchange": 2772,
      "coroutine": 2773,
      "insert": 2774,
      "bad": 2775,
      "orb": 2776,
      "Ġmore": 2777,
      "conv": 2778,
      "Ġgenerate": 2779,
      "threads": 2780,
      "33": 2781,
      "uffff": 2782,
      "andi": 2783,
      "Ġdv": 2784,
      "sts": 2785,
      "iommu": 2786,
      "throt": 2787,
      "Ġshow": 2788,
      "uccess": 2789,
      "Ġdisplay": 2790,
      "xhci": 2791,
      "Ġ*=": 2792,
      "Ġwa": 2793,
      "Ġscal": 2794,
      "agate": 2795,
      "parameter": 2796,
      "ca": 2797,
      "man": 2798,
      "alf": 2799,
      "\",\"": 2800,
      "Ġsecond": 2801,
      "rectangle": 2802,
      "Ġfdt": 2803,
      "gray": 2804,
      "Ġavailable": 2805,
      "Ġmapping": 2806,
      "transform": 2807,
      "gy": 2808,
      "drive": 2809,
      "mapped": 2810,
      "__,": 2811,
      "ufffd": 2812,
      "score": 2813,
      "Ġelf": 2814,
      "Ġapp": 2815,
      "Ġqmp": 2816,
      "Ġ255": 2817,
      "Ġopts": 2818,
      "sty": 2819,
      "Ġss": 2820,
      "ctb": 2821,
      "chip": 2822,
      "matroska": 2823,
      "begin": 2824,
      "parameters": 2825,
      "rtc": 2826,
      "writ": 2827,
      "values": 2828,
      "proxy": 2829,
      "Ġorder": 2830,
      "edi": 2831,
      "Ġrw": 2832,
      "Ġ480": 2833,
      "Ġencode": 2834,
      "irrus": 2835,
      "Ġicodec": 2836,
      "Ġusing": 2837,
      "ports": 2838,
      "Ġreserved": 2839,
      "bps": 2840,
      "avframe": 2841,
      "Ġpixels": 2842,
      "Ġinstruction": 2843,
      "Ġ21": 2844,
      "nos": 2845,
      "post": 2846,
      "bose": 2847,
      "pected": 2848,
      "tn": 2849,
      "rel": 2850,
      "addi": 2851,
      "Ġ17": 2852,
      "Ġqio": 2853,
      "ove": 2854,
      "Ġunit": 2855,
      "Ġyuv": 2856,
      "stats": 2857,
      "Ġorig": 2858,
      ";)": 2859,
      "big": 2860,
      "codebook": 2861,
      "probe": 2862,
      "aa": 2863,
      "huff": 2864,
      "cold": 2865,
      "dimm": 2866,
      "payload": 2867,
      "Ġregs": 2868,
      "99": 2869,
      "Ġrx": 2870,
      "Ġprix": 2871,
      ",%": 2872,
      "Ġabs": 2873,
      "Ġavformat": 2874,
      "Ġstl": 2875,
      "console": 2876,
      "Ġvalues": 2877,
      "cd": 2878,
      "nic": 2879,
      "qrt": 2880,
      "Ġsr": 2881,
      "dim": 2882,
      "refs": 2883,
      "pmadd": 2884,
      "padding": 2885,
      "68": 2886,
      "]),": 2887,
      "oriz": 2888,
      "needed": 2889,
      "Ġdststride": 2890,
      "rational": 2891,
      "bg": 2892,
      "efs": 2893,
      "ioctl": 2894,
      "asi": 2895,
      "asecmp": 2896,
      "Ġconne": 2897,
      "Ġadpcm": 2898,
      "bin": 2899,
      "hy": 2900,
      "Ġ][": 2901,
      "amic": 2902,
      "xfer": 2903,
      "Ġclip": 2904,
      "dinfo": 2905,
      "esp": 2906,
      "goto": 2907,
      "ias": 2908,
      "soft": 2909,
      "vol": 2910,
      "search": 2911,
      "attern": 2912,
      "enter": 2913,
      "hotplug": 2914,
      "!\\": 2915,
      "function": 2916,
      "Ġrom": 2917,
      "ingle": 2918,
      "neg": 2919,
      "Ġabi": 2920,
      "tap": 2921,
      "rec": 2922,
      "hex": 2923,
      "unsupported": 2924,
      "Ġqpc": 2925,
      "return": 2926,
      "ensions": 2927,
      "Ġsegment": 2928,
      "reserved": 2929,
      "Ġwait": 2930,
      "]];": 2931,
      "ima": 2932,
      "nbd": 2933,
      "propagate": 2934,
      "pmaddwd": 2935,
      "second": 2936,
      "Ġmultip": 2937,
      "trace": 2938,
      "the": 2939,
      "task": 2940,
      "Ġcm": 2941,
      "Ġsingle": 2942,
      "orig": 2943,
      "Ġfunc": 2944,
      "Ġgot": 2945,
      "trap": 2946,
      "pop": 2947,
      "draw": 2948,
      "Ġrate": 2949,
      "inear": 2950,
      "packets": 2951,
      "decoded": 2952,
      "Ġprevious": 2953,
      "cu": 2954,
      "ws": 2955,
      "encoding": 2956,
      "Ġdecoder": 2957,
      "proc": 2958,
      "okup": 2959,
      "Ġcannot": 2960,
      "Ġclear": 2961,
      "hv": 2962,
      "Ġ40": 2963,
      "verbose": 2964,
      "feed": 2965,
      "Ġbitmap": 2966,
      "disascontext": 2967,
      "bottom": 2968,
      "Ġloop": 2969,
      "Ġimplem": 2970,
      "Ġrece": 2971,
      "ormal": 2972,
      "'\\": 2973,
      "mg": 2974,
      "demux": 2975,
      "lap": 2976,
      "strcasecmp": 2977,
      "Ġdescriptor": 2978,
      "Ġserver": 2979,
      "oformat": 2980,
      "defined": 2981,
      ":\"": 2982,
      "pol": 2983,
      "rement": 2984,
      "Ġmigration": 2985,
      "Ġque": 2986,
      "blocksize": 2987,
      "Ġarray": 2988,
      "Ġpoint": 2989,
      "Ġsrcstride": 2990,
      "transfer": 2991,
      "inet": 2992,
      "stfs": 2993,
      "Ġvq": 2994,
      "codes": 2995,
      "Ġgetbitcontext": 2996,
      "app": 2997,
      "Ġcodebook": 2998,
      "rects": 2999,
      "Ġspace": 3000,
      "28": 3001,
      "hing": 3002,
      "realloc": 3003,
      "item": 3004,
      "Ġavoid": 3005,
      "dram": 3006,
      "Ġthem": 3007,
      "Ġprec": 3008,
      "Ġprefix": 3009,
      "memoryregion": 3010,
      "branch": 3011,
      "Ġvisit": 3012,
      "ough": 3013,
      "threshold": 3014,
      "mjpeg": 3015,
      "Ġlabel": 3016,
      "Ġgr": 3017,
      "Ġrdma": 3018,
      "gg": 3019,
      "known": 3020,
      "nut": 3021,
      "inputs": 3022,
      "Ġrefe": 3023,
      "Ġsection": 3024,
      "comple": 3025,
      "Ġsource": 3026,
      "Ġdevicestate": 3027,
      "Ġsectors": 3028,
      "Ġcoroutine": 3029,
      "Ġimplement": 3030,
      "mig": 3031,
      "external": 3032,
      "lyph": 3033,
      "board": 3034,
      "Ġattr": 3035,
      "Ġreslevel": 3036,
      "offs": 3037,
      "Ġcalc": 3038,
      "cm": 3039,
      "mit": 3040,
      "Ġlib": 3041,
      "stack": 3042,
      "strnc": 3043,
      "sigset": 3044,
      "nx": 3045,
      "srcformat": 3046,
      "Ġunimplemented": 3047,
      "Ġqueue": 3048,
      "fram": 3049,
      ");\\": 3050,
      "Ġcap": 3051,
      "Ġtwo": 3052,
      "com": 3053,
      "cursor": 3054,
      "msd": 3055,
      "200": 3056,
      "Ġmirror": 3057,
      "lav": 3058,
      "dist": 3059,
      "bso": 3060,
      "Ġregisters": 3061,
      "Ġactual": 3062,
      "(;": 3063,
      "bm": 3064,
      "break": 3065,
      "pitch": 3066,
      "Ġpthread": 3067,
      "irk": 3068,
      "fragment": 3069,
      "quality": 3070,
      "23": 3071,
      "lt": 3072,
      "sin": 3073,
      "Ġmxf": 3074,
      "avio": 3075,
      "mmy": 3076,
      "psrl": 3077,
      "mbaff": 3078,
      "Ġaviocontext": 3079,
      "calc": 3080,
      "hp": 3081,
      "pwrite": 3082,
      "tv": 3083,
      "Ġpack": 3084,
      "Ġdx": 3085,
      "ency": 3086,
      "counter": 3087,
      "ioport": 3088,
      "06": 3089,
      "Ġacc": 3090,
      "Ġpd": 3091,
      "arge": 3092,
      "unused": 3093,
      "convert": 3094,
      "iod": 3095,
      "Ġstring": 3096,
      "Ġsignal": 3097,
      "Ġoverflow": 3098,
      "alle": 3099,
      "push": 3100,
      "Ġus": 3101,
      "packed": 3102,
      "receive": 3103,
      "toyv": 3104,
      "progress": 3105,
      "());": 3106,
      "96": 3107,
      "ced": 3108,
      "vram": 3109,
      "sense": 3110,
      "Ġvd": 3111,
      "Ġdump": 3112,
      "maps": 3113,
      "dsty": 3114,
      "strncmp": 3115,
      "Ġlimit": 3116,
      "ery": 3117,
      "dent": 3118,
      "Ġbet": 3119,
      "idr": 3120,
      "Ġ23": 3121,
      "Ġlit": 3122,
      "Ġlum": 3123,
      "Ġcpustate": 3124,
      "Ġ<<=": 3125,
      "compare": 3126,
      "picref": 3127,
      "._": 3128,
      "Ġ;": 3129,
      "Ġpp": 3130,
      "allow": 3131,
      "exc": 3132,
      "ution": 3133,
      "compress": 3134,
      "********": 3135,
      "ient": 3136,
      "samp": 3137,
      "xattr": 3138,
      "Ġnc": 3139,
      "Ġhard": 3140,
      "ssage": 3141,
      "stri": 3142,
      "Ġ\"\\\"\\\\": 3143,
      "Ġsin": 3144,
      "Ġmsg": 3145,
      "Ġ1000": 3146,
      "oter": 3147,
      "offsets": 3148,
      "Ġsync": 3149,
      "bilinear": 3150,
      "07": 3151,
      "800": 3152,
      "migration": 3153,
      "Ġpal": 3154,
      "curr": 3155,
      "fidp": 3156,
      "ared": 3157,
      "wt": 3158,
      "Ġtd": 3159,
      "Ġwork": 3160,
      "ifn": 3161,
      "ivec": 3162,
      "Ġentries": 3163,
      "ght": 3164,
      "issing": 3165,
      "compressed": 3166,
      "esn": 3167,
      "lv": 3168,
      "Ġssize": 3169,
      "Ġresp": 3170,
      "Ġgp": 3171,
      "Ġstrerror": 3172,
      "Ġri": 3173,
      "Ġehci": 3174,
      "Ġunknown": 3175,
      "Ġtimestamp": 3176,
      "counts": 3177,
      "transport": 3178,
      "klass": 3179,
      "qh": 3180,
      "sar": 3181,
      "Ġcf": 3182,
      "Ġter": 3183,
      "Ġfrag": 3184,
      "unlikely": 3185,
      "Ġdist": 3186,
      "Ġdie": 3187,
      "Ġextradata": 3188,
      "Ġasm": 3189,
      "keyframe": 3190,
      "super": 3191,
      "che": 3192,
      "late": 3193,
      "Ġ(&": 3194,
      "ater": 3195,
      "Ġbpp": 3196,
      "alias": 3197,
      "events": 3198,
      "Ġdirect": 3199,
      "ifndef": 3200,
      "vlan": 3201,
      "Ġslot": 3202,
      "org": 3203,
      "Ġpad": 3204,
      "props": 3205,
      "Ġsigned": 3206,
      "(),": 3207,
      "]][": 3208,
      "fop": 3209,
      "Ġcmp": 3210,
      "ority": 3211,
      "Ġ19": 3212,
      "++);": 3213,
      "Ġcpus": 3214,
      "Ġdoesn": 3215,
      "Ġdstw": 3216,
      "reds": 3217,
      "Ġsetup": 3218,
      "Ġrequire": 3219,
      ".%": 3220,
      "htab": 3221,
      "pread": 3222,
      "rtsp": 3223,
      "sasl": 3224,
      "Ġhead": 3225,
      "Ġffm": 3226,
      "tables": 3227,
      "cblk": 3228,
      "Ġencoded": 3229,
      "Ġ(\"": 3230,
      "atom": 3231,
      "Ġdiv": 3232,
      "condi": 3233,
      "scall": 3234,
      "Ġarch": 3235,
      "dirac": 3236,
      "auto": 3237,
      "Ġraw": 3238,
      "ization": 3239,
      "hc": 3240,
      "decref": 3241,
      "ebml": 3242,
      "Ġauth": 3243,
      "throttle": 3244,
      "17": 3245,
      "empty": 3246,
      "hflags": 3247,
      "icount": 3248,
      "Ġel": 3249,
      "ambd": 3250,
      "very": 3251,
      "Ġbound": 3252,
      "itional": 3253,
      "Ġdrv": 3254,
      "sumed": 3255,
      "area": 3256,
      "ambda": 3257,
      "ee": 3258,
      "oi": 3259,
      "Ġasync": 3260,
      "Ġrrr": 3261,
      "devfn": 3262,
      "root": 3263,
      "Ġfixed": 3264,
      "Ġvirtual": 3265,
      "hist": 3266,
      "Ġsvq": 3267,
      "ication": 3268,
      "ived": 3269,
      "speci": 3270,
      "Ġparameters": 3271,
      "35": 3272,
      "omap": 3273,
      "recv": 3274,
      "Ġright": 3275,
      "fail": 3276,
      "meta": 3277,
      "session": 3278,
      "Ġfeature": 3279,
      "vide": 3280,
      "Ġcfg": 3281,
      "Ġsch": 3282,
      "Ġgic": 3283,
      "Ġvtd": 3284,
      "note": 3285,
      "Ġpayload": 3286,
      "Ġplan": 3287,
      "Ġsnapshot": 3288,
      "mipsstate": 3289,
      "fatal": 3290,
      "have": 3291,
      "Ġiv": 3292,
      "dule": 3293,
      "protocol": 3294,
      "vice": 3295,
      "inv": 3296,
      "inst": 3297,
      "Ġprefetch": 3298,
      "Ġbuild": 3299,
      "formance": 3300,
      "');": 3301,
      "mar": 3302,
      "lems": 3303,
      "Ġfun": 3304,
      "coefs": 3305,
      "elif": 3306,
      "Ġintra": 3307,
      "noise": 3308,
      "mds": 3309,
      "Ġencoding": 3310,
      "backup": 3311,
      "Ġprogram": 3312,
      "points": 3313,
      "\"));": 3314,
      ";\\": 3315,
      "rnd": 3316,
      "udp": 3317,
      "sei": 3318,
      "Ġds": 3319,
      "Ġhap": 3320,
      "Ġhow": 3321,
      "logfile": 3322,
      "bufsize": 3323,
      "four": 3324,
      "Ġeb": 3325,
      "allocate": 3326,
      "mouse": 3327,
      "Ġhandler": 3328,
      "Ġreference": 3329,
      "bank": 3330,
      "Ġfn": 3331,
      "ities": 3332,
      "ily": 3333,
      "Ġcoun": 3334,
      "dstformat": 3335,
      "crop": 3336,
      "Ġactive": 3337,
      "8139": 3338,
      "ba": 3339,
      "ehci": 3340,
      "reco": 3341,
      "Ġcy": 3342,
      "Ġvaddr": 3343,
      "urb": 3344,
      "uri": 3345,
      "ecx": 3346,
      "components": 3347,
      "Ġproxy": 3348,
      "Ġcompres": 3349,
      "(%%": 3350,
      "Ġsmall": 3351,
      "Ġspecial": 3352,
      "Ġsince": 3353,
      "merge": 3354,
      "upc": 3355,
      "adv": 3356,
      "cont": 3357,
      "edx": 3358,
      "++];": 3359,
      "sche": 3360,
      "ish": 3361,
      "acpi": 3362,
      "best": 3363,
      "Ġproto": 3364,
      "process": 3365,
      "lbw": 3366,
      "Ġsystem": 3367,
      "punpcklbw": 3368,
      "qmp": 3369,
      "Ġcnt": 3370,
      "dia": 3371,
      "abi": 3372,
      "bitrate": 3373,
      "Ġopn": 3374,
      "Ġprid": 3375,
      "zeroes": 3376,
      "Ġmodel": 3377,
      "frm": 3378,
      "Ġvisitor": 3379,
      "paddd": 3380,
      "4000": 3381,
      "cirrus": 3382,
      "Ġimg": 3383,
      "Ġ--": 3384,
      "term": 3385,
      "Ġyet": 3386,
      "dat": 3387,
      "mxf": 3388,
      "pdev": 3389,
      "drop": 3390,
      "Ġhp": 3391,
      "ces": 3392,
      "Ġlarge": 3393,
      "Ġesc": 3394,
      "Ġscsw": 3395,
      "da": 3396,
      "elems": 3397,
      "oice": 3398,
      "Ġbd": 3399,
      "arith": 3400,
      "Ġqiov": 3401,
      "gbc": 3402,
      "Ġoutbuf": 3403,
      "syn": 3404,
      "Ġ*)(": 3405,
      "private": 3406,
      "psrad": 3407,
      "primary": 3408,
      "mis": 3409,
      "cts": 3410,
      "Ġrex": 3411,
      "Ġgroup": 3412,
      "Ġxhci": 3413,
      "changed": 3414,
      "Ġextra": 3415,
      "upcast": 3416,
      "750": 3417,
      "bat": 3418,
      "Ġsa": 3419,
      "armv": 3420,
      "Ġthrough": 3421,
      "phb": 3422,
      "flt": 3423,
      "##": 3424,
      ")/": 3425,
      "success": 3426,
      "Ġpdu": 3427,
      "ally": 3428,
      "tered": 3429,
      "Ġstrc": 3430,
      "Ġrv": 3431,
      "Ġwant": 3432,
      "usage": 3433,
      "extended": 3434,
      "verse": 3435,
      "layer": 3436,
      "disable": 3437,
      "hid": 3438,
      "Ġdim": 3439,
      "Ġ25": 3440,
      "Ġthey": 3441,
      "Ġthese": 3442,
      "Ġextent": 3443,
      "36": 3444,
      "vfio": 3445,
      "attach": 3446,
      "Ġmagic": 3447,
      "(((": 3448,
      "Ġhevc": 3449,
      "beta": 3450,
      "rlim": 3451,
      "wn": 3452,
      "Ġbp": 3453,
      "Ġavi": 3454,
      "anular": 3455,
      "logic": 3456,
      "Ġ28": 3457,
      "psub": 3458,
      "sses": 3459,
      "ebx": 3460,
      "anularity": 3461,
      "Ġrtp": 3462,
      "Ġmod": 3463,
      "permut": 3464,
      "Ġmetadata": 3465,
      "pxa": 3466,
      "Ġbig": 3467,
      "Ġpost": 3468,
      "Ġgraph": 3469,
      "Ġour": 3470,
      "Ġwould": 3471,
      "Ġhz": 3472,
      "plx": 3473,
      "101": 3474,
      "webso": 3475,
      "Ġbackup": 3476,
      "mid": 3477,
      "Ġcblk": 3478,
      "Ġqerr": 3479,
      "Ġwr": 3480,
      "shake": 3481,
      "split": 3482,
      "ldq": 3483,
      "tracks": 3484,
      "](": 3485,
      "lat": 3486,
      "pq": 3487,
      "Ġsure": 3488,
      "Ġtext": 3489,
      "Ġfunction": 3490,
      "Ġke": 3491,
      "sbr": 3492,
      "vertical": 3493,
      "Ġspecified": 3494,
      "ldst": 3495,
      "decoding": 3496,
      "Ġenable": 3497,
      "cannot": 3498,
      "overlap": 3499,
      "Ġli": 3500,
      "deblock": 3501,
      "lop": 3502,
      "Ġrec": 3503,
      "Ġgdb": 3504,
      "cpumipsstate": 3505,
      "Ġtoken": 3506,
      "argv": 3507,
      "Ġalso": 3508,
      "tags": 3509,
      "Ġprofile": 3510,
      "Ġpcm": 3511,
      "Ġdisk": 3512,
      "Ġinitialize": 3513,
      "compression": 3514,
      "rev": 3515,
      "rector": 3516,
      "Ġfid": 3517,
      "Ġpoll": 3518,
      "Ġmul": 3519,
      "need": 3520,
      "interle": 3521,
      "again": 3522,
      "xfff": 3523,
      "cleanup": 3524,
      "tis": 3525,
      "unable": 3526,
      "unmap": 3527,
      "Ġdinfo": 3528,
      "export": 3529,
      "srs": 3530,
      "response": 3531,
      "Ġsockaddr": 3532,
      "crc": 3533,
      "hds": 3534,
      "rection": 3535,
      "adc": 3536,
      "lave": 3537,
      "avrational": 3538,
      "olden": 3539,
      "Ġbeen": 3540,
      "Ġenough": 3541,
      "timeout": 3542,
      "Ġdca": 3543,
      "ibble": 3544,
      "38": 3545,
      "json": 3546,
      "wav": 3547,
      "dequant": 3548,
      "peat": 3549,
      "valpha": 3550,
      "imum": 3551,
      "Ġ30": 3552,
      "Ġsequence": 3553,
      "Ġselect": 3554,
      "uvbuf": 3555,
      "Ġpredictor": 3556,
      "Ġdevices": 3557,
      "skipped": 3558,
      "Ġdiffe": 3559,
      "orbis": 3560,
      "'re": 3561,
      "80000000": 3562,
      "wi": 3563,
      "},": 3564,
      "Ġvmd": 3565,
      "Ġqcrypto": 3566,
      "pair": 3567,
      "Ġdecoding": 3568,
      "period": 3569,
      "blt": 3570,
      "Ġreply": 3571,
      "uart": 3572,
      "ym": 3573,
      "requ": 3574,
      "amily": 3575,
      "icc": 3576,
      "setprop": 3577,
      "Ġlinux": 3578,
      "Ġopcode": 3579,
      "extension": 3580,
      "eger": 3581,
      "monitor": 3582,
      "self": 3583,
      "tensa": 3584,
      "dynamic": 3585,
      "spi": 3586,
      "Ġbeta": 3587,
      "lots": 3588,
      "Ġremove": 3589,
      "Ġvf": 3590,
      "Ġ100": 3591,
      "erride": 3592,
      "Ġfault": 3593,
      "Ġobj": 3594,
      "speed": 3595,
      "Ġignore": 3596,
      "flight": 3597,
      "orizont": 3598,
      ",\"": 3599,
      "]],": 3600,
      "msp": 3601,
      "pd": 3602,
      "Ġfb": 3603,
      "Ġretval": 3604,
      "pegenccontext": 3605,
      "Ġrai": 3606,
      "zeros": 3607,
      "listener": 3608,
      "abilities": 3609,
      "caps": 3610,
      "Ġape": 3611,
      "Ġagain": 3612,
      "Ġbar": 3613,
      "ciph": 3614,
      "Ġsearch": 3615,
      "checksum": 3616,
      "scantable": 3617,
      "Ġopenpic": 3618,
      "binfo": 3619,
      "Ġpend": 3620,
      "Ġmpegenccontext": 3621,
      "Ġov": 3622,
      "Ġqapi": 3623,
      "Ġoperation": 3624,
      "static": 3625,
      "dual": 3626,
      "iscsilun": 3627,
      "cf": 3628,
      "fy": 3629,
      "vhost": 3630,
      "lookup": 3631,
      "aries": 3632,
      "Ġmany": 3633,
      "Ġvhd": 3634,
      "unpack": 3635,
      "expr": 3636,
      "Ġpresent": 3637,
      "cancel": 3638,
      "Ġtransfer": 3639,
      "cand": 3640,
      "ynos": 3641,
      "Ġer": 3642,
      "Ġfast": 3643,
      "Ġprob": 3644,
      "Ġiommu": 3645,
      "Ġtimeout": 3646,
      "dbg": 3647,
      "Ġvmstate": 3648,
      "altivec": 3649,
      "final": 3650,
      "planes": 3651,
      "ti": 3652,
      "Ġsmp": 3653,
      "Ġmig": 3654,
      "Ġdecoded": 3655,
      "extent": 3656,
      "...": 3657,
      "nodes": 3658,
      "Ġhardware": 3659,
      "cipher": 3660,
      "ia": 3661,
      "tk": 3662,
      "uch": 3663,
      "Ġ];": 3664,
      "unix": 3665,
      "chapter": 3666,
      "Ġhf": 3667,
      "pcidevice": 3668,
      "Ġsb": 3669,
      "encrypt": 3670,
      "Ġtx": 3671,
      "Ġgl": 3672,
      "Ġhttp": 3673,
      "location": 3674,
      "query": 3675,
      "compose": 3676,
      "epel": 3677,
      "Ġmatrix": 3678,
      "Ġcounter": 3679,
      "'))": 3680,
      "hz": 3681,
      "tcp": 3682,
      "vchr": 3683,
      "sist": 3684,
      "unimplemented": 3685,
      "pes": 3686,
      "Ġcontainer": 3687,
      "Ġ\"%\"": 3688,
      "Ġmodi": 3689,
      "Ġfour": 3690,
      "nofail": 3691,
      "completion": 3692,
      "Ġdifferent": 3693,
      "orizontal": 3694,
      "!=": 3695,
      "slirp": 3696,
      "vlum": 3697,
      "incr": 3698,
      "Ġmarker": 3699,
      "framep": 3700,
      "Ġtcp": 3701,
      "cision": 3702,
      "Ġflv": 3703,
      "Ġiovec": 3704,
      "hyper": 3705,
      "ass": 3706,
      "wise": 3707,
      "remaining": 3708,
      "prix": 3709,
      "transl": 3710,
      "Ġffserver": 3711,
      "Ġcore": 3712,
      "prediction": 3713,
      "Ġhash": 3714,
      "Ġdriver": 3715,
      "scratch": 3716,
      "Ġhappen": 3717,
      "Ġebml": 3718,
      "jo": 3719,
      "mirror": 3720,
      "smb": 3721,
      "Ġ(-": 3722,
      "Ġsasl": 3723,
      "orts": 3724,
      "Ġmis": 3725,
      "bute": 3726,
      "Ġconvert": 3727,
      "mdct": 3728,
      "csr": 3729,
      "brcondi": 3730,
      "Ġpossible": 3731,
      "Ġpool": 3732,
      "ability": 3733,
      "4210": 3734,
      "requency": 3735,
      "(-": 3736,
      ")-": 3737,
      "dprintf": 3738,
      "efault": 3739,
      "lsb": 3740,
      "Ġclock": 3741,
      "Ġavcol": 3742,
      "Ġ\");": 3743,
      "Ġinet": 3744,
      "performance": 3745,
      "dststride": 3746,
      "busdev": 3747,
      "subband": 3748,
      "syscall": 3749,
      "lba": 3750,
      "10000": 3751,
      "aded": 3752,
      "uuid": 3753,
      "Ġic": 3754,
      "ens": 3755,
      "Ġfall": 3756,
      ")),": 3757,
      "devs": 3758,
      "Ġinlink": 3759,
      "Ġdead": 3760,
      "reader": 3761,
      "allocz": 3762,
      "Ġwithout": 3763,
      "Ġaligned": 3764,
      "Ġpartition": 3765,
      "Ġmultiple": 3766,
      "60": 3767,
      "fm": 3768,
      "ibute": 3769,
      "marker": 3770,
      "saddr": 3771,
      "Ġiter": 3772,
      "Ġavg": 3773,
      "Ġmark": 3774,
      "Ġluma": 3775,
      "Ġsee": 3776,
      "Ġsel": 3777,
      "quirk": 3778,
      "ressive": 3779,
      "Ġenabled": 3780,
      "packssd": 3781,
      "iew": 3782,
      "Ġldl": 3783,
      "bigendian": 3784,
      "Ġraise": 3785,
      "packssdw": 3786,
      "lj": 3787,
      "inline": 3788,
      "Ġcx": 3789,
      "Ġcause": 3790,
      "Ġase": 3791,
      "fft": 3792,
      "Ġnut": 3793,
      "container": 3794,
      "script": 3795,
      "srcw": 3796,
      "filterpos": 3797,
      "component": 3798,
      "minus": 3799,
      "ibm": 3800,
      "(__": 3801,
      "cat": 3802,
      "floor": 3803,
      "lr": 3804,
      "ton": 3805,
      "Ġ\"/": 3806,
      "Ġdyn": 3807,
      "avr": 3808,
      "ident": 3809,
      "ollow": 3810,
      "Ġxmm": 3811,
      "Ġnothing": 3812,
      "ldl": 3813,
      "interval": 3814,
      "Ġcomplete": 3815,
      "Ġnvme": 3816,
      "eflags": 3817,
      "glyph": 3818,
      "uyv": 3819,
      "Ġmkv": 3820,
      "Ġvmx": 3821,
      "mpe": 3822,
      "Ġdmv": 3823,
      "Ġstw": 3824,
      "Ġstuff": 3825,
      "ulated": 3826,
      "Ġlpc": 3827,
      "raise": 3828,
      "show": 3829,
      "Ġsrcw": 3830,
      "Ġcoded": 3831,
      "filters": 3832,
      "440": 3833,
      "Ġoffs": 3834,
      "rectory": 3835,
      "255": 3836,
      "512": 3837,
      ">=": 3838,
      "sce": 3839,
      "Ġscore": 3840,
      "Ġtail": 3841,
      "Ġavs": 3842,
      "Ġdrc": 3843,
      "outbuf": 3844,
      "Ġffabs": 3845,
      "nder": 3846,
      "Ġpcidevice": 3847,
      "flv": 3848,
      "Ġabove": 3849,
      "Ġpriu": 3850,
      "Ġpending": 3851,
      "cert": 3852,
      "vreg": 3853,
      "restore": 3854,
      "reached": 3855,
      "enu": 3856,
      "Ġpes": 3857,
      "icast": 3858,
      "Ġdts": 3859,
      "bucket": 3860,
      "Ġuart": 3861,
      "Ġxvid": 3862,
      "Ġsec": 3863,
      "Ġsense": 3864,
      "Ġjob": 3865,
      "Ġfactor": 3866,
      "mpegenccontext": 3867,
      "??": 3868,
      "nop": 3869,
      "ergy": 3870,
      "Ġsurface": 3871,
      "encoded": 3872,
      "Ġtls": 3873,
      "Ġavformatcontext": 3874,
      "avx": 3875,
      "thing": 3876,
      "ility": 3877,
      "devicestate": 3878,
      "Ġ::": 3879,
      "formation": 3880,
      "feat": 3881,
      "modi": 3882,
      "Ġstreams": 3883,
      "Ġpackets": 3884,
      "cx": 3885,
      "eob": 3886,
      "native": 3887,
      "delete": 3888,
      "Ġtpm": 3889,
      "lea": 3890,
      "Ġnormal": 3891,
      "Ġohci": 3892,
      "uess": 3893,
      "Ġword": 3894,
      "Ġforce": 3895,
      "pau": 3896,
      "mote": 3897,
      "grab": 3898,
      "Ġcontroller": 3899,
      "multi": 3900,
      "priu": 3901,
      "pxor": 3902,
      "rsp": 3903,
      "Ġ48": 3904,
      "Ġoutlink": 3905,
      "Ġfiles": 3906,
      "Ġdirty": 3907,
      "roups": 3908,
      "framerate": 3909,
      "golden": 3910,
      "hint": 3911,
      "half": 3912,
      "ible": 3913,
      "rice": 3914,
      "xinc": 3915,
      "sen": 3916,
      "Ġtab": 3917,
      "Ġfr": 3918,
      "Ġdown": 3919,
      "Ġuhci": 3920,
      "Ġexist": 3921,
      "dsth": 3922,
      "erties": 3923,
      "Ġbitrate": 3924,
      "interlace": 3925,
      "wrn": 3926,
      "cid": 3927,
      "enot": 3928,
      "ito": 3929,
      "Ġpstrc": 3930,
      "Ġavdiscard": 3931,
      "elen": 3932,
      "Ġvert": 3933,
      "Ġhls": 3934,
      "acct": 3935,
      "until": 3936,
      "resync": 3937,
      "savevm": 3938,
      "Ġimmedi": 3939,
      "Ġreceived": 3940,
      "strict": 3941,
      "permutation": 3942,
      "loppy": 3943,
      ")+": 3944,
      "88": 3945,
      "just": 3946,
      "lfe": 3947,
      "lambda": 3948,
      "ous": 3949,
      "tree": 3950,
      "Ġbgr": 3951,
      "Ġfloor": 3952,
      "icit": 3953,
      "Ġdp": 3954,
      "Ġste": 3955,
      "ults": 3956,
      "Ġogg": 3957,
      "Ġwindow": 3958,
      "iso": 3959,
      "ished": 3960,
      "apt": 3961,
      "srcstride": 3962,
      "Ġblockdriver": 3963,
      "mono": 3964,
      "Ġneeds": 3965,
      "like": 3966,
      "mspel": 3967,
      "menu": 3968,
      "pnum": 3969,
      "inbuf": 3970,
      "Ġfop": 3971,
      "Ġmmap": 3972,
      "Ġrtl": 3973,
      "Ġqdecref": 3974,
      "ason": 3975,
      "Ġargc": 3976,
      "Ġblockdev": 3977,
      "tbr": 3978,
      "plus": 3979,
      "words": 3980,
      "goti": 3981,
      "Ġiscsilun": 3982,
      "Ġapply": 3983,
      "psrlq": 3984,
      "dm": 3985,
      "fac": 3986,
      "slots": 3987,
      "Ġavfmt": 3988,
      "Ġmmx": 3989,
      "Ġnnz": 3990,
      "Ġstrip": 3991,
      "Ġ63": 3992,
      "ween": 3993,
      "Ġsyn": 3994,
      "Ġeven": 3995,
      "ppcstate": 3996,
      "snapshots": 3997,
      "\"(*": 3998,
      "//": 3999,
      "gdb": 4000,
      "nibble": 4001,
      "iter": 4002,
      "compute": 4003,
      "umb": 4004,
      "using": 4005,
      "strip": 4006,
      "dexec": 4007,
      "Ġgener": 4008,
      "Ġbegin": 4009,
      "msmpeg": 4010,
      "osition": 4011,
      "Ġpages": 4012,
      "chunks": 4013,
      "delayed": 4014,
      "Ġhpet": 4015,
      "52": 4016,
      "jump": 4017,
      "linux": 4018,
      "lector": 4019,
      "Ġfollow": 4020,
      "come": 4021,
      "opp": 4022,
      "Ġgiv": 4023,
      "Ġ\"\",": 4024,
      "exact": 4025,
      "ues": 4026,
      "Ġind": 4027,
      "Ġ#%": 4028,
      "outputs": 4029,
      "ntax": 4030,
      "memcmp": 4031,
      "Ġ:\"": 4032,
      "Ġidct": 4033,
      "Ġblkdbg": 4034,
      "convbuffer": 4035,
      "63": 4036,
      ":\",": 4037,
      "ner": 4038,
      "here": 4039,
      "Ġrtc": 4040,
      "iocb": 4041,
      "Ġ\\\"": 4042,
      "bswap": 4043,
      "lower": 4044,
      "decodecontext": 4045,
      "pages": 4046,
      "grp": 4047,
      "Ġmovnt": 4048,
      "pendent": 4049,
      "vision": 4050,
      "priority": 4051,
      "--------": 4052,
      "Ġignored": 4053,
      "76": 4054,
      "dflag": 4055,
      "tf": 4056,
      "Ġ],": 4057,
      "Ġsmb": 4058,
      "avc": 4059,
      "ssp": 4060,
      "mbs": 4061,
      "mbol": 4062,
      "Ġseq": 4063,
      "Ġknow": 4064,
      "])*": 4065,
      "Ġtempor": 4066,
      "increment": 4067,
      "paddw": 4068,
      "macaddr": 4069,
      "Ġcoeffs": 4070,
      "259": 4071,
      "allel": 4072,
      "Ġbetween": 4073,
      "Ġprotocol": 4074,
      "]\"": 4075,
      "bt": 4076,
      "vring": 4077,
      "voice": 4078,
      "zag": 4079,
      "leak": 4080,
      "Ġpid": 4081,
      "Ġgtk": 4082,
      "Ġdraw": 4083,
      "Ġqpci": 4084,
      "igzag": 4085,
      "Ġlp": 4086,
      "Ġdstformat": 4087,
      "uvid": 4088,
      "iovector": 4089,
      "ording": 4090,
      "dictionary": 4091,
      "Ġscaler": 4092,
      "style": 4093,
      "'\",": 4094,
      "after": 4095,
      "eip": 4096,
      "wp": 4097,
      "star": 4098,
      "sidual": 4099,
      "Ġavc": 4100,
      "elp": 4101,
      "pec": 4102,
      "Ġrle": 4103,
      "Ġhpte": 4104,
      "than": 4105,
      "ument": 4106,
      "framesize": 4107,
      "roblock": 4108,
      "Ġea": 4109,
      "quad": 4110,
      "vmc": 4111,
      "Ġdiscard": 4112,
      "Ġdisabled": 4113,
      "armstate": 4114,
      "initialized": 4115,
      "allowed": 4116,
      "-+": 4117,
      "97": 4118,
      "ered": 4119,
      "nip": 4120,
      "Ġuntil": 4121,
      "Ġsse": 4122,
      "Ġam": 4123,
      "orage": 4124,
      "Ġbm": 4125,
      "Ġman": 4126,
      "Ġvst": 4127,
      "avf": 4128,
      "Ġlater": 4129,
      "Ġ???": 4130,
      "vmstate": 4131,
      "cmphex": 4132,
      "segv": 4133,
      "Ġioreq": 4134,
      "Ġallocated": 4135,
      "Ġleast": 4136,
      "recogn": 4137,
      "websock": 4138,
      "/(": 4139,
      "500": 4140,
      "dy": 4141,
      "mq": 4142,
      "enum": 4143,
      "Ġapic": 4144,
      "Ġremaining": 4145,
      "Ġplace": 4146,
      "alg": 4147,
      "undef": 4148,
      "mpv": 4149,
      "Ġdflag": 4150,
      "make": 4151,
      "Ġrl": 4152,
      "expected": 4153,
      "Ġqscale": 4154,
      "Ġcpuid": 4155,
      "andard": 4156,
      "prom": 4157,
      "alignment": 4158,
      "rgba": 4159,
      "booke": 4160,
      "callback": 4161,
      "surfaces": 4162,
      "enotsup": 4163,
      "\"(%": 4164,
      "ger": 4165,
      "gop": 4166,
      "mant": 4167,
      "Ġits": 4168,
      "Ġsaved": 4169,
      "Ġpitch": 4170,
      "ates": 4171,
      "utdown": 4172,
      "Ġqstring": 4173,
      "Ġwp": 4174,
      "lend": 4175,
      "loglevel": 4176,
      "endptr": 4177,
      "bsf": 4178,
      "Ġbitstream": 4179,
      "mmxext": 4180,
      "cells": 4181,
      "connector": 4182,
      "bv": 4183,
      "qlist": 4184,
      "Ġtap": 4185,
      "cost": 4186,
      "Ġgd": 4187,
      "Ġvlan": 4188,
      "pointer": 4189,
      "Ġexpected": 4190,
      "2048": 4191,
      "decor": 4192,
      "running": 4193,
      "visor": 4194,
      "ternate": 4195,
      "singlestep": 4196,
      "Ġspecific": 4197,
      "8259": 4198,
      "::\"": 4199,
      "npc": 4200,
      "su": 4201,
      "restart": 4202,
      "repeat": 4203,
      "Ġimp": 4204,
      "Ġopp": 4205,
      "forward": 4206,
      "Ġcompat": 4207,
      "rtas": 4208,
      "'):": 4209,
      "overflow": 4210,
      "stead": 4211,
      "execute": 4212,
      "Ġconnect": 4213,
      "fourcc": 4214,
      "Ġmigrate": 4215,
      "Ġmovntq": 4216,
      "mangle": 4217,
      "qobject": 4218,
      "xp": 4219,
      "Ġ/=": 4220,
      "chs": 4221,
      "shri": 4222,
      "template": 4223,
      "invalidate": 4224,
      "Ġsetting": 4225,
      "dummy": 4226,
      "Ġpointer": 4227,
      "Ġ^=": 4228,
      "keys": 4229,
      "Ġterm": 4230,
      "cq": 4231,
      "creds": 4232,
      "fps": 4233,
      "numa": 4234,
      "wmv": 4235,
      "Ġslirp": 4236,
      "Ġtm": 4237,
      "Ġbin": 4238,
      "leep": 4239,
      "cook": 4240,
      "elcome": 4241,
      "ceil": 4242,
      "sci": 4243,
      "screen": 4244,
      "Ġevery": 4245,
      "press": 4246,
      "Ġcursor": 4247,
      "safe": 4248,
      "dxva": 4249,
      "Ġotherwise": 4250,
      "Ġvhdx": 4251,
      "Ġvmxnet": 4252,
      "<=": 4253,
      "play": 4254,
      "vpe": 4255,
      "Ġsvga": 4256,
      "Ġbps": 4257,
      "loss": 4258,
      "Ġglobal": 4259,
      "Ġqemuiovector": 4260,
      "force": 4261,
      "Ġargv": 4262,
      "message": 4263,
      "rdwr": 4264,
      "Ġprog": 4265,
      "queues": 4266,
      "Ġposition": 4267,
      "Ġpiix": 4268,
      "Ġtables": 4269,
      "machinestate": 4270,
      "Ġmsix": 4271,
      ")],": 4272,
      "]>>": 4273,
      "cre": 4274,
      "est": 4275,
      "epc": 4276,
      "ture": 4277,
      "vps": 4278,
      "zrle": 4279,
      "Ġrestore": 4280,
      "etype": 4281,
      "otag": 4282,
      "peer": 4283,
      "types": 4284,
      "override": 4285,
      "Ġcoef": 4286,
      "Ġchardriverstate": 4287,
      "Ġalt": 4288,
      "ldub": 4289,
      "Ġlines": 4290,
      "sysmem": 4291,
      "progressive": 4292,
      "ticks": 4293,
      "Ġpstrcpy": 4294,
      "27": 4295,
      "imp": 4296,
      "nm": 4297,
      "pfx": 4298,
      "ssi": 4299,
      "tol": 4300,
      "xed": 4301,
      "enos": 4302,
      "cty": 4303,
      "Ġbank": 4304,
      "Ġfc": 4305,
      "Ġmr": 4306,
      "Ġgain": 4307,
      "Ġvenc": 4308,
      "utf": 4309,
      "psy": 4310,
      "Ġ\\\\": 4311,
      "touv": 4312,
      "uintptr": 4313,
      "xfc": 4314,
      "Ġmove": 4315,
      "chardev": 4316,
      "corr": 4317,
      "virtual": 4318,
      "Ġcondition": 4319,
      "planar": 4320,
      "\")));": 4321,
      "29": 4322,
      "bstate": 4323,
      "fh": 4324,
      "hflag": 4325,
      "tce": 4326,
      "view": 4327,
      "Ġspl": 4328,
      "Ġbro": 4329,
      "Ġreport": 4330,
      "Ġvms": 4331,
      "Ġvfp": 4332,
      "sched": 4333,
      "Ġconsumed": 4334,
      "signo": 4335,
      "crn": 4336,
      "swb": 4337,
      "Ġrequired": 4338,
      "Ġ!!(": 4339,
      "Ġgraphic": 4340,
      "gl": 4341,
      "tached": 4342,
      "zstream": 4343,
      "Ġrelease": 4344,
      "ether": 4345,
      "cker": 4346,
      "Ġway": 4347,
      "Ġinstead": 4348,
      "shli": 4349,
      "ipv": 4350,
      "Ġencoder": 4351,
      "Ġpcie": 4352,
      "sym": 4353,
      "way": 4354,
      "Ġioctl": 4355,
      "__);": 4356,
      "Ġbands": 4357,
      "Ġphysical": 4358,
      "Ġsmk": 4359,
      "bias": 4360,
      "coming": 4361,
      "buckets": 4362,
      "ahead": 4363,
      "esi": 4364,
      "pfd": 4365,
      "patch": 4366,
      "sus": 4367,
      "tcr": 4368,
      "ule": 4369,
      "ubuf": 4370,
      "xop": 4371,
      "rets": 4372,
      "ination": 4373,
      "ora": 4374,
      "lack": 4375,
      "Ġinformation": 4376,
      "pas": 4377,
      "psw": 4378,
      "Ġlsi": 4379,
      "blocker": 4380,
      "countdown": 4381,
      "Ġunsupported": 4382,
      "Ġexc": 4383,
      "luks": 4384,
      "Ġbelow": 4385,
      "Ġcomple": 4386,
      "Ġassume": 4387,
      "ches": 4388,
      "Ġstereo": 4389,
      "bid": 4390,
      "mot": 4391,
      "ud": 4392,
      "vaddr": 4393,
      "Ġeth": 4394,
      "Ġich": 4395,
      "onito": 4396,
      "Ġms": 4397,
      "Ġgnut": 4398,
      "Ġ\"#": 4399,
      "mppc": 4400,
      "lusive": 4401,
      "crm": 4402,
      "Ġbswap": 4403,
      "chrtoyv": 4404,
      "====": 4405,
      "Ġptrdiff": 4406,
      "Ġdriveinfo": 4407,
      "Ġ(;;)": 4408,
      "Ġresponse": 4409,
      "Ġgnutls": 4410,
      "05": 4411,
      "bal": 4412,
      "eac": 4413,
      "hb": 4414,
      "nnz": 4415,
      "sregs": 4416,
      "incts": 4417,
      "Ġahci": 4418,
      "Ġavdictionary": 4419,
      "elist": 4420,
      "Ġhalf": 4421,
      "reginfo": 4422,
      "offsetof": 4423,
      "shr": 4424,
      "adding": 4425,
      "slb": 4426,
      "qemufile": 4427,
      "Ġreading": 4428,
      "gpf": 4429,
      "sdl": 4430,
      "Ġinterface": 4431,
      "clut": 4432,
      "Ġproperty": 4433,
      "dimensions": 4434,
      "Ġcompressed": 4435,
      "http": 4436,
      "stctl": 4437,
      "Ġcrc": 4438,
      "Ġssd": 4439,
      "Ġsdram": 4440,
      "Ġdtext": 4441,
      "iformat": 4442,
      "Ġarith": 4443,
      "Ġempty": 4444,
      "Ġens": 4445,
      "Ġprediction": 4446,
      "backward": 4447,
      "front": 4448,
      "replace": 4449,
      "Ġcleanup": 4450,
      "othread": 4451,
      "Ġsplit": 4452,
      "eagain": 4453,
      "ield": 4454,
      "mmap": 4455,
      "Ġlike": 4456,
      "dend": 4457,
      "Ġsf": 4458,
      "Ġbmv": 4459,
      "Ġmot": 4460,
      "ulation": 4461,
      "Ġcont": 4462,
      "psll": 4463,
      "Ġoptim": 4464,
      "Ġqemuopts": 4465,
      "ness": 4466,
      "lines": 4467,
      "Ġtrk": 4468,
      "service": 4469,
      "position": 4470,
      "Ġcurr": 4471,
      "disposition": 4472,
      "(!(": 4473,
      "555": 4474,
      "Ġdirac": 4475,
      "overlay": 4476,
      "Ġmedia": 4477,
      "nvenc": 4478,
      "Ġfeed": 4479,
      "Ġimplementation": 4480,
      "Ġcalculate": 4481,
      "ched": 4482,
      "hal": 4483,
      "pattern": 4484,
      "qio": 4485,
      "welcome": 4486,
      "Ġlet": 4487,
      "Ġlayout": 4488,
      "Ġivi": 4489,
      "Ġreject": 4490,
      "Ġpop": 4491,
      "Ġmissing": 4492,
      "Ġdid": 4493,
      "trc": 4494,
      "condexec": 4495,
      "pipe": 4496,
      "Ġstrto": 4497,
      "espec": 4498,
      "Ġprobe": 4499,
      "Ġspeed": 4500,
      "Ġmeans": 4501,
      "secure": 4502,
      "Ġkeep": 4503,
      "Ġvmdk": 4504,
      "patchwelcome": 4505,
      "Ġensure": 4506,
      "ea": 4507,
      "family": 4508,
      "iid": 4509,
      "slave": 4510,
      "Ġvring": 4511,
      "Ġconf": 4512,
      "geotag": 4513,
      "Ġisn": 4514,
      "Ġxc": 4515,
      "loader": 4516,
      "cbpc": 4517,
      "compno": 4518,
      "Ġbdrvqcow": 4519,
      "regions": 4520,
      "hwctx": 4521,
      "yuva": 4522,
      "lerate": 4523,
      "requested": 4524,
      "expand": 4525,
      "Ġ$\"": 4526,
      "vaapi": 4527,
      "powerpc": 4528,
      "Ġfuncc": 4529,
      "fmts": 4530,
      "*)(": 4531,
      "city": 4532,
      "ored": 4533,
      "vdi": 4534,
      "Ġcsr": 4535,
      "Ġpattern": 4536,
      "adt": 4537,
      "Ġvsrc": 4538,
      "Ġnd": 4539,
      "Ġdy": 4540,
      "iomem": 4541,
      "pacity": 4542,
      "allocation": 4543,
      "subsample": 4544,
      "vmx": 4545,
      "fsr": 4546,
      "extract": 4547,
      "Ġcomponent": 4548,
      "Ġsdhc": 4549,
      "Ġmovie": 4550,
      "Ġconnection": 4551,
      "Ġfragment": 4552,
      "srsconf": 4553,
      "[((": 4554,
      "duct": 4555,
      "izer": 4556,
      "mch": 4557,
      "pin": 4558,
      "vsid": 4559,
      "dered": 4560,
      "Ġfif": 4561,
      "itask": 4562,
      "Ġpe": 4563,
      "Ġpng": 4564,
      "six": 4565,
      "conn": 4566,
      "Ġ%#": 4567,
      "Ġlu": 4568,
      "ivi": 4569,
      "extend": 4570,
      "shl": 4571,
      "shared": 4572,
      "Ġ36": 4573,
      "bufferref": 4574,
      "preset": 4575,
      "symbol": 4576,
      "lcd": 4577,
      "errupts": 4578,
      "uffix": 4579,
      "nvram": 4580,
      "Ġfooter": 4581,
      "misc": 4582,
      "]){": 4583,
      "ahci": 4584,
      "qa": 4585,
      "icy": 4586,
      "Ġdither": 4587,
      "butt": 4588,
      "pare": 4589,
      "this": 4590,
      "andom": 4591,
      "Ġiso": 4592,
      "inity": 4593,
      "Ġsrcformat": 4594,
      "Ġwhat": 4595,
      "chron": 4596,
      "segs": 4597,
      "Ġsubtitle": 4598,
      "eventfd": 4599,
      "attrs": 4600,
      "rows": 4601,
      "Ġlook": 4602,
      "virtqueue": 4603,
      "marsh": 4604,
      "lz": 4605,
      "nan": 4606,
      "Ġcg": 4607,
      "Ġsg": 4608,
      "Ġsoft": 4609,
      "Ġtt": 4610,
      "Ġtlen": 4611,
      "Ġpadding": 4612,
      "Ġmjpeg": 4613,
      "Ġwv": 4614,
      "psd": 4615,
      "outlink": 4616,
      "descr": 4617,
      "Ġsigset": 4618,
      "Ġrgba": 4619,
      "specific": 4620,
      "Ġindic": 4621,
      "button": 4622,
      "gpu": 4623,
      "kb": 4624,
      "lsock": 4625,
      "mkv": 4626,
      "pf": 4627,
      "Ġfetch": 4628,
      "buff": 4629,
      "trk": 4630,
      "Ġqvirtio": 4631,
      "Ġislit": 4632,
      "(\"\\": 4633,
      "Ġkv": 4634,
      "filtercode": 4635,
      "serted": 4636,
      "interface": 4637,
      "optind": 4638,
      "Ġslices": 4639,
      "Ġrequested": 4640,
      "bf": 4641,
      "qint": 4642,
      "zigzag": 4643,
      "Ġendian": 4644,
      "remote": 4645,
      "instr": 4646,
      "Ġfram": 4647,
      "Ġmt": 4648,
      "Ġdu": 4649,
      "Ġrtmp": 4650,
      "strstart": 4651,
      "rack": 4652,
      "inition": 4653,
      "Ġeither": 4654,
      "headers": 4655,
      "Ġparent": 4656,
      "ccw": 4657,
      "565": 4658,
      "requests": 4659,
      "Ġdrop": 4660,
      "Ġextension": 4661,
      "element": 4662,
      "Ġclut": 4663,
      "Ġwritten": 4664,
      "sampling": 4665,
      "Ġfeatures": 4666,
      "-+-+": 4667,
      "qbus": 4668,
      "targ": 4669,
      "inlink": 4670,
      "atial": 4671,
      "Ġtv": 4672,
      "integer": 4673,
      "Ġfli": 4674,
      "Ġpm": 4675,
      "idle": 4676,
      "Ġmpc": 4677,
      "Ġgid": 4678,
      "uring": 4679,
      "Ġrce": 4680,
      "Ġwhere": 4681,
      "ssse": 4682,
      "Ġffalign": 4683,
      "Ġxer": 4684,
      "Ġeof": 4685,
      "Ġnever": 4686,
      "before": 4687,
      "Ġpcibus": 4688,
      "Ġbuffers": 4689,
      "resetvalue": 4690,
      "Ġchanged": 4691,
      "vari": 4692,
      "route": 4693,
      "precincts": 4694,
      "Ġvirtqueue": 4695,
      "compatible": 4696,
      "Ġdbdma": 4697,
      "Ġactually": 4698,
      "(;;)": 4699,
      "interleaved": 4700,
      "decorr": 4701,
      "Ġfifo": 4702,
      "59": 4703,
      "tight": 4704,
      "vcpu": 4705,
      "xvid": 4706,
      "resize": 4707,
      "resid": 4708,
      "sth": 4709,
      "Ġcre": 4710,
      "amask": 4711,
      "around": 4712,
      "Ġ\"-": 4713,
      "edata": 4714,
      "stra": 4715,
      "igger": 4716,
      "Ġlv": 4717,
      "olution": 4718,
      "endpoint": 4719,
      "redp": 4720,
      "Ġprovide": 4721,
      "colorspace": 4722,
      "scaling": 4723,
      "af": 4724,
      "fpe": 4725,
      "vmd": 4726,
      "xm": 4727,
      "xtensa": 4728,
      "Ġavpicture": 4729,
      "anal": 4730,
      "passes": 4731,
      "scsw": 4732,
      "acl": 4733,
      "negoti": 4734,
      "mvd": 4735,
      "Ġblocksize": 4736,
      "busy": 4737,
      "box": 4738,
      "properties": 4739,
      "brcond": 4740,
      "segments": 4741,
      "pectr": 4742,
      "261": 4743,
      "password": 4744,
      "Ġexecution": 4745,
      "Ġsmbios": 4746,
      "400": 4747,
      "83": 4748,
      ":\\": 4749,
      "bmds": 4750,
      "qtest": 4751,
      "Ġ]=": 4752,
      "idate": 4753,
      "footer": 4754,
      "devices": 4755,
      "Ġjmp": 4756,
      "Ġjump": 4757,
      "Ġstrchr": 4758,
      "Ġstrtol": 4759,
      "writev": 4760,
      "mean": 4761,
      "Ġdefine": 4762,
      "granularity": 4763,
      "edgev": 4764,
      "Ġcommon": 4765,
      "grouplist": 4766,
      "watchpoint": 4767,
      "fun": 4768,
      "pit": 4769,
      "sdp": 4770,
      "tid": 4771,
      "vmsd": 4772,
      "Ġlayer": 4773,
      "Ġboth": 4774,
      "Ġffio": 4775,
      "loon": 4776,
      "ants": 4777,
      "anted": 4778,
      "gettime": 4779,
      "Ġqtest": 4780,
      "dstblock": 4781,
      "Ġ60": 4782,
      "objectclass": 4783,
      "ription": 4784,
      "vdpau": 4785,
      "Ġnodes": 4786,
      "rng": 4787,
      "Ġvari": 4788,
      "Ġinclu": 4789,
      "Ġatomic": 4790,
      "cflags": 4791,
      "dnow": 4792,
      "fu": 4793,
      "pg": 4794,
      "pfl": 4795,
      "pflash": 4796,
      "rex": 4797,
      "Ġperror": 4798,
      "alen": 4799,
      "ases": 4800,
      "Ġcases": 4801,
      "Ġ..": 4802,
      "ftell": 4803,
      "dog": 4804,
      "domain": 4805,
      "Ġboard": 4806,
      "linker": 4807,
      "Ġtrap": 4808,
      "commit": 4809,
      "Ġfields": 4810,
      "Ġcoeffic": 4811,
      "primaries": 4812,
      "escape": 4813,
      "1394": 4814,
      "recognition": 4815,
      "card": 4816,
      "hpte": 4817,
      "lut": 4818,
      "pio": 4819,
      "vms": 4820,
      "volatile": 4821,
      "Ġsof": 4822,
      "intel": 4823,
      "amelen": 4824,
      "Ġpcr": 4825,
      "idsp": 4826,
      "Ġnand": 4827,
      "Ġintr": 4828,
      "Ġins": 4829,
      "acc": 4830,
      "faults": 4831,
      "Ġest": 4832,
      "Ġdsth": 4833,
      "configuration": 4834,
      "Ġparser": 4835,
      "timers": 4836,
      "Ġdeviceclass": 4837,
      "Ġinternal": 4838,
      "paddusb": 4839,
      "tiles": 4840,
      "Ġvmcb": 4841,
      "Ġldq": 4842,
      "within": 4843,
      "softmmu": 4844,
      "breakpoint": 4845,
      "Ġwrong": 4846,
      "Ġfidp": 4847,
      "Ġmismatch": 4848,
      "targphys": 4849,
      "-=": 4850,
      "sqrt": 4851,
      "wc": 4852,
      "erand": 4853,
      "Ġreason": 4854,
      "Ġstq": 4855,
      "trail": 4856,
      "Ġ26": 4857,
      "Ġ27": 4858,
      "Ġden": 4859,
      "spice": 4860,
      "pose": 4861,
      "Ġchardev": 4862,
      "Ġ':": 4863,
      "Ġiomem": 4864,
      "Ġcmdline": 4865,
      "handlers": 4866,
      "socketaddress": 4867,
      "Ġnvram": 4868,
      "Ġuvsrc": 4869,
      "Ġbadframe": 4870,
      "Ġallowed": 4871,
      "exclusive": 4872,
      "instance": 4873,
      "sthrough": 4874,
      "cuvid": 4875,
      "iothread": 4876,
      "missing": 4877,
      "smp": 4878,
      "uvalpha": 4879,
      "inner": 4880,
      "Ġcu": 4881,
      "Ġcpsr": 4882,
      "Ġbottom": 4883,
      "locty": 4884,
      "Ġrel": 4885,
      "Ġpin": 4886,
      "Ġmight": 4887,
      "Ġstill": 4888,
      "ably": 4889,
      "Ġsimp": 4890,
      "strto": 4891,
      "termin": 4892,
      "splat": 4893,
      "Ġsei": 4894,
      "Ġsecs": 4895,
      "basedev": 4896,
      "Ġcodes": 4897,
      "Ġmain": 4898,
      "Ġsomet": 4899,
      "xfffc": 4900,
      "Ġaud": 4901,
      "frac": 4902,
      "Ġinterlaced": 4903,
      "ically": 4904,
      "specified": 4905,
      ")<<": 4906,
      "fsp": 4907,
      "prefetch": 4908,
      "qc": 4909,
      "qstring": 4910,
      "zlib": 4911,
      "Ġctr": 4912,
      "Ġsz": 4913,
      "ids": 4914,
      "tection": 4915,
      "unce": 4916,
      "Ġok": 4917,
      "avi": 4918,
      "Ġhuff": 4919,
      "geo": 4920,
      "pixbuf": 4921,
      "Ġwhole": 4922,
      "Ġfilm": 4923,
      "Ġ**)&": 4924,
      "Ġcompno": 4925,
      "Ġuses": 4926,
      "Ġcurrently": 4927,
      "nonblock": 4928,
      "Ġparams": 4929,
      "flip": 4930,
      "marshal": 4931,
      "Ġdummy": 4932,
      "=\"": 4933,
      "[%": 4934,
      "bx": 4935,
      "px": 4936,
      "pel": 4937,
      "pvr": 4938,
      "tas": 4939,
      "vop": 4940,
      "Ġsvm": 4941,
      "Ġtak": 4942,
      "Ġttbr": 4943,
      "codsty": 4944,
      "adst": 4945,
      "Ġmerge": 4946,
      "Ġ\"+": 4947,
      "union": 4948,
      "prm": 4949,
      "iocontext": 4950,
      "above": 4951,
      "argc": 4952,
      "Ġyscale": 4953,
      "Ġmaximum": 4954,
      "colum": 4955,
      "Ġdisable": 4956,
      "mediate": 4957,
      "Ġhandled": 4958,
      "divx": 4959,
      "reslevelno": 4960,
      "cessed": 4961,
      "Ġimmediate": 4962,
      "dh": 4963,
      "gfx": 4964,
      "hls": 4965,
      "ih": 4966,
      "madd": 4967,
      "qtd": 4968,
      "vio": 4969,
      "vnet": 4970,
      "renc": 4971,
      "Ġcand": 4972,
      "ordered": 4973,
      "Ġpush": 4974,
      "colo": 4975,
      "Ġ\"<": 4976,
      "fis": 4977,
      "regbp": 4978,
      "mdma": 4979,
      "Ġmaster": 4980,
      "Ġprim": 4981,
      "evt": 4982,
      "Ġcompare": 4983,
      "sdt": 4984,
      "Ġcorrected": 4985,
      "Ġgood": 4986,
      "adcast": 4987,
      "negotiate": 4988,
      "Ġiomemtype": 4989,
      "aes": 4990,
      "dpy": 4991,
      "revision": 4992,
      "residual": 4993,
      "Ġ00": 4994,
      "Ġbx": 4995,
      "Ġnop": 4996,
      "under": 4997,
      "ategy": 4998,
      "getlength": 4999,
      "Ġhd": 5000,
      "scf": 5001,
      "cpuarmstate": 5002,
      "accept": 5003,
      "share": 5004,
      "shutdown": 5005,
      "initfn": 5006,
      "forced": 5007,
      "phdr": 5008,
      "Ġerrors": 5009,
      "Ġ655": 5010,
      "Ġ~((": 5011,
      "edgeh": 5012,
      "previous": 5013,
      "izing": 5014,
      "Ġorigin": 5015,
      "secondary": 5016,
      "chapters": 5017,
      "sistent": 5018,
      "bn": 5019,
      "ho": 5020,
      "lin": 5021,
      "norm": 5022,
      "pv": 5023,
      "vbasedev": 5024,
      "Ġtp": 5025,
      "Ġbonito": 5026,
      "Ġft": 5027,
      "Ġprom": 5028,
      "Ġnone": 5029,
      "Ġduring": 5030,
      "pcms": 5031,
      "Ġls": 5032,
      "readb": 5033,
      "bsub": 5034,
      "formats": 5035,
      "hwdef": 5036,
      "medium": 5037,
      "vqs": 5038,
      "Ġcallback": 5039,
      "Ġmethod": 5040,
      "cycle": 5041,
      "Ġfinal": 5042,
      "scaler": 5043,
      "lavio": 5044,
      "deblocking": 5045,
      "mark": 5046,
      "ostreams": 5047,
      "ohci": 5048,
      "raddr": 5049,
      "storage": 5050,
      "sem": 5051,
      "Ġcvt": 5052,
      "Ġtprintf": 5053,
      "ctr": 5054,
      "Ġbnd": 5055,
      "Ġpas": 5056,
      "Ġvia": 5057,
      "Ġ1000000": 5058,
      "setsize": 5059,
      "avcodec": 5060,
      "atapi": 5061,
      "Ġwin": 5062,
      "Ġsimple": 5063,
      "isr": 5064,
      "Ġdetect": 5065,
      "outpicref": 5066,
      "protect": 5067,
      "fltp": 5068,
      "quantize": 5069,
      "Ġallocation": 5070,
      "rentry": 5071,
      "Ġroot": 5072,
      "truncate": 5073,
      "Ġ4096": 5074,
      "schedule": 5075,
      "psllq": 5076,
      "bsi": 5077,
      "fmul": 5078,
      "qsv": 5079,
      "reorder": 5080,
      "incoming": 5081,
      "dependent": 5082,
      "Ġsx": 5083,
      "its": 5084,
      "other": 5085,
      "fier": 5086,
      "ement": 5087,
      "addl": 5088,
      "Ġexynos": 5089,
      "Ġsrcslice": 5090,
      "Ġ'/": 5091,
      "syntax": 5092,
      "ftp": 5093,
      "Ġatoi": 5094,
      "Ġconfiguration": 5095,
      "Ġevents": 5096,
      "Ġmean": 5097,
      "Ġmessage": 5098,
      "Ġlowpass": 5099,
      "Ġpassword": 5100,
      "samplerate": 5101,
      "enosys": 5102,
      "Ġkvmppc": 5103,
      "010": 5104,
      "77": 5105,
      "eval": 5106,
      "fstat": 5107,
      "iops": 5108,
      "qt": 5109,
      "qiv": 5110,
      "slow": 5111,
      "Ġsnow": 5112,
      "Ġfps": 5113,
      "Ġfmov": 5114,
      "aml": 5115,
      "Ġmid": 5116,
      "otlb": 5117,
      "chown": 5118,
      "ioreq": 5119,
      "Ġwrap": 5120,
      "))))": 5121,
      "Ġchrom": 5122,
      "toh": 5123,
      "toy": 5124,
      "dca": 5125,
      "Ġneg": 5126,
      "Ġbackend": 5127,
      "crypted": 5128,
      "Ġmpegts": 5129,
      "multip": 5130,
      "partitions": 5131,
      "Ġbranch": 5132,
      "Ġgpio": 5133,
      "+\"": 5134,
      "53": 5135,
      "groups": 5136,
      "rtl": 5137,
      "Ġgsi": 5138,
      "Ġ\".": 5139,
      "Ġudp": 5140,
      "Ġwarning": 5141,
      "userdef": 5142,
      "Ġmbn": 5143,
      "sysbus": 5144,
      "Ġvectors": 5145,
      "xendev": 5146,
      "=\\\"": 5147,
      "bro": 5148,
      "fpcr": 5149,
      "lld": 5150,
      "ni": 5151,
      "Ġcert": 5152,
      "alac": 5153,
      "Ġmpu": 5154,
      "setcond": 5155,
      "Ġring": 5156,
      "Ġrcc": 5157,
      "thumb": 5158,
      "strips": 5159,
      "cpuppcstate": 5160,
      "readv": 5161,
      "shmem": 5162,
      "sigreturn": 5163,
      "Ġcolo": 5164,
      "movie": 5165,
      "Ġ',": 5166,
      "bound": 5167,
      "Ġdefinition": 5168,
      "Ġ**)": 5169,
      "Ġfdctrl": 5170,
      "capabilities": 5171,
      "Ġrequests": 5172,
      "Ġdctelem": 5173,
      "Ġalignment": 5174,
      "capacity": 5175,
      "demuxer": 5176,
      "atomic": 5177,
      "Ġboundary": 5178,
      "center": 5179,
      "day": 5180,
      "horizontal": 5181,
      "isc": 5182,
      "sbits": 5183,
      "tpm": 5184,
      "vorbis": 5185,
      "onic": 5186,
      "Ġfloppy": 5187,
      "Ġrect": 5188,
      "always": 5189,
      "Ġmant": 5190,
      "Ġmux": 5191,
      "Ġgpr": 5192,
      "Ġvdi": 5193,
      "Ġ\"'": 5194,
      "Ġstack": 5195,
      "chn": 5196,
      "Ġwm": 5197,
      "ntsty": 5198,
      "refresh": 5199,
      "Ġjson": 5200,
      "filt": 5201,
      "plicit": 5202,
      "samplesref": 5203,
      "srch": 5204,
      "Ġclusters": 5205,
      "Ġextended": 5206,
      "workaround": 5207,
      "Ġscaling": 5208,
      "Ġplanes": 5209,
      "bidir": 5210,
      "8750": 5211,
      "dmv": 5212,
      "normal": 5213,
      "pw": 5214,
      "Ġslow": 5215,
      "Ġsuccess": 5216,
      "Ġtake": 5217,
      "Ġtick": 5218,
      "Ġbt": 5219,
      "adapt": 5220,
      "chg": 5221,
      "bulk": 5222,
      "Ġrice": 5223,
      "Ġown": 5224,
      "Ġqh": 5225,
      "))));": 5226,
      "Ġhton": 5227,
      "Ġside": 5228,
      "illegal": 5229,
      "Ġchild": 5230,
      "Ġlr": 5231,
      "texture": 5232,
      "Ġxinc": 5233,
      "subframe": 5234,
      "reqs": 5235,
      "edgecv": 5236,
      "openpic": 5237,
      "Ġobt": 5238,
      "sysctl": 5239,
      "Ġbased": 5240,
      "Ġvaapi": 5241,
      "windows": 5242,
      "correct": 5243,
      "Ġqpel": 5244,
      "Ġanything": 5245,
      "Ġtswapl": 5246,
      "finish": 5247,
      "olean": 5248,
      "Ġpgm": 5249,
      "passthrough": 5250,
      "93": 5251,
      "csock": 5252,
      "fetch": 5253,
      "hrd": 5254,
      "ii": 5255,
      "pat": 5256,
      "Ġnic": 5257,
      "true": 5258,
      "assign": 5259,
      "Ġgeneric": 5260,
      "Ġffmpeg": 5261,
      "too": 5262,
      "Ġadv": 5263,
      "byteu": 5264,
      "condition": 5265,
      "fpel": 5266,
      "limits": 5267,
      "Ġccid": 5268,
      "xffffff": 5269,
      "ranges": 5270,
      "reserve": 5271,
      "Ġstrcpy": 5272,
      "Ġfbdev": 5273,
      "Ġprobably": 5274,
      "Ġgiven": 5275,
      "Ġtemporary": 5276,
      "geotags": 5277,
      "Ġctrl": 5278,
      "54": 5279,
      "nk": 5280,
      "poutbuf": 5281,
      "vui": 5282,
      "Ġtaddr": 5283,
      "itu": 5284,
      "algo": 5285,
      "Ġavail": 5286,
      "Ġvorbis": 5287,
      "emulated": 5288,
      "001": 5289,
      "atalog": 5290,
      "Ġqmul": 5291,
      "Ġhack": 5292,
      "bitmask": 5293,
      "tsptr": 5294,
      "Ġsizes": 5295,
      "assigned": 5296,
      "nore": 5297,
      "Ġselector": 5298,
      "linear": 5299,
      "rbd": 5300,
      "clientstate": 5301,
      "wrid": 5302,
      "sfb": 5303,
      "guidcmp": 5304,
      "Ġattrs": 5305,
      "psrlw": 5306,
      "ientation": 5307,
      "Ġgdk": 5308,
      "Ġprogress": 5309,
      "balloon": 5310,
      "3000": 5311,
      "ging": 5312,
      "lic": 5313,
      "lang": 5314,
      "svq": 5315,
      "yield": 5316,
      "reordered": 5317,
      "Ġsaddr": 5318,
      "energy": 5319,
      "Ġbc": 5320,
      "Ġfarg": 5321,
      "idstr": 5322,
      "Ġmfx": 5323,
      "mach": 5324,
      "directory": 5325,
      "mmmx": 5326,
      "Ġconta": 5327,
      "strlc": 5328,
      "fdset": 5329,
      "Ġesp": 5330,
      "Ġsepar": 5331,
      "precision": 5332,
      "Ġexport": 5333,
      "timeval": 5334,
      "Ġtran": 5335,
      "minor": 5336,
      "])->": 5337,
      "fscontext": 5338,
      "Ġformatconvbuffer": 5339,
      "units": 5340,
      "prefixes": 5341,
      "swscontext": 5342,
      "descriptors": 5343,
      "Ġfinish": 5344,
      "Ġexponent": 5345,
      "superblock": 5346,
      "strlcat": 5347,
      "gob": 5348,
      "lm": 5349,
      "sdram": 5350,
      "uous": 5351,
      "war": 5352,
      "wake": 5353,
      "zz": 5354,
      "Ġet": 5355,
      "retry": 5356,
      "detach": 5357,
      "Ġ*_": 5358,
      "Ġsuch": 5359,
      "Ġai": 5360,
      "Ġasc": 5361,
      "Ġaction": 5362,
      "Ġprc": 5363,
      "Ġgv": 5364,
      "Ġglyph": 5365,
      "Ġretry": 5366,
      "Ġinf": 5367,
      "dataplane": 5368,
      "strlen": 5369,
      "bufs": 5370,
      "gest": 5371,
      "),\"": 5372,
      "ivity": 5373,
      "olute": 5374,
      "sigaction": 5375,
      "memop": 5376,
      "pixfmt": 5377,
      "heads": 5378,
      "Ġexpect": 5379,
      "Ġargument": 5380,
      "startcode": 5381,
      "Ġbeing": 5382,
      "Ġnecess": 5383,
      "temps": 5384,
      "aud": 5385,
      "aged": 5386,
      "Ġwrites": 5387,
      "Ġhandling": 5388,
      "smk": 5389,
      "Ġrequires": 5390,
      "tickptr": 5391,
      "Ġsecondary": 5392,
      "Ġsrch": 5393,
      "hybrid": 5394,
      "Ġdxva": 5395,
      "Ġ\\\"%": 5396,
      "Ġluks": 5397,
      "Ġyscaleyuv": 5398,
      "=&": 5399,
      "_##": 5400,
      "dpl": 5401,
      "ients": 5402,
      "saved": 5403,
      "vst": 5404,
      "rename": 5405,
      "redir": 5406,
      "render": 5407,
      "Ġstd": 5408,
      "consumed": 5409,
      "utim": 5410,
      "Ġhot": 5411,
      "Ġhist": 5412,
      "mmco": 5413,
      "Ġsimm": 5414,
      "mbmode": 5415,
      "Ġ33": 5416,
      "sigsegv": 5417,
      "Ġpair": 5418,
      "Ġadditional": 5419,
      "handshake": 5420,
      "Ġdestination": 5421,
      "multicast": 5422,
      "programs": 5423,
      "Ġextractfloat": 5424,
      "bilin": 5425,
      "Ġparameter": 5426,
      "postcopy": 5427,
      "Ġdynamic": 5428,
      "Ġvertical": 5429,
      "started": 5430,
      "suspend": 5431,
      "Ġbdrvqcowstate": 5432,
      "95": 5433,
      ":::\"": 5434,
      "hcall": 5435,
      "niov": 5436,
      "oose": 5437,
      "pk": 5438,
      "smc": 5439,
      "uage": 5440,
      "venc": 5441,
      "reopen": 5442,
      "Ġbh": 5443,
      "Ġbat": 5444,
      "Ġrest": 5445,
      "aris": 5446,
      "alk": 5447,
      "Ġstar": 5448,
      "Ġstandard": 5449,
      "Ġoe": 5450,
      "Ġuc": 5451,
      "Ġwc": 5452,
      "Ġinst": 5453,
      "states": 5454,
      "fork": 5455,
      "aux": 5456,
      "lowpass": 5457,
      "pcibus": 5458,
      "plication": 5459,
      "intercept": 5460,
      "swr": 5461,
      "Ġpredict": 5462,
      "fpscr": 5463,
      "Ġcompile": 5464,
      "Ġpcnet": 5465,
      "ustom": 5466,
      "__)": 5467,
      "Ġabout": 5468,
      "realized": 5469,
      "Ġperm": 5470,
      "frags": 5471,
      "fragments": 5472,
      "rounding": 5473,
      "sparcstate": 5474,
      "huffman": 5475,
      "translate": 5476,
      "74": 5477,
      "bed": 5478,
      "dl": 5479,
      "frequency": 5480,
      "mer": 5481,
      "qobj": 5482,
      "sx": 5483,
      "sof": 5484,
      "tco": 5485,
      "vencrypt": 5486,
      "xstate": 5487,
      "->_": 5488,
      "atform": 5489,
      "comb": 5490,
      "Ġvio": 5491,
      "urf": 5492,
      "laiocb": 5493,
      "ross": 5494,
      "rain": 5495,
      "Ġ80": 5496,
      "ipd": 5497,
      "Ġeval": 5498,
      "predict": 5499,
      "mvp": 5500,
      "Ġ'-": 5501,
      "Ġswf": 5502,
      "Ġswap": 5503,
      "indx": 5504,
      "swf": 5505,
      "rxbuf": 5506,
      "Ġinterle": 5507,
      "Ġvery": 5508,
      "Ġnvdimm": 5509,
      "connected": 5510,
      "Ġescape": 5511,
      ".\");": 5512,
      "37": 5513,
      "386": 5514,
      "40000000": 5515,
      "601": 5516,
      "82": 5517,
      "92": 5518,
      "bind": 5519,
      "catalog": 5520,
      "dsi": 5521,
      "fadt": 5522,
      "mk": 5523,
      "pur": 5524,
      "qq": 5525,
      "ssion": 5526,
      "vbe": 5527,
      "Ġsan": 5528,
      "Ġalac": 5529,
      "Ġfpcr": 5530,
      "copi": 5531,
      "Ġmquant": 5532,
      "Ġvol": 5533,
      "Ġintel": 5534,
      "Ġqtype": 5535,
      "Ġwav": 5536,
      "ings": 5537,
      "thr": 5538,
      "codecid": 5539,
      "Ġlba": 5540,
      "upling": 5541,
      "blockalign": 5542,
      "ipred": 5543,
      "Ġmemmove": 5544,
      "Ġnotifier": 5545,
      "Ġchecksum": 5546,
      "enccontext": 5547,
      "colors": 5548,
      "lacing": 5549,
      "Ġ2048": 5550,
      "Ġtransform": 5551,
      "Ġinstructions": 5552,
      "policy": 5553,
      "Ġgranularity": 5554,
      "Ġattribute": 5555,
      "Ġreslevelno": 5556,
      "keysym": 5557,
      "analy": 5558,
      ";\"": 5559,
      "bb": 5560,
      "cmpu": 5561,
      "nsec": 5562,
      "rtmp": 5563,
      "xvmc": 5564,
      "zyn": 5565,
      "Ġfrequency": 5566,
      "Ġhdev": 5567,
      "errors": 5568,
      "piix": 5569,
      "readonly": 5570,
      "Ġbuff": 5571,
      "ights": 5572,
      "fdctrl": 5573,
      "Ġeintr": 5574,
      "Ġbuflen": 5575,
      "writeb": 5576,
      "flat": 5577,
      "Ġready": 5578,
      "lsps": 5579,
      "=%\"": 5580,
      "nvic": 5581,
      "Ġmmco": 5582,
      "volume": 5583,
      "Ġbetter": 5584,
      "Ġiteration": 5585,
      "Ġrejected": 5586,
      "Ġcandidate": 5587,
      "pch": 5588,
      "psci": 5589,
      "qcrypto": 5590,
      "sat": 5591,
      "vfree": 5592,
      "xfe": 5593,
      "Ġics": 5594,
      "Ġaf": 5595,
      "Ġtree": 5596,
      "intc": 5597,
      "leted": 5598,
      "Ġpf": 5599,
      "ateg": 5600,
      "Ġ-(": 5601,
      "ceed": 5602,
      "ash": 5603,
      "ifa": 5604,
      "Ġchoose": 5605,
      "raction": 5606,
      "Ġconstant": 5607,
      "Ġcoding": 5608,
      "Ġeaddr": 5609,
      "Ġmemtx": 5610,
      "parallel": 5611,
      "Ġstructure": 5612,
      "msub": 5613,
      "Ġdolog": 5614,
      "subauth": 5615,
      "submit": 5616,
      "irqchip": 5617,
      "ffffff": 5618,
      "actual": 5619,
      "Ġvirtiodevice": 5620,
      "206": 5621,
      "Ġslb": 5622,
      "chars": 5623,
      "Ġspice": 5624,
      "Ġavfilterbufferref": 5625,
      "Ġlookup": 5626,
      "buffersink": 5627,
      "Ġbootsector": 5628,
      "relli": 5629,
      "reclen": 5630,
      "procmask": 5631,
      "apply": 5632,
      "psubd": 5633,
      ")((": 5634,
      "gsi": 5635,
      "kstart": 5636,
      "rps": 5637,
      "tfs": 5638,
      "vbuf": 5639,
      "Ġ=>": 5640,
      "defaults": 5641,
      "Ġ(++": 5642,
      "Ġct": 5643,
      "Ġcirrus": 5644,
      "Ġsqrt": 5645,
      "Ġpoc": 5646,
      "Ġmost": 5647,
      "Ġmeta": 5648,
      "opd": 5649,
      "Ġguess": 5650,
      "Ġnuma": 5651,
      "Ġntoh": 5652,
      "anon": 5653,
      "uninit": 5654,
      "Ġoi": 5655,
      "strl": 5656,
      "asub": 5657,
      "ofs": 5658,
      "Ġchain": 5659,
      "Ġadded": 5660,
      "Ġwere": 5661,
      "vmy": 5662,
      "pcie": 5663,
      "Ġonen": 5664,
      "product": 5665,
      "cached": 5666,
      "Ġitask": 5667,
      "Ġsuper": 5668,
      "Ġzsig": 5669,
      "arest": 5670,
      "Ġoptional": 5671,
      "lumtoyv": 5672,
      "sockopt": 5673,
      "issa": 5674,
      "Ġmulti": 5675,
      "Ġrounding": 5676,
      "Ġdisascontext": 5677,
      "avfilterlink": 5678,
      "asic": 5679,
      "theora": 5680,
      "applet": 5681,
      "nxhd": 5682,
      "Ġcompression": 5683,
      "Ġmodified": 5684,
      ">\\": 5685,
      "bmap": 5686,
      "bprint": 5687,
      "cla": 5688,
      "fit": 5689,
      "qs": 5690,
      "dead": 5691,
      "sect": 5692,
      "Ġ*((": 5693,
      "Ġcredp": 5694,
      "Ġsu": 5695,
      "Ġasig": 5696,
      "Ġtask": 5697,
      "amaged": 5698,
      "sifields": 5699,
      "idge": 5700,
      "Ġ/**": 5701,
      "sets": 5702,
      "avpicture": 5703,
      "ioh": 5704,
      "Ġwi": 5705,
      "Ġhy": 5706,
      "mms": 5707,
      "imdct": 5708,
      "mbn": 5709,
      "Ġlc": 5710,
      "Ġlun": 5711,
      "blockdev": 5712,
      "Ġcow": 5713,
      "Ġcodsty": 5714,
      "refcounts": 5715,
      "Ġunused": 5716,
      "phase": 5717,
      "Ġyalpha": 5718,
      "msb": 5719,
      "Ġbyteiocontext": 5720,
      "compr": 5721,
      "bugs": 5722,
      "lement": 5723,
      "metry": 5724,
      "111": 5725,
      "attribute": 5726,
      "Ġvcard": 5727,
      "Ġquirk": 5728,
      "tpel": 5729,
      "reshold": 5730,
      "ddd": 5731,
      "written": 5732,
      "****************": 5733,
      "Ġtermin": 5734,
      "psubw": 5735,
      "Ġbroken": 5736,
      "Ġcoefficients": 5737,
      "analyse": 5738,
      "strlcpy": 5739,
      "vbi": 5740,
      "Ġuri": 5741,
      "rem": 5742,
      "inode": 5743,
      "stdio": 5744,
      "Ġimx": 5745,
      "sep": 5746,
      "sens": 5747,
      "Ġ*,": 5748,
      "ately": 5749,
      "Ġredu": 5750,
      "icp": 5751,
      "icro": 5752,
      "unless": 5753,
      "Ġuvalpha": 5754,
      "lier": 5755,
      "asas": 5756,
      "Ġtcgreg": 5757,
      "oflag": 5758,
      "gbp": 5759,
      "nom": 5760,
      "prepend": 5761,
      "Ġthrot": 5762,
      "Ġexact": 5763,
      "Ġswit": 5764,
      "boolean": 5765,
      "chrsrc": 5766,
      "chrmmx": 5767,
      "network": 5768,
      "comment": 5769,
      "tcgcontext": 5770,
      "Ġkeyframe": 5771,
      "quire": 5772,
      "vncstate": 5773,
      "Ġloaded": 5774,
      "clone": 5775,
      "Ġsocketaddress": 5776,
      "Ġfinished": 5777,
      "writel": 5778,
      "demuxcontext": 5779,
      "Ġdirectly": 5780,
      "Ġheads": 5781,
      "advise": 5782,
      "content": 5783,
      "Ġtailq": 5784,
      "Ġinclude": 5785,
      "Ġsomething": 5786,
      "Ġnecessary": 5787,
      "Ġhotplug": 5788,
      ",&": 5789,
      "ah": 5790,
      "dvd": 5791,
      "false": 5792,
      "iq": 5793,
      "lsp": 5794,
      "more": 5795,
      "miss": 5796,
      "oci": 5797,
      "qr": 5798,
      "svm": 5799,
      "suffix": 5800,
      "tuc": 5801,
      "alternate": 5802,
      "Ġge": 5803,
      "Ġgu": 5804,
      "Ġvt": 5805,
      "Ġns": 5806,
      "Ġinterrupts": 5807,
      "setmask": 5808,
      "Ġoss": 5809,
      "exynos": 5810,
      "express": 5811,
      "Ġwor": 5812,
      "Ġhorizontal": 5813,
      "Ġ29": 5814,
      "Ġcontain": 5815,
      "cidevice": 5816,
      "vmcb": 5817,
      "compli": 5818,
      "actl": 5819,
      "brk": 5820,
      "queued": 5821,
      "(%[": 5822,
      "edgech": 5823,
      "Ġverify": 5824,
      "Ġservice": 5825,
      "presentation": 5826,
      "Ġdspfunc": 5827,
      "movdqa": 5828,
      "diskstate": 5829,
      "192": 5830,
      "Ġreplay": 5831,
      "Ġcalled": 5832,
      "Ġtranslationblock": 5833,
      "Ġbridge": 5834,
      "Ġaccording": 5835,
      "hypertas": 5836,
      "Ġsanity": 5837,
      "aped": 5838,
      "cstat": 5839,
      "gu": 5840,
      "guess": 5841,
      "qmat": 5842,
      "random": 5843,
      "sun": 5844,
      "wte": 5845,
      "xalpha": 5846,
      "Ġscr": 5847,
      "itation": 5848,
      "Ġavprobe": 5849,
      "Ġavrational": 5850,
      "leno": 5851,
      "tsc": 5852,
      "uments": 5853,
      "Ġlm": 5854,
      "putil": 5855,
      "Ġxattr": 5856,
      "filtered": 5857,
      "dclk": 5858,
      "signature": 5859,
      "Ġfaster": 5860,
      "msav": 5861,
      "resses": 5862,
      "tempor": 5863,
      "swscale": 5864,
      "Ġparsing": 5865,
      "Ġfloating": 5866,
      "quantizer": 5867,
      "405": 5868,
      "Ġevt": 5869,
      "archstate": 5870,
      "Ġphase": 5871,
      "Ġident": 5872,
      "ibility": 5873,
      "Ġaiocb": 5874,
      "respon": 5875,
      "Ġauto": 5876,
      "pwritev": 5877,
      "Ġstrcmp": 5878,
      "Ġcontent": 5879,
      "Ġhyper": 5880,
      "wtelem": 5881,
      "'ve": 5882,
      "09": 5883,
      "bet": 5884,
      "dpp": 5885,
      "ear": 5886,
      "fctl": 5887,
      "nor": 5888,
      "pret": 5889,
      "rce": 5890,
      "sdr": 5891,
      "tu": 5892,
      "vv": 5893,
      "wj": 5894,
      "xpos": 5895,
      "Ġiss": 5896,
      "detect": 5897,
      "secs": 5898,
      "Ġbmp": 5899,
      "Ġbmds": 5900,
      "Ġremov": 5901,
      "Ġpflash": 5902,
      "Ġvdp": 5903,
      "Ġdh": 5904,
      "Ġrxd": 5905,
      "ssh": 5906,
      "cpusparcstate": 5907,
      "ives": 5908,
      "shm": 5909,
      "Ġseem": 5910,
      "lummmx": 5911,
      "quir": 5912,
      "0001": 5913,
      "pktl": 5914,
      "posit": 5915,
      "hwaddr": 5916,
      "exponent": 5917,
      "Ġrunning": 5918,
      "Ġsignature": 5919,
      "ifiers": 5920,
      "Ġclean": 5921,
      "Ġmacroblock": 5922,
      "Ġemms": 5923,
      "Ġemulation": 5924,
      "gtk": 5925,
      "Ġwriting": 5926,
      "Ġpriority": 5927,
      "Ġyuvtab": 5928,
      "synchron": 5929,
      "Ġfollowing": 5930,
      "Ġswitched": 5931,
      ")]);": 5932,
      "39": 5933,
      "asc": 5934,
      "ful": 5935,
      "kbd": 5936,
      "rad": 5937,
      "Ġsnd": 5938,
      "Ġbmap": 5939,
      "Ġfpu": 5940,
      "amped": 5941,
      "Ġmix": 5942,
      "ffect": 5943,
      "otrack": 5944,
      "Ġrri": 5945,
      "Ġhelp": 5946,
      "uswb": 5947,
      "ignore": 5948,
      "Ġlj": 5949,
      "Ġlut": 5950,
      "blockjob": 5951,
      "siginfo": 5952,
      "Ġcom": 5953,
      "Ġyuyv": 5954,
      "curity": 5955,
      "subsystem": 5956,
      "tling": 5957,
      "Ġ56": 5958,
      "flate": 5959,
      "qemuopts": 5960,
      "fpregs": 5961,
      "inputvisitor": 5962,
      "blkdev": 5963,
      "decay": 5964,
      "dispatch": 5965,
      "packuswb": 5966,
      "Ġtags": 5967,
      "connection": 5968,
      "Ġoptarg": 5969,
      "Ġincrement": 5970,
      "Ġoccur": 5971,
      "waves": 5972,
      "((\"": 5973,
      "bpc": 5974,
      "bnd": 5975,
      "cpe": 5976,
      "efl": 5977,
      "same": 5978,
      "spectr": 5979,
      "vsrc": 5980,
      "vbv": 5981,
      "Ġloc": 5982,
      "Ġlikely": 5983,
      "Ġtget": 5984,
      "amps": 5985,
      "Ġpit": 5986,
      "Ġvect": 5987,
      "unspecified": 5988,
      "drom": 5989,
      "ctxt": 5990,
      "prd": 5991,
      "Ġrk": 5992,
      "Ġqerror": 5993,
      "Ġqual": 5994,
      "screds": 5995,
      "islit": 5996,
      "ilvr": 5997,
      "rax": 5998,
      "extu": 5999
    },
    "merges": [
      "- >",
      "r e",
      "i n",
      "Ġ =",
      "s t",
      ") ;",
      "e r",
      "Ġ i",
      "d e",
      "s e",
      "Ġ (",
      "Ġ *",
      "Ġ c",
      "Ġ s",
      "a t",
      "e n",
      "Ġ a",
      "Ġ }",
      "o r",
      "Ġ t",
      "o n",
      "Ġ {",
      "Ġ 0",
      "in t",
      "Ġi f",
      "c t",
      "Ġ b",
      "l e",
      "Ġ f",
      "l o",
      "a m",
      "Ġ re",
      "i t",
      "Ġ p",
      "a r",
      "s i",
      "a l",
      "c o",
      "e t",
      "z e",
      "Ġa v",
      "a d",
      "Ġ &",
      "e l",
      "Ġ /",
      "i d",
      "Ġ m",
      "f f",
      "o p",
      "Ġ g",
      "c k",
      "Ġ v",
      "Ġ n",
      "u r",
      "a n",
      "Ġ 1",
      "Ġre t",
      "Ġ \"",
      "Ġ int",
      "h e",
      "p u",
      "Ġ/ *",
      "si ze",
      "i c",
      "Ġ* /",
      "t e",
      "a se",
      "u n",
      "er r",
      "m p",
      "Ġ +",
      "Ġ d",
      "m a",
      "l a",
      "am e",
      "se t",
      "o t",
      "Ġ st",
      "c h",
      "b u",
      "Ġ <",
      "at e",
      "u l",
      "p e",
      "f i",
      "e m",
      "d i",
      "d r",
      "0 0",
      "Ġ -",
      "Ġc ase",
      "ur n",
      "Ġret urn",
      "ct x",
      "co de",
      "g et",
      "p r",
      "t r",
      "Ġ r",
      "Ġ o",
      "c on",
      "e x",
      "i on",
      "u t",
      "a v",
      "3 2",
      "i o",
      "Ġ %",
      "a k",
      "at a",
      "u e",
      "Ġ q",
      "Ġ u",
      "Ġ w",
      "Ġ= =",
      "re ak",
      "lo ck",
      ") )",
      "Ġb reak",
      "Ġ h",
      "e d",
      "t y",
      "m m",
      "in g",
      "de v",
      "s s",
      "6 4",
      "err or",
      "( &",
      "a b",
      "\" ,",
      "r ame",
      "el se",
      "l en",
      "Ġ in",
      "lo g",
      "Ġ >",
      "c e",
      "Ġf or",
      "r c",
      "Ġ |",
      "Ġ else",
      "p a",
      "ty pe",
      "Ġs i",
      "p i",
      "Ġ 2",
      "b it",
      "+ +",
      "t s",
      "t h",
      "Ġt he",
      "re g",
      "u m",
      "l i",
      "d ata",
      "s c",
      "f rame",
      "p c",
      "Ġc on",
      "] ;",
      "r o",
      "v al",
      "ul l",
      "i s",
      "en v",
      "o de",
      "u s",
      "st r",
      "Ġ de",
      "la g",
      "Ġt c",
      "c pu",
      "bu f",
      "Ġsi ze",
      "Ġ #",
      "a s",
      "i g",
      "ff set",
      "Ġ !",
      "g e",
      "i m",
      "1 6",
      "i l",
      "code c",
      "re am",
      "i r",
      "Ġ& &",
      "i f",
      "ab le",
      "p s",
      "Ġtc g",
      "te x",
      "de x",
      "st ate",
      "Ġu int",
      "in e",
      "a c",
      "ar get",
      "Ġg en",
      "o f",
      "m b",
      "] [",
      "Ġ( !",
      "ad dr",
      "Ġst at",
      "em u",
      "Ġc h",
      "f lag",
      "Ġ l",
      ") );",
      "] ,",
      "Ġc pu",
      "bit s",
      "ic e",
      "Ġ% %",
      "Ġn ull",
      "f o",
      "tex t",
      "u p",
      ") ,",
      "o id",
      "ot o",
      "av ctx",
      "an d",
      "st ream",
      "t er",
      "o v",
      "r a",
      "u re",
      "b lock",
      "g b",
      "o ut",
      "Ġstat ic",
      "am p",
      "re ad",
      "pu t",
      "i v",
      "Ġ 4",
      "con text",
      "Ġf f",
      "++ )",
      "\" );",
      "i de",
      "o l",
      "ar t",
      "lo c",
      "Ġt o",
      "Ġg oto",
      "un t",
      "Ġg et",
      "Ġ! =",
      "ct or",
      "Ġb u",
      "Ġ op",
      "amp le",
      "Ġi s",
      "in dex",
      "Ġ \\",
      "s k",
      "en d",
      "st er",
      "n o",
      "m t",
      "Ġ x",
      "f a",
      "ff er",
      "y te",
      "ig h",
      "m at",
      "en t",
      "p tr",
      "ex t",
      "o ffset",
      "Ġq emu",
      "s h",
      "u b",
      "p b",
      "Ġcon st",
      "Ġa r",
      "ck et",
      "in it",
      "s p",
      "i le",
      "Ġ/ /",
      "n e",
      "t o",
      "Ġv oid",
      "r it",
      "n um",
      "Ġ 3",
      "] .",
      "Ġ| |",
      "n t",
      "or t",
      "c i",
      "Ġ( (",
      "Ġ> >",
      "co unt",
      "n el",
      "f d",
      "si g",
      "re e",
      "m em",
      "Ġ+ =",
      "ad d",
      "q ue",
      "ul t",
      "Ġ 8",
      "k t",
      "a p",
      "Ġt arget",
      "i p",
      "s ample",
      "f mt",
      "igh t",
      "rit e",
      "Ġ< <",
      "b s",
      "Ġc o",
      "i x",
      "Ġa d",
      "re t",
      "t able",
      "pi x",
      "re f",
      "p o",
      "Ġ e",
      "id th",
      "he ad",
      "s rc",
      "n ame",
      "f or",
      "t im",
      "flag s",
      "bu ffer",
      "in fo",
      "g en",
      "Ġ se",
      "li st",
      "p re",
      "( \"",
      "Ġbu f",
      "Ġ un",
      "v er",
      "ma x",
      "ar g",
      "f ree",
      "c p",
      "Ġt h",
      "m ov",
      "Ġm em",
      "l ine",
      "Ġv al",
      "Ġsize of",
      "p er",
      "ct ure",
      "at ion",
      "int f",
      "dev ice",
      "n d",
      "Ġ j",
      "b ase",
      "Ġ k",
      "fi l",
      "p h",
      "p ar",
      "Ġ error",
      "Ġ ex",
      "Ġo ut",
      "Ġ y",
      "Ġch ar",
      "head er",
      "00 00",
      "Ġst r",
      "d st",
      "s n",
      "ch an",
      "Ġs rc",
      "ma p",
      "dr v",
      "Ġar g",
      "en di",
      "t a",
      "l u",
      "o b",
      "o w",
      "m v",
      "w rite",
      "Ġt mp",
      "fi le",
      "ma sk",
      "Ġ :",
      "n c",
      "st art",
      "w idth",
      "he ight",
      "y s",
      "Ġb lock",
      "Ġc ode",
      "a ck",
      "d c",
      "al loc",
      "] );",
      "o st",
      "l y",
      "Ġre g",
      "c ur",
      "or y",
      "fil ter",
      "pr intf",
      "fa ult",
      "m d",
      "( );",
      "t mp",
      "Ġ '",
      "sig n",
      "Ġav ctx",
      "t ion",
      "de f",
      "e s",
      "endi f",
      "pa cket",
      "Ġo ffset",
      "u ct",
      "Ġf a",
      "Ġb e",
      "for mat",
      "m s",
      "st at",
      "pi cture",
      "bu s",
      "lo ad",
      "t x",
      "Ġd o",
      "in val",
      "Ġ len",
      "m ode",
      "Ġ1 6",
      "i ster",
      "he ck",
      "Ġa l",
      "Ġp a",
      "Ġm a",
      "Ġw e",
      "Ġs w",
      "Ġ env",
      "Ġ ?",
      "Ġn e",
      "c b",
      "er t",
      "q u",
      "chan nel",
      "s ub",
      "s l",
      "re s",
      "Ġn ot",
      "Ġ en",
      "00 0",
      "d er",
      "on g",
      "l k",
      "la y",
      "fi g",
      "tim e",
      "m e",
      "b e",
      "n b",
      "p kt",
      "f e",
      "t arget",
      "re nt",
      "b yte",
      "Ġw h",
      "Ġav error",
      "r am",
      "c r",
      "it ch",
      "ne w",
      "la st",
      "le v",
      "e c",
      "Ġo f",
      "Ġp r",
      "Ġb yte",
      "u int",
      "t l",
      "Ġf rame",
      "v m",
      "lev el",
      "co mp",
      "p ort",
      "l d",
      "a le",
      "sign ed",
      "di o",
      "e ct",
      "Ġ> =",
      "te mp",
      "Ġd st",
      "a u",
      "Ġb drv",
      "ir t",
      "Ġp ci",
      "if t",
      "si on",
      "t b",
      "in d",
      "id x",
      "in sn",
      "se ctor",
      "Ġad dr",
      "re ss",
      "Ġc tx",
      "Ġs c",
      "val ue",
      "ac he",
      ") {",
      "ir q",
      "lo w",
      "pc i",
      "n r",
      "Ġ on",
      "Ġsw itch",
      "Ġs h",
      "us er",
      "j ect",
      "ide o",
      "te d",
      "Ġd ata",
      "u v",
      "Ġn b",
      "p ic",
      "Ġt r",
      "r ate",
      "s o",
      "op ts",
      "s er",
      "reg ion",
      "( (",
      "lu ster",
      "tr y",
      "p l",
      "Ġcode c",
      "1 2",
      "Ġ err",
      "Ġav io",
      "e y",
      "ss ert",
      "Ġs o",
      "Ġm b",
      "av e",
      "el d",
      "len ame",
      "str ide",
      "Ġfa il",
      "Ġ _",
      "Ġa nd",
      "stat us",
      "Ġb it",
      "po s",
      "ct ion",
      "Ġ .",
      "a que",
      "re d",
      "it h",
      "bu g",
      "line size",
      "s y",
      "b o",
      "c c",
      "Ġreg ister",
      "pix el",
      "Ġ 5",
      "Ġde fault",
      "re q",
      "Ġ| =",
      "m in",
      "++ ;",
      "Ġp ix",
      "sc ale",
      "l c",
      "Ġ 6",
      "inval id",
      "di r",
      "an t",
      "pr o",
      "ff ff",
      "g th",
      "r d",
      "ro m",
      "par am",
      "o s",
      "Ġ* )",
      "int er",
      "] )",
      "con fig",
      "f s",
      "Ġ set",
      "lo at",
      "Ġun signed",
      "Ġc heck",
      "1 0",
      "iv e",
      "Ġb s",
      "pr op",
      "at h",
      "r l",
      "pr iv",
      "Ġma x",
      "en c",
      "f l",
      "io v",
      "al l",
      "a g",
      "c s",
      "ce ss",
      "at ure",
      "fi lename",
      "e p",
      "ch r",
      "ad ata",
      "c md",
      "f t",
      "el per",
      "n ext",
      "o re",
      "y pe",
      "s w",
      "Ġwh ile",
      "au dio",
      "c ache",
      "q emu",
      "Ġa s",
      "irt io",
      "t c",
      "on e",
      "v ideo",
      "s b",
      "sl ice",
      "Ġin dex",
      "in k",
      "con d",
      "ro ma",
      "de code",
      "sh ift",
      "h ost",
      "Ġc ur",
      "Ġ 7",
      "a ct",
      "reg s",
      "Ġp re",
      "Ġin it",
      "x f",
      "pa ge",
      "se d",
      "k ey",
      "un d",
      "err p",
      "mem ory",
      "i al",
      "fd t",
      "ar d",
      "co l",
      "d ate",
      "le m",
      "op t",
      "Ġval ue",
      "Ġth is",
      "v e",
      "di ct",
      "c luster",
      "Ġmem ory",
      "m alloc",
      "un k",
      "if def",
      "Ġp ut",
      "or d",
      "Ġi t",
      "f p",
      "re ct",
      "z er",
      "p ts",
      "fi eld",
      "stream s",
      "Ġf il",
      "sample s",
      "un c",
      "p y",
      "str uct",
      "h elper",
      "Ġn um",
      "Ġp kt",
      "s r",
      "m u",
      "Ġt ype",
      "fe ature",
      "n ot",
      "b r",
      "Ġre ad",
      "loc al",
      "2 4",
      "Ġa c",
      "que st",
      "x x",
      "co der",
      "d o",
      "cur rent",
      "Ġad d",
      "channel s",
      "t ab",
      "Ġstr uct",
      "op aque",
      "Ġt e",
      "Ġ at",
      "b ack",
      "de bug",
      "m o",
      "Ġd c",
      "ta g",
      "re ate",
      "] =",
      "Ġb o",
      "Ġst art",
      "v oid",
      "Ġne w",
      "o k",
      "Ġf lag",
      "v c",
      "la ss",
      "d u",
      "con st",
      "- -",
      "v lc",
      "le ft",
      "Ġ1 2",
      "Ġ< =",
      "sector s",
      "b and",
      "2 64",
      "Ġn o",
      "i st",
      "h and",
      "en try",
      "Ġp ro",
      "Ġ end",
      "err no",
      "ce p",
      "Ġ 32",
      "h as",
      "c mp",
      "x y",
      "e ff",
      "zer o",
      "as k",
      "Ġ load",
      "Ġt im",
      "Ġ ~",
      "Ġ header",
      "in put",
      "Ġ or",
      "st d",
      "Ġbyte stream",
      "5 6",
      "it y",
      "out put",
      "Ġi d",
      "len gth",
      "ch roma",
      "Ġr d",
      "b er",
      "h ci",
      "ex tr",
      "Ġst ream",
      "g a",
      "Ġre s",
      "g n",
      "Ġ1 0",
      "an ge",
      "p ath",
      "er nel",
      "str ing",
      "Ġ_ _",
      "de sc",
      "s pa",
      "Ġp ar",
      "ob ject",
      "ul d",
      "8 6",
      "( *",
      "m ent",
      "Ġl ine",
      "p or",
      "h w",
      "an e",
      "p p",
      "ma ge",
      "Ġv irtio",
      "x ff",
      "e g",
      "Ġde f",
      "ig n",
      "int ra",
      "2 0",
      "pe g",
      "iv er",
      "e v",
      "i es",
      "l ink",
      "f g",
      "r r",
      "Ġn ext",
      "i ps",
      "\" ;",
      "fi x",
      "m et",
      "tim er",
      "in ed",
      "b lk",
      "c li",
      "Ġ device",
      "Ġ* *",
      "Ġco mp",
      "Ġt ra",
      "Ġf d",
      "al ign",
      "Ġop c",
      "8 0",
      "it ion",
      "la b",
      "th read",
      "c lass",
      "pre d",
      "w a",
      "Ġw ith",
      "Ġp c",
      "add ress",
      "Ġs ample",
      "v p",
      "m c",
      "mm x",
      "arg s",
      "Ġd i",
      "byte s",
      "Ġ )",
      "Ġf printf",
      "que ue",
      "Ġflag s",
      "c heck",
      "q p",
      "cp y",
      "Ġd is",
      "Ġm ode",
      "Ġre f",
      "ue st",
      "Ġbu ffer",
      "op tion",
      "sc si",
      "an s",
      "g r",
      "n al",
      "frame s",
      "a io",
      "Ġr t",
      "( %",
      "y uv",
      "Ġs l",
      "1 1",
      "cep tion",
      "Ġa ssert",
      "i ze",
      "a ssert",
      "Ġ- =",
      "x mm",
      "r t",
      "ph ys",
      "de d",
      "sk ip",
      "code d",
      "de st",
      "en ts",
      "n et",
      "f unc",
      "ed ge",
      "Ġ 9",
      "Ġ\" \\",
      "Ġa re",
      "pc m",
      "Ġs k",
      "dr iver",
      "Ġth at",
      "std err",
      "e k",
      "Ġm v",
      "l er",
      "op en",
      "Ġp os",
      "Ġp ic",
      "Ġsk ip",
      "de c",
      "ot ion",
      "en able",
      "co mm",
      "ph a",
      "size of",
      ": %",
      "n ull",
      "c reate",
      "Ġu p",
      "v s",
      "ot al",
      "l s",
      "' ,",
      "r gb",
      "re set",
      "Ġo b",
      "Ġw rite",
      "Ġa n",
      "Ġf loat",
      "= =",
      "li m",
      "> >",
      "] ->",
      "pixel s",
      "' t",
      "Ġf ile",
      "s pr",
      "f c",
      "se g",
      "qu ant",
      "Ġw idth",
      "Ġmem cpy",
      "Ġi o",
      "Ġh ave",
      "= %",
      "c el",
      "re quest",
      "Ġs ub",
      "Ġr n",
      "t in",
      "* *",
      "Ġin fo",
      "d ing",
      "ul ong",
      "o ff",
      "Ġp i",
      "invalid data",
      "Ġ( *",
      "Ġ dev",
      "us h",
      "u se",
      "err up",
      "f n",
      "ur ation",
      "con f",
      "mp eg",
      "Ġte mp",
      "u st",
      "Ġtr ue",
      "co w",
      "mm u",
      "mov q",
      "Ġv nc",
      ")) )",
      "Ġf i",
      "sy nc",
      "Ġout put",
      "ar y",
      "reg ister",
      "no w",
      "l b",
      "o m",
      "at ch",
      "ile d",
      "extr adata",
      "up date",
      "Ġar m",
      "co py",
      "pe ct",
      "Ġs d",
      "Ġo st",
      "Ġc an",
      "Ġcon fig",
      "Ġpa cket",
      "r b",
      "Ġm ov",
      "sc an",
      "ct l",
      "ra y",
      "tr ol",
      "Ġpix el",
      "r un",
      "Ġu sb",
      "w ord",
      "d sp",
      "Ġ\" %",
      "l ong",
      "Ġse ctor",
      "Ġ ot",
      "Ġ& =",
      "Ġ(! (",
      "p th",
      "Ġfil ter",
      "Ġk vm",
      "Ġ last",
      "me di",
      "Ġb lk",
      "al se",
      "Ġs up",
      "de coder",
      "io s",
      "Ġh as",
      "st rc",
      "pl ane",
      "pi ct",
      ") (",
      "ate d",
      "Ġtim e",
      "Ġf ir",
      "Ġdef ined",
      "c fg",
      "le t",
      "tin ue",
      "co eff",
      "Ġf rom",
      "Ġde code",
      "ver sion",
      "d s",
      "_ _",
      "ch ine",
      "Ġco unt",
      "block s",
      "or der",
      "Ġbit s",
      "il d",
      "Ġmem set",
      "g pr",
      "lo se",
      "ob j",
      "st ore",
      "por ted",
      "Ġch an",
      "Ġb and",
      "Ġm in",
      "en o",
      "errup t",
      "tc g",
      "e inval",
      "4 4",
      "op c",
      "Ġ level",
      "set g",
      "d p",
      "Ġpa ge",
      "f loat",
      "Ġfir st",
      "val id",
      "fi r",
      "Ġf alse",
      "re port",
      "lo op",
      "Ġcon tinue",
      "ol d",
      "Ġs pa",
      "co ding",
      "Ġbyte s",
      "Ġu se",
      "Ġa u",
      "Ġa b",
      "te st",
      "r x",
      "Ġp ow",
      "c ap",
      "Ġr s",
      "u id",
      "1 5",
      "s ps",
      "ar m",
      "it or",
      "di sp",
      "m l",
      "Ġm ask",
      "Ġtcg v",
      "Ġi st",
      "Ġex it",
      "param s",
      "\" \\",
      "er ty",
      "pa ck",
      "Ġ [",
      "Ġh w",
      "Ġq dev",
      "ev ent",
      "Ġn ame",
      "Ġob ject",
      "s up",
      "Ġr am",
      "l ta",
      "fa ce",
      "col or",
      "r i",
      "codec context",
      "Ġpow er",
      "Ġ( %",
      "Ġt b",
      "ct rl",
      "x b",
      "Ġp l",
      "pe d",
      "a i",
      "p end",
      "Ġ%% \"",
      "a ps",
      "d ma",
      "Ġv s",
      "u ff",
      "w e",
      "Ġstr ide",
      "eno mem",
      "er s",
      "Ġp tr",
      "m on",
      "r ix",
      "n ing",
      "Ġt able",
      "Ġal loc",
      "1 3",
      "Ġbo ol",
      ". .",
      "Ġd r",
      "Ġl ong",
      "ow n",
      "b drv",
      "co re",
      "p m",
      "Ġb y",
      "ve ctor",
      "ch ar",
      "spa ce",
      "driver state",
      "mode l",
      "fir st",
      "o und",
      "if y",
      "Ġadd ress",
      "Ġm o",
      "Ġ );",
      "h ot",
      "num ber",
      "x a",
      "Ġ z",
      "Ġ 64",
      "ex p",
      "lim it",
      "d b",
      "Ġs ys",
      "v dev",
      "x l",
      "d ts",
      "Ġc b",
      "a ge",
      "ex ception",
      "y p",
      "mp lem",
      "Ġc c",
      "Ġs n",
      "de n",
      "t op",
      "Ġh and",
      "le g",
      "Ġ $",
      "re n",
      "h dr",
      "< <",
      "po int",
      "k ernel",
      "2 6",
      "enable d",
      "s um",
      "an ce",
      "Ġde sc",
      "id ct",
      "Ġr un",
      ")) );",
      "Ġde st",
      "a st",
      "n s",
      "Ġv ec",
      "option s",
      "prop erty",
      "cli ent",
      "x ffff",
      "Ġ log",
      "n ode",
      "par se",
      "Ġsh ift",
      "lab el",
      "Ġin put",
      "o uld",
      "u al",
      "Ġon ly",
      ". \\",
      "ex cp",
      "Ġ list",
      "Ġm ap",
      "( !",
      "ur ce",
      "Ġ height",
      "Ġpower pc",
      "4 0",
      "f r",
      "at tr",
      "Ġsi gn",
      "ch unk",
      "Ġs y",
      "Ġt ag",
      "di s",
      "g p",
      "Ġh ost",
      "i mage",
      "Ġb ack",
      "ra w",
      "0 2",
      "Ġc op",
      "5 5",
      "tr ies",
      "r ip",
      "pa ss",
      "v q",
      "c al",
      "Ġv c",
      "medi a",
      "Ġchan nel",
      "tr ack",
      "a re",
      "Ġ} ;",
      "( )",
      "g h",
      "Ġ1 5",
      "s d",
      "hand le",
      "* )",
      "Ġ le",
      "Ġs pe",
      "ro w",
      "lay out",
      "h d",
      "ra g",
      "e ctor",
      "Ġo ld",
      "Ġal l",
      "' :",
      "la sh",
      "s ys",
      "r ange",
      "u sed",
      "Ġc md",
      "Ġfor mat",
      "p ing",
      "Ġau dio",
      "fo re",
      "ak e",
      "cr yp",
      "Ġsample s",
      "ind ow",
      "la c",
      "mat rix",
      "ub le",
      "de lay",
      "a il",
      "Ġne ed",
      "se nt",
      "Ġex tr",
      "let te",
      "m x",
      "pro g",
      "on ly",
      "con ne",
      "ser ver",
      "h er",
      "Ġop aque",
      "op s",
      "il l",
      "Ġd printf",
      "c lock",
      "se l",
      "f ind",
      "Ġo ff",
      "m pu",
      "q scale",
      "Ġb ase",
      "hand ler",
      "Ġr c",
      "Ġop en",
      "Ġf l",
      "a ut",
      "ur l",
      "Ġtc i",
      "de pth",
      "Ġf p",
      "Ġst ate",
      "b le",
      "Ġcur rent",
      "++) {",
      "Ġtra ce",
      "s se",
      "Ġe v",
      "5 0",
      "o c",
      "r s",
      "Ġ he",
      "le te",
      "m ul",
      "for m",
      "Ġc ol",
      "free p",
      "dr m",
      "bo ok",
      "p pc",
      "Ġcop y",
      "g ic",
      "Ġop tion",
      "Ġarg s",
      "g o",
      "Ġv is",
      "ar ch",
      "n on",
      "Ġup date",
      "Ġspa pr",
      "Ġlen gth",
      "k en",
      "dir ty",
      "op code",
      "ver t",
      "a x",
      "s pe",
      "ab ort",
      "pre v",
      "t d",
      "Ġf ix",
      "tr ans",
      "m otion",
      "Ġs pr",
      "Ġint er",
      "Ġg uest",
      "fl ush",
      "g ot",
      "m si",
      "Ġ1 1",
      "st ep",
      "m ips",
      "\" ))",
      "Ġc or",
      "Ġv p",
      "en ted",
      "Ġo map",
      "strc mp",
      "int errupt",
      "el l",
      "ma in",
      "cpu s",
      "i se",
      "Ġx xx",
      "di v",
      "ex it",
      "al pha",
      "Ġpre v",
      "now n",
      "' )",
      "d ct",
      "Ġstat us",
      "Ġc p",
      "si d",
      "in c",
      "Ġc luster",
      "Ġin valid",
      "Ġline size",
      "Ġq u",
      "ac cess",
      "Ġst ore",
      "Ġm at",
      "Ġv ideo",
      "2 2",
      "p ps",
      "e f",
      "r ation",
      "Ġr m",
      "av codeccontext",
      "st em",
      "di ff",
      "Ġsys bus",
      "Ġk ernel",
      "feature s",
      "x c",
      "se ek",
      "a ch",
      "v ar",
      "de fault",
      "ro sk",
      "p add",
      "lo b",
      "Ġr a",
      "s a",
      "s ing",
      "Ġb ut",
      "ar ning",
      "Ġ ext",
      "Ġv er",
      "c an",
      "rip t",
      "f rom",
      "t p",
      "ro up",
      "o d",
      "Ġi mage",
      "0 1",
      "en code",
      "Ġsl ice",
      "Ġt s",
      "Ġq cow",
      "bit map",
      "Ġsc si",
      "Ġre q",
      "disp lay",
      "Ġi r",
      "en ce",
      "Ġv ector",
      "Ġnb d",
      "c le",
      "ma chine",
      "Ġq dict",
      "Ġ*/ \\",
      "Ġ2 4",
      "mplem ented",
      "so cket",
      "con trol",
      "Ġun lock",
      "format context",
      "it le",
      "Ġv a",
      "d uration",
      "Ġon e",
      "w r",
      "ur face",
      "rosk a",
      ") \\",
      "mov e",
      "met adata",
      "j peg",
      "Ġp h",
      "Ġen try",
      "* /",
      "l l",
      "m r",
      "w indow",
      "sw ap",
      "Ġpi cture",
      "Ġ2 0",
      "ir r",
      "Ġac cess",
      "Ġ lock",
      "Ġd ir",
      "se nd",
      "Ġch unk",
      "t ile",
      "t otal",
      "re al",
      "Ġsh ould",
      "d up",
      "l um",
      "lo t",
      "file s",
      "Ġoffset of",
      "Ġm ips",
      "re p",
      "Ġav media",
      "mu tex",
      "9 0",
      "g uest",
      "ov er",
      "Ġ' %",
      "Ġre quest",
      "Ġt otal",
      "Ġk ey",
      "l p",
      "n one",
      "\\ \"",
      "ms g",
      "Ġn v",
      "Ġ2 56",
      "ol l",
      "Ġpr intf",
      "ab s",
      "comm on",
      ") *",
      "t itle",
      "p te",
      "b d",
      "u c",
      "12 8",
      "\" )",
      "Ġp er",
      "aps hot",
      "or k",
      "an g",
      "Ġm e",
      "Ġex cp",
      "Ġ} ,",
      "2 000",
      "n v",
      "Ġnum ber",
      "Ġs er",
      "Ġb us",
      "v ga",
      "ar ray",
      "f rag",
      "ma c",
      "io c",
      "0 8",
      "Ġfi eld",
      "leg al",
      "le d",
      "act ive",
      "c nt",
      "s ave",
      "v irtio",
      "Ġ\" ,",
      "Ġ% \"",
      "v a",
      "sc ard",
      "de lta",
      "Ġp o",
      "Ġfa iled",
      "w arning",
      "Ġa li",
      "Ġir q",
      "i e",
      "er ic",
      "Ġo ver",
      "j ob",
      "back ing",
      "i fi",
      "Ġco mm",
      "Ġs m",
      "Ġp pc",
      "y n",
      "at io",
      "Ġav pkt",
      "Ġerr p",
      "us b",
      "conne ct",
      "b gr",
      "i z",
      "ro u",
      "Ġi de",
      "b p",
      "p art",
      "Ġ low",
      "i b",
      "Ġch r",
      "0000 00",
      "y nc",
      "as pect",
      "1 000",
      "y si",
      "b l",
      "un signed",
      "def ine",
      "qu i",
      "li b",
      "c lose",
      "Ġf ind",
      "Ġav codec",
      "Ġin sn",
      "3 4",
      "d own",
      "ar k",
      "v d",
      "en tries",
      "Ġop t",
      "fi fo",
      "so ck",
      "ren ce",
      "j mp",
      "v fp",
      "lo mb",
      "ai lab",
      "4 8",
      "s g",
      "c or",
      "la ce",
      "Ġc li",
      "mu x",
      "Ġp ps",
      "in s",
      "Ġp ort",
      "im g",
      "st e",
      "so urce",
      "ta il",
      "au se",
      "fi o",
      "Ġsc ale",
      "e ded",
      "ysi cal",
      "26 3",
      "Ġs p",
      "Ġte st",
      "se ction",
      "Ġs ps",
      "pr ob",
      "Ġsi g",
      "el y",
      "Ġde bug",
      "po c",
      ") [",
      "sup ported",
      "go lomb",
      "ailab le",
      "di ctor",
      "r atio",
      "Ġv m",
      "per m",
      "malloc z",
      "f x",
      "Ġi ov",
      "Ġm ust",
      "Ġse ek",
      "Ġd ct",
      "lu g",
      "Ġm otion",
      "Ġsc an",
      "ms r",
      "s f",
      "Ġb ios",
      "Ġfil l",
      "b ar",
      "Ġi l",
      "mp le",
      "pre sent",
      "Ġ== ,",
      "er ate",
      "0000 000",
      "Ġid x",
      "Ġw ill",
      "ript or",
      "l it",
      "en sion",
      "Ġf ree",
      "Ġu v",
      "lu ma",
      "e lem",
      "Ġtra ck",
      "q dev",
      "Ġa io",
      "lob al",
      "n opts",
      "Ġm peg",
      "u mp",
      "Ġ ]",
      "at ile",
      "c all",
      "Ġ+ +",
      "Ġ# #",
      "an sl",
      "ic al",
      "Ġq p",
      "w d",
      "+ =",
      "le ase",
      "ic h",
      "param et",
      "di rect",
      "Ġen c",
      "v is",
      "fa iled",
      "se c",
      "Ġa ct",
      "av formatcontext",
      "Ġil legal",
      "r m",
      "ic s",
      "Ġin line",
      "Ġpar am",
      "Ġn ode",
      "li k",
      "ref count",
      "cli p",
      "Ġp ath",
      "ith er",
      "Ġan y",
      "Ġali gn",
      "i ck",
      "Ġsn printf",
      "Ġ* (",
      "Ġt lb",
      "Ġco eff",
      "Ġdis p",
      "Ġcol or",
      "un it",
      "v ed",
      "tl b",
      "Ġ3 1",
      "spa pr",
      "ts p",
      "Ġ ^",
      "-- ;",
      "out ine",
      "3 90",
      "sy stem",
      "Ġas f",
      "bo ot",
      "a pi",
      "Ġav packet",
      "Ġto do",
      "i ss",
      "ra ph",
      "p lug",
      "r ing",
      "bit stream",
      "pre c",
      "a in",
      "g roup",
      "k vm",
      "re sh",
      "Ġm sr",
      "** **",
      "f pr",
      "Ġq xl",
      "Ġpa ss",
      "qu ence",
      "wa it",
      "Ġthe re",
      "endi an",
      "q iov",
      "r p",
      "aut h",
      ") :",
      "ac cel",
      "Ġpar se",
      "lac ed",
      "b i",
      "el f",
      "h igh",
      "Ġn ow",
      "Ġhand le",
      "p t",
      "st amp",
      "it e",
      "(\" %",
      "read y",
      "x e",
      "str dup",
      "Ġch roma",
      "[ (",
      "mo d",
      "l x",
      "r ot",
      "Ġm on",
      "pr int",
      "pa lette",
      "Ġto o",
      "cluster s",
      "Ġd one",
      "av g",
      "gp io",
      "1 4",
      "c v",
      "h od",
      "et ch",
      "ser ial",
      "st op",
      "co un",
      "fd s",
      "f lash",
      "Ġp b",
      "Ġp te",
      "ra p",
      "ifi er",
      "Ġc reate",
      "Ġd on",
      "f req",
      "ga in",
      "et a",
      "n p",
      "Ġav filter",
      "block driverstate",
      "Ġff min",
      "Ġis a",
      "Ġ ,",
      "ms a",
      "is a",
      "Ġsup ported",
      "Ġp ts",
      "al t",
      "Ġcon trol",
      "Ġde c",
      "he d",
      "Ġr gb",
      "Ġ% [",
      "mov i",
      "3 0",
      "v nc",
      "di scard",
      "b c",
      "Ġ zero",
      "le ct",
      "l un",
      "u x",
      "\" (",
      "f id",
      "s m",
      "mm io",
      "Ġinit rd",
      "q dict",
      "re o",
      "Ġp red",
      "Ġ lo",
      "Ġd sp",
      "set up",
      "Ġinit ial",
      "Ġ left",
      "Ġf ound",
      "' s",
      "s urface",
      "ps r",
      "Ġfi lename",
      "g ed",
      "y v",
      "Ġ! (",
      "ol atile",
      "Ġ' \\",
      "mo drm",
      "v irt",
      "Ġ local",
      "Ġc le",
      "Ġc lose",
      "b y",
      "m ult",
      "ex ec",
      "Ġ(( (",
      "Ġf w",
      "po w",
      "band s",
      "si de",
      "wa ys",
      "as m",
      "Ġse g",
      "coeff s",
      "y load",
      "comm and",
      "xb f",
      "on t",
      "qp el",
      "2 56",
      "h i",
      "pu ts",
      "++ ,",
      "codec par",
      "Ġhe re",
      "Ġt swap",
      "Ġu sed",
      "Ġ10 24",
      "v ec",
      "ch ild",
      "Ġwh en",
      "Ġsup port",
      "++ ]",
      "Ġex ception",
      "l pc",
      "or m",
      "si mple",
      "ph ysical",
      "o se",
      "r n",
      "Ġi p",
      "Ġc all",
      "Ġre al",
      "0000 0",
      "Ġv irt",
      "Ġcon d",
      "Ġx en",
      "Ġdo uble",
      "e ax",
      "w b",
      "ig ration",
      "Ġl d",
      "we ight",
      "Ġ5 12",
      "Ġdi ff",
      "to ken",
      "ang le",
      "p en",
      "Ġstr len",
      "Ġhw addr",
      "0 4",
      "Ġ. ..",
      "unk nown",
      "f ull",
      "pa rent",
      "Ġn et",
      "im e",
      "f er",
      "p al",
      "as ync",
      "as l",
      "Ġm p",
      "Ġ1 3",
      "Ġal pha",
      "un ction",
      "Ġver sion",
      "Ġq object",
      "Ġma y",
      "Ġa p",
      "Ġp art",
      "Ġn al",
      "2 5",
      "c l",
      "u cture",
      "co ord",
      "cb p",
      "Ġso cket",
      "Ġre set",
      "byte stream",
      "comp lete",
      "Ġm m",
      "c ause",
      "Ġm ult",
      "ne on",
      "Ġa cb",
      "Ġma chine",
      "Ġr ow",
      "gen eric",
      "f ter",
      "Ġm y",
      "if ic",
      "Ġpr int",
      "mpu te",
      "g lobal",
      "Ġr ange",
      "Ġse nd",
      "Ġwh ich",
      "x or",
      "Ġav frame",
      ")) {",
      "ff f",
      "sc r",
      "Ġreg ion",
      "Ġtr ans",
      "du mp",
      "Ġav stream",
      "Ġe fault",
      "r ight",
      "p ad",
      "Ġt i",
      "on ent",
      "mov d",
      "l an",
      "sn apshot",
      "sub title",
      "Ġfix me",
      "1 8",
      "f in",
      "Ġu ser",
      "inter nal",
      "a y",
      "g in",
      "ta in",
      "Ġre qui",
      "Ġblock s",
      "Ġalloc ate",
      "r w",
      "w ork",
      "Ġs ave",
      "br id",
      "fix me",
      "ize d",
      "s lot",
      "Ġt op",
      "list en",
      "d one",
      "v id",
      "Ġmat roska",
      "t en",
      "Ġm x",
      "3 1",
      "di ction",
      "Ġ12 8",
      "s z",
      "fi ed",
      "ro und",
      "dis as",
      "un ref",
      "ter n",
      "b pp",
      "x d",
      "re sp",
      "di sk",
      "Ġp fl",
      "tl s",
      "Ġres ult",
      "Ġpl ane",
      "e b",
      "Ġso me",
      "Ġ url",
      "4 20",
      "p id",
      "v i",
      "pu np",
      "met hod",
      "punp ck",
      "Ġtim er",
      "Ġspe ci",
      "part ition",
      "pre dictor",
      "l ing",
      "Ġr b",
      "prog ram",
      "b ios",
      "Ġs um",
      "pre fix",
      "f low",
      "co uld",
      "io us",
      "ver ify",
      "comp res",
      "Ġsd l",
      "Ġextr act",
      "Ġcomm and",
      "i mplemented",
      "sh ort",
      "lik ely",
      "Ġ\"\\ \"\\",
      "Ġb ad",
      "inter laced",
      "Ġc r",
      "Ġv ar",
      "Ġsh ort",
      "Ġtr ansl",
      "Ġso ck",
      "pro file",
      "1 00",
      "t ell",
      "at ive",
      "an k",
      "mt c",
      "hw accel",
      "le ss",
      "pr oto",
      "c context",
      "e io",
      "n z",
      "or mat",
      "Ġv host",
      "not ifier",
      "irr or",
      "Ġc s",
      "msi x",
      "v t",
      "init ial",
      "n se",
      "s on",
      "s or",
      "se s",
      "Ġj ust",
      "q cow",
      "sign al",
      "f at",
      "d x",
      "re lease",
      "Ġ1 4",
      "res ult",
      "cmd line",
      "Ġqu ant",
      "g id",
      "i mm",
      "[ ]",
      "Ġf e",
      "Ġm mu",
      "fa st",
      "\\ \\",
      "i op",
      "de l",
      "Ġm c",
      "Ġref count",
      "Ġrt as",
      "Ġot her",
      "-- )",
      "( '",
      "f b",
      "f printf",
      "Ġv olatile",
      "Ġde lta",
      ") .",
      "', '",
      "f w",
      "q xl",
      "init rd",
      "pend ing",
      "Ġm ake",
      "Ġde pth",
      "of t",
      "uv linesize",
      "b h",
      "p oll",
      "pr i",
      "field s",
      "* (",
      "4 22",
      "Ġmemory region",
      "\" ),",
      "Ġp xa",
      "e q",
      "Ġre name",
      "ul ate",
      "Ġq list",
      "bo ol",
      "bu ild",
      "Ġth an",
      "chan ge",
      "e rence",
      "f pu",
      "o u",
      "u ma",
      "Ġm ac",
      "str ucture",
      "int r",
      "Ġpr op",
      "ache d",
      "cryp to",
      "Ġev ent",
      "un lock",
      "insn s",
      "( ))",
      "] ]",
      "Ġr ound",
      "Ġframe s",
      "Ġint errupt",
      "44 4",
      "ot to",
      "sub region",
      "Ġac pi",
      "Ġdis as",
      "w in",
      "Ġs ce",
      "Ġs br",
      "do uble",
      "\\\" \",",
      "ste reo",
      ") >>",
      "p du",
      "Ġi mm",
      "Ġt ile",
      "Ġm si",
      "Ġh igh",
      "filter size",
      "Ġn on",
      "cpu x",
      "s v",
      "Ġff max",
      "buffer s",
      "Ġth read",
      "qu al",
      "rou gh",
      ") &",
      "w rap",
      "Ġ em",
      "bit context",
      "Ġoption s",
      "Ġmon itor",
      "} ;",
      "Ġs ame",
      "Ġa ml",
      "et h",
      "av ed",
      "fa ctor",
      "0 3",
      "Ġf mt",
      "pr im",
      "Ġe lem",
      "otto m",
      "en coder",
      "res er",
      "cel l",
      "Ġst ep",
      "Ġal ways",
      "Ġerr no",
      "Ġuv linesize",
      "Ġi g",
      "sw s",
      "' ;",
      "w o",
      "se quence",
      "has h",
      "fore ach",
      "g uid",
      "Ġc l",
      "Ġf s",
      "able d",
      "Ġph ys",
      "a ff",
      "an ch",
      "tr an",
      "mp ty",
      "ro y",
      "alloc ated",
      "cmp int",
      "2 1",
      "a ction",
      "g raph",
      "m ents",
      "Ġm kt",
      ") ->",
      "w ard",
      "ta ch",
      "c lk",
      "g ram",
      "re sample",
      "vis itor",
      "r le",
      "dr c",
      "Ġpr ot",
      "an y",
      "Ġne on",
      "Ġmkt ag",
      "% \"",
      "p and",
      "Ġo s",
      "sp ar",
      "Ġno te",
      "1 9",
      "er ation",
      "av pkt",
      "end or",
      "Ġbe fore",
      "-- --",
      "wa re",
      "50 9",
      "o le",
      "t le",
      "size s",
      "seg ment",
      "brid ge",
      "Ġre p",
      "Ġin c",
      "um e",
      "Ġtr y",
      "ab il",
      "Ġal ready",
      "map ping",
      "aio cb",
      "Ġfl ush",
      "a pe",
      "tail q",
      "a ac",
      "t m",
      "ac b",
      "Ġe p",
      "Ġpro cess",
      "w atch",
      "Ġi scsi",
      "Ġf ull",
      "ss d",
      "Ġbe st",
      "enc dec",
      "Ġ~ (",
      "vector s",
      "Ġg b",
      "Ġint o",
      "ab ac",
      "cp l",
      "r ac",
      "se q",
      "th resh",
      "cpu id",
      "as f",
      "ad pcm",
      "ma gic",
      "Ġj peg",
      "Ġsw s",
      "Ġbo ot",
      "Ġchannel s",
      "d log",
      "e of",
      "t t",
      "x en",
      "Ġw as",
      "ref erence",
      "Ġdr ive",
      "cryp t",
      "m fc",
      "en ded",
      "id c",
      "gen ccontext",
      "Ġpa lette",
      "cep t",
      "c fi",
      "he vc",
      "Ġpi ct",
      "Ġig no",
      "] ));",
      "slice s",
      "/ %",
      "ot h",
      "desc riptor",
      "Ġcor rect",
      "ark er",
      "Ġc al",
      "Ġd uration",
      "mov l",
      "spe c",
      "tain er",
      "f li",
      "ma ster",
      "a w",
      "w h",
      "Ġ ->",
      "Ġav priv",
      "ac y",
      "so le",
      "] ))",
      "k ind",
      "Ġbe cause",
      "Ġti ff",
      "g t",
      "u te",
      "re move",
      "in ux",
      "Ġv b",
      "Ġr tsp",
      "Ġblock driverstate",
      "align ed",
      "xffff ffff",
      "dst w",
      "struct ion",
      "dest roy",
      "4 2",
      "Ġ edge",
      "Ġv ga",
      "Ġ1 8",
      "pl an",
      "Ġmo drm",
      "n g",
      "v r",
      "at or",
      "Ġe ach",
      "irq s",
      "fix ed",
      "b il",
      "u i",
      "Ġa ac",
      "Ġre ser",
      "si ve",
      "co ef",
      "Ġd ma",
      "Ġl ink",
      "i w",
      "Ġa st",
      "Ġp s",
      "Ġr o",
      "Ġne eded",
      "tb l",
      "rd ma",
      "Ġtransl ation",
      "Ġen um",
      "rr r",
      ") \",",
      "d yn",
      "m ix",
      "t ick",
      "er ge",
      "Ġm et",
      "an up",
      "pc r",
      "Ġbu g",
      "Ġpr iv",
      "mmx t",
      "Ġback ing",
      "s ch",
      "w l",
      "re ce",
      "Ġp g",
      "Ġv lc",
      "av ailable",
      "re rr",
      "Ġb r",
      "Ġw rit",
      "Ġco uld",
      "res level",
      "Ġcli ent",
      "spar c",
      "] +",
      "e sc",
      "k e",
      "Ġth en",
      "13 9",
      "sing le",
      "] *",
      "Ġi mplemented",
      "si ble",
      "ter nal",
      "Ġser ial",
      ") ];",
      "w ith",
      "Ġn r",
      "ref etch",
      "name s",
      "Ġdo es",
      "extr a",
      "i scsi",
      "pow er",
      "m y",
      "Ġa ut",
      "Ġa fter",
      "on se",
      "lo or",
      "po ol",
      "rt p",
      "rerr or",
      "[ -",
      "w ap",
      "Ġf lash",
      "Ġg o",
      "Ġh elper",
      "Ġ>> =",
      "ap ter",
      "iov ec",
      "d t",
      "Ġf o",
      "Ġval id",
      "par ser",
      "Ġal low",
      "Ġcb p",
      "k s",
      "k v",
      "tr unc",
      "Ġab ort",
      "8 000",
      "m i",
      "Ġv dev",
      "Ġo c",
      "not ify",
      "spr ite",
      "main ing",
      "at ing",
      "Ġpr i",
      "c y",
      "c abac",
      "d d",
      "r y",
      "re en",
      "ap ic",
      "Ġco mpute",
      "Ġat om",
      "real ize",
      "v endor",
      "Ġ2 2",
      "Ġ*) &",
      "d ither",
      "Ġv fio",
      "li rp",
      "comp at",
      "n of",
      "Ġc ache",
      "Ġf in",
      "Ġm atch",
      "Ġd b",
      "av ail",
      "Ġ! !",
      "Ġex p",
      "se lect",
      "no access",
      "Ġparam et",
      "tran sp",
      "t ing",
      "re scale",
      "Ġ( ;",
      "te ct",
      "Ġst op",
      "pr ot",
      "av s",
      "cpu state",
      "mat ch",
      "leg acy",
      "Ġav codeccontext",
      "av filter",
      "0000 0000",
      "time stamp",
      "back end",
      "rep ly",
      "7 0",
      "t tp",
      "Ġa ss",
      "Ġq tailq",
      "Ġh dr",
      "ap pend",
      "Ġspe c",
      "d v",
      "ul ar",
      "sc al",
      "Ġcon text",
      "fo und",
      "fil l",
      "cle ar",
      "on ents",
      "tr a",
      "Ġex ec",
      "10 24",
      "iw mmxt",
      "r v",
      "pr id",
      "Ġde lay",
      "Ġch ange",
      "cor outine",
      "ins ert",
      "b ad",
      "or b",
      "Ġm ore",
      "con v",
      "Ġgen erate",
      "thread s",
      "3 3",
      "u ffff",
      "an di",
      "Ġd v",
      "st s",
      "io mmu",
      "th rot",
      "Ġsh ow",
      "uc cess",
      "Ġdisp lay",
      "x hci",
      "Ġ* =",
      "Ġw a",
      "Ġsc al",
      "ag ate",
      "paramet er",
      "c a",
      "m an",
      "al f",
      "\", \"",
      "Ġse cond",
      "rect angle",
      "Ġfd t",
      "g ray",
      "Ġav ailable",
      "Ġmap ping",
      "trans form",
      "g y",
      "dr ive",
      "map ped",
      "__ ,",
      "uff fd",
      "s core",
      "Ġ elf",
      "Ġa pp",
      "Ġq mp",
      "Ġ2 55",
      "Ġop ts",
      "st y",
      "Ġs s",
      "ct b",
      "ch ip",
      "mat roska",
      "be gin",
      "paramet ers",
      "r tc",
      "w rit",
      "value s",
      "pro xy",
      "Ġor der",
      "e di",
      "Ġr w",
      "Ġ4 80",
      "Ġen code",
      "irr us",
      "Ġi codec",
      "Ġu sing",
      "por ts",
      "Ġreser ved",
      "b ps",
      "av frame",
      "Ġpixel s",
      "Ġin struction",
      "Ġ2 1",
      "no s",
      "po st",
      "bo se",
      "pect ed",
      "t n",
      "re l",
      "ad di",
      "Ġ1 7",
      "Ġq io",
      "ov e",
      "Ġun it",
      "Ġy uv",
      "stat s",
      "Ġor ig",
      "; )",
      "b ig",
      "code book",
      "prob e",
      "a a",
      "h uff",
      "co ld",
      "di mm",
      "pa yload",
      "Ġreg s",
      "9 9",
      "Ġr x",
      "Ġpr ix",
      ", %",
      "Ġa bs",
      "Ġav format",
      "Ġst l",
      "con sole",
      "Ġvalue s",
      "c d",
      "n ic",
      "q rt",
      "Ġs r",
      "di m",
      "ref s",
      "pm add",
      "padd ing",
      "6 8",
      "] ),",
      "or iz",
      "ne eded",
      "Ġdst stride",
      "ration al",
      "b g",
      "e fs",
      "io ctl",
      "a si",
      "ase cmp",
      "Ġcon ne",
      "Ġad pcm",
      "b in",
      "h y",
      "Ġ ][",
      "am ic",
      "xf er",
      "Ġcli p",
      "d info",
      "e sp",
      "g oto",
      "i as",
      "s oft",
      "v ol",
      "se arch",
      "at tern",
      "en ter",
      "hot plug",
      "! \\",
      "f unction",
      "Ġr om",
      "ing le",
      "ne g",
      "Ġab i",
      "t ap",
      "re c",
      "he x",
      "un supported",
      "Ġq pc",
      "ret urn",
      "ension s",
      "Ġseg ment",
      "reser ved",
      "Ġwa it",
      "] ];",
      "i ma",
      "nb d",
      "prop agate",
      "pmadd wd",
      "se cond",
      "Ġmult ip",
      "tra ce",
      "t he",
      "t ask",
      "Ġc m",
      "Ġs ingle",
      "or ig",
      "Ġf unc",
      "Ġg ot",
      "tr ap",
      "p op",
      "dr aw",
      "Ġr ate",
      "ine ar",
      "packet s",
      "decode d",
      "Ġprev ious",
      "c u",
      "w s",
      "en coding",
      "Ġde coder",
      "pro c",
      "ok up",
      "Ġcan not",
      "Ġcle ar",
      "h v",
      "Ġ4 0",
      "ver bose",
      "fe ed",
      "Ġbit map",
      "disas context",
      "b ottom",
      "Ġ loop",
      "Ġi mplem",
      "Ġre ce",
      "orm al",
      "' \\",
      "m g",
      "de mux",
      "la p",
      "strc asecmp",
      "Ġdesc riptor",
      "Ġser ver",
      "of ormat",
      "def ined",
      ": \"",
      "p ol",
      "re ment",
      "Ġm igration",
      "Ġq ue",
      "block size",
      "Ġar ray",
      "Ġpo int",
      "Ġsrc stride",
      "trans fer",
      "in et",
      "st fs",
      "Ġv q",
      "code s",
      "Ġget bitcontext",
      "ap p",
      "Ġcode book",
      "rect s",
      "Ġspa ce",
      "2 8",
      "h ing",
      "re alloc",
      "it em",
      "Ġav oid",
      "dr am",
      "Ġthe m",
      "Ġpre c",
      "Ġpre fix",
      "memory region",
      "br anch",
      "Ġvis it",
      "ou gh",
      "thresh old",
      "m jpeg",
      "Ġ label",
      "Ġg r",
      "Ġrd ma",
      "g g",
      "k nown",
      "n ut",
      "in puts",
      "Ġre fe",
      "Ġse ction",
      "comp le",
      "Ġso urce",
      "Ġdevice state",
      "Ġsector s",
      "Ġcor outine",
      "Ġimplem ent",
      "m ig",
      "ex ternal",
      "ly ph",
      "bo ard",
      "Ġat tr",
      "Ġres level",
      "off s",
      "Ġcal c",
      "c m",
      "m it",
      "Ġ lib",
      "st ack",
      "str nc",
      "sig set",
      "n x",
      "src format",
      "Ġun implemented",
      "Ġque ue",
      "f ram",
      "); \\",
      "Ġc ap",
      "Ġt wo",
      "co m",
      "cur sor",
      "ms d",
      "2 00",
      "Ġm irror",
      "la v",
      "di st",
      "bs o",
      "Ġregister s",
      "Ġact ual",
      "( ;",
      "b m",
      "b reak",
      "p itch",
      "Ġp thread",
      "ir k",
      "frag ment",
      "qual ity",
      "2 3",
      "l t",
      "s in",
      "Ġm xf",
      "av io",
      "mm y",
      "ps rl",
      "mb aff",
      "Ġavio context",
      "cal c",
      "h p",
      "p write",
      "t v",
      "Ġp ack",
      "Ġd x",
      "enc y",
      "coun ter",
      "iop ort",
      "0 6",
      "Ġa cc",
      "Ġp d",
      "ar ge",
      "un used",
      "con vert",
      "io d",
      "Ġstr ing",
      "Ġsign al",
      "Ġover flow",
      "al le",
      "pu sh",
      "Ġu s",
      "pack ed",
      "rece ive",
      "to yv",
      "prog ress",
      "( ));",
      "9 6",
      "c ed",
      "v ram",
      "se nse",
      "Ġv d",
      "Ġd ump",
      "ma ps",
      "dst y",
      "strnc mp",
      "Ġ limit",
      "er y",
      "de nt",
      "Ġb et",
      "id r",
      "Ġ2 3",
      "Ġl it",
      "Ġl um",
      "Ġcpu state",
      "Ġ<< =",
      "comp are",
      "pic ref",
      ". _",
      "Ġ ;",
      "Ġp p",
      "al low",
      "ex c",
      "ut ion",
      "comp ress",
      "**** ****",
      "i ent",
      "s amp",
      "x attr",
      "Ġn c",
      "Ġh ard",
      "ss age",
      "str i",
      "Ġ\"\\\"\\ \\",
      "Ġs in",
      "Ġm sg",
      "Ġ1 000",
      "ot er",
      "offset s",
      "Ġsy nc",
      "bil inear",
      "0 7",
      "8 00",
      "m igration",
      "Ġp al",
      "cur r",
      "fid p",
      "a red",
      "w t",
      "Ġt d",
      "Ġw ork",
      "if n",
      "iv ec",
      "Ġen tries",
      "gh t",
      "iss ing",
      "compres sed",
      "e sn",
      "l v",
      "Ġs size",
      "Ġre sp",
      "Ġg p",
      "Ġst rerror",
      "Ġr i",
      "Ġe hci",
      "Ġun known",
      "Ġtime stamp",
      "coun ts",
      "transp ort",
      "k lass",
      "q h",
      "s ar",
      "Ġc f",
      "Ġt er",
      "Ġf rag",
      "un likely",
      "Ġd ist",
      "Ġdi e",
      "Ġextr adata",
      "Ġas m",
      "key frame",
      "sup er",
      "c he",
      "l ate",
      "Ġ( &",
      "at er",
      "Ġb pp",
      "al ias",
      "ev ents",
      "Ġdi rect",
      "ifn def",
      "v lan",
      "Ġs lot",
      "or g",
      "Ġp ad",
      "prop s",
      "Ġsign ed",
      "( ),",
      "] ][",
      "f op",
      "Ġc mp",
      "or ity",
      "Ġ1 9",
      "++ );",
      "Ġcpu s",
      "Ġdo esn",
      "Ġdst w",
      "red s",
      "Ġset up",
      "Ġrequi re",
      ". %",
      "h tab",
      "p read",
      "r tsp",
      "s asl",
      "Ġ head",
      "Ġff m",
      "table s",
      "cb lk",
      "Ġen coded",
      "Ġ( \"",
      "at om",
      "Ġd iv",
      "con di",
      "sc all",
      "Ġar ch",
      "dir ac",
      "aut o",
      "Ġra w",
      "iz ation",
      "h c",
      "dec ref",
      "eb ml",
      "Ġaut h",
      "throt tle",
      "1 7",
      "e mpty",
      "h flags",
      "i count",
      "Ġ el",
      "am bd",
      "ver y",
      "Ġbo und",
      "ition al",
      "Ġdr v",
      "sum ed",
      "are a",
      "ambd a",
      "e e",
      "o i",
      "Ġa sync",
      "Ġr rr",
      "dev fn",
      "ro ot",
      "Ġfix ed",
      "Ġvirt ual",
      "h ist",
      "Ġs vq",
      "ic ation",
      "iv ed",
      "spe ci",
      "Ġparamet ers",
      "3 5",
      "o map",
      "re cv",
      "Ġr ight",
      "fa il",
      "met a",
      "ses sion",
      "Ġfe ature",
      "v ide",
      "Ġc fg",
      "Ġs ch",
      "Ġg ic",
      "Ġv td",
      "no te",
      "Ġpa yload",
      "Ġpl an",
      "Ġsn apshot",
      "mips state",
      "fat al",
      "h ave",
      "Ġi v",
      "du le",
      "proto col",
      "v ice",
      "in v",
      "in st",
      "Ġp refetch",
      "Ġbu ild",
      "form ance",
      "' );",
      "m ar",
      "le ms",
      "Ġf un",
      "co efs",
      "el if",
      "Ġint ra",
      "no ise",
      "md s",
      "Ġen coding",
      "back up",
      "Ġpro gram",
      "point s",
      "\" ));",
      "; \\",
      "r nd",
      "u dp",
      "se i",
      "Ġd s",
      "Ġh ap",
      "Ġh ow",
      "log file",
      "buf size",
      "fo ur",
      "Ġe b",
      "alloc ate",
      "mo use",
      "Ġhand ler",
      "Ġrefe rence",
      "b ank",
      "Ġf n",
      "it ies",
      "il y",
      "Ġco un",
      "dst format",
      "cr op",
      "Ġact ive",
      "8 139",
      "b a",
      "e hci",
      "re co",
      "Ġc y",
      "Ġv addr",
      "ur b",
      "ur i",
      "ec x",
      "comp onents",
      "Ġpro xy",
      "Ġcomp res",
      "(% %",
      "Ġsm all",
      "Ġspeci al",
      "Ġsin ce",
      "m erge",
      "u pc",
      "ad v",
      "con t",
      "ed x",
      "++ ];",
      "sc he",
      "is h",
      "ac pi",
      "be st",
      "Ġpr oto",
      "pro cess",
      "lb w",
      "Ġsy stem",
      "punpck lbw",
      "q mp",
      "Ġc nt",
      "di a",
      "ab i",
      "bit rate",
      "Ġop n",
      "Ġpr id",
      "zero es",
      "Ġmode l",
      "fr m",
      "Ġvis itor",
      "padd d",
      "4 000",
      "c irrus",
      "Ġi mg",
      "Ġ- -",
      "ter m",
      "Ġy et",
      "d at",
      "m xf",
      "p dev",
      "dr op",
      "Ġh p",
      "ce s",
      "Ġl arge",
      "Ġe sc",
      "Ġsc sw",
      "d a",
      "e lems",
      "o ice",
      "Ġb d",
      "ar ith",
      "Ġq iov",
      "gb c",
      "Ġout buf",
      "sy n",
      "Ġ*) (",
      "priv ate",
      "psr ad",
      "prim ary",
      "m is",
      "ct s",
      "Ġre x",
      "Ġg roup",
      "Ġx hci",
      "chan ged",
      "Ġextr a",
      "upc ast",
      "7 50",
      "b at",
      "Ġs a",
      "ar mv",
      "Ġth rough",
      "ph b",
      "fl t",
      "# #",
      ") /",
      "s uccess",
      "Ġp du",
      "al ly",
      "te red",
      "Ġst rc",
      "Ġr v",
      "Ġw ant",
      "us age",
      "ext ended",
      "ver se",
      "lay er",
      "dis able",
      "h id",
      "Ġd im",
      "Ġ2 5",
      "Ġthe y",
      "Ġthe se",
      "Ġext ent",
      "3 6",
      "v fio",
      "at tach",
      "Ġma gic",
      "(( (",
      "Ġhe vc",
      "b eta",
      "r lim",
      "w n",
      "Ġb p",
      "Ġav i",
      "an ular",
      "log ic",
      "Ġ2 8",
      "ps ub",
      "sse s",
      "eb x",
      "anular ity",
      "Ġrt p",
      "Ġmo d",
      "perm ut",
      "Ġmet adata",
      "p xa",
      "Ġb ig",
      "Ġp ost",
      "Ġg raph",
      "Ġo ur",
      "Ġw ould",
      "Ġh z",
      "pl x",
      "10 1",
      "we bso",
      "Ġback up",
      "m id",
      "Ġc blk",
      "Ġq err",
      "Ġw r",
      "sh ake",
      "sp lit",
      "ld q",
      "track s",
      "] (",
      "l at",
      "p q",
      "Ġs ure",
      "Ġt ext",
      "Ġf unction",
      "Ġk e",
      "sb r",
      "vert ical",
      "Ġspeci fied",
      "l dst",
      "de coding",
      "Ġen able",
      "can not",
      "over lap",
      "Ġ li",
      "de block",
      "lo p",
      "Ġre c",
      "Ġg db",
      "cpu mipsstate",
      "Ġto ken",
      "arg v",
      "Ġal so",
      "tag s",
      "Ġpro file",
      "Ġpc m",
      "Ġdis k",
      "Ġinitial ize",
      "compres sion",
      "re v",
      "re ctor",
      "Ġf id",
      "Ġp oll",
      "Ġm ul",
      "ne ed",
      "inter le",
      "ag ain",
      "xff f",
      "cle anup",
      "t is",
      "un able",
      "un map",
      "Ġd info",
      "ex port",
      "sr s",
      "resp onse",
      "Ġsock addr",
      "c rc",
      "h ds",
      "re ction",
      "ad c",
      "la ve",
      "av rational",
      "ol den",
      "Ġbe en",
      "Ġen ough",
      "time out",
      "Ġdc a",
      "ib ble",
      "3 8",
      "j son",
      "w av",
      "de quant",
      "pe at",
      "val pha",
      "im um",
      "Ġ3 0",
      "Ġse quence",
      "Ġse lect",
      "uv buf",
      "Ġpre dictor",
      "Ġdevice s",
      "skip ped",
      "Ġdiff e",
      "orb is",
      "' re",
      "8 0000000",
      "w i",
      "} ,",
      "Ġv md",
      "Ġq crypto",
      "pa ir",
      "Ġde coding",
      "per iod",
      "bl t",
      "Ġrep ly",
      "u art",
      "y m",
      "re qu",
      "am ily",
      "ic c",
      "set prop",
      "Ġl inux",
      "Ġop code",
      "ext ension",
      "eg er",
      "mon itor",
      "sel f",
      "ten sa",
      "dyn amic",
      "s pi",
      "Ġb eta",
      "lo ts",
      "Ġre move",
      "Ġv f",
      "Ġ1 00",
      "err ide",
      "Ġfa ult",
      "Ġob j",
      "spe ed",
      "Ġigno re",
      "fli ght",
      "oriz ont",
      ", \"",
      "] ],",
      "m sp",
      "p d",
      "Ġf b",
      "Ġret val",
      "pe genccontext",
      "Ġr ai",
      "zer os",
      "listen er",
      "abil ities",
      "c aps",
      "Ġa pe",
      "Ġa gain",
      "Ġb ar",
      "ci ph",
      "Ġse arch",
      "check sum",
      "scan table",
      "Ġopen pic",
      "b info",
      "Ġp end",
      "Ġm pegenccontext",
      "Ġo v",
      "Ġq api",
      "Ġop eration",
      "stat ic",
      "du al",
      "iscsi lun",
      "c f",
      "f y",
      "v host",
      "lo okup",
      "ar ies",
      "Ġm any",
      "Ġv hd",
      "un pack",
      "ex pr",
      "Ġpre sent",
      "can cel",
      "Ġtrans fer",
      "c and",
      "y nos",
      "Ġ er",
      "Ġfa st",
      "Ġpro b",
      "Ġio mmu",
      "Ġtime out",
      "db g",
      "Ġvm state",
      "alt ivec",
      "fin al",
      "plan es",
      "t i",
      "Ġs mp",
      "Ġm ig",
      "Ġde coded",
      "ext ent",
      ".. .",
      "node s",
      "Ġhard ware",
      "ciph er",
      "i a",
      "t k",
      "u ch",
      "Ġ ];",
      "un ix",
      "ch apter",
      "Ġh f",
      "pci device",
      "Ġs b",
      "en crypt",
      "Ġt x",
      "Ġg l",
      "Ġh ttp",
      "loc ation",
      "qu ery",
      "comp ose",
      "ep el",
      "Ġmat rix",
      "Ġcoun ter",
      "' ))",
      "h z",
      "t cp",
      "v chr",
      "si st",
      "un implemented",
      "pe s",
      "Ġcon tainer",
      "Ġ\"% \"",
      "Ġmo di",
      "Ġfo ur",
      "nof ail",
      "comple tion",
      "Ġdiffe rent",
      "orizont al",
      "! =",
      "s lirp",
      "v lum",
      "in cr",
      "Ġm arker",
      "frame p",
      "Ġtc p",
      "ci sion",
      "Ġfl v",
      "Ġiov ec",
      "hy per",
      "a ss",
      "w ise",
      "re maining",
      "pr ix",
      "tr ansl",
      "Ġff server",
      "Ġco re",
      "pre diction",
      "Ġhas h",
      "Ġdr iver",
      "scr atch",
      "Ġhap pen",
      "Ġeb ml",
      "j o",
      "m irror",
      "s mb",
      "Ġ( -",
      "Ġs asl",
      "or ts",
      "Ġm is",
      "bu te",
      "Ġcon vert",
      "md ct",
      "cs r",
      "br condi",
      "Ġpos sible",
      "Ġpo ol",
      "abil ity",
      "42 10",
      "requ ency",
      "( -",
      ") -",
      "d printf",
      "e fault",
      "l sb",
      "Ġc lock",
      "Ġav col",
      "Ġ\" );",
      "Ġin et",
      "per formance",
      "dst stride",
      "bus dev",
      "sub band",
      "sy scall",
      "lb a",
      "1 0000",
      "a ded",
      "u uid",
      "Ġi c",
      "en s",
      "Ġf all",
      ")) ,",
      "dev s",
      "Ġin link",
      "Ġde ad",
      "read er",
      "alloc z",
      "Ġwith out",
      "Ġalign ed",
      "Ġpart ition",
      "Ġmultip le",
      "6 0",
      "f m",
      "i bute",
      "m arker",
      "s addr",
      "Ġi ter",
      "Ġav g",
      "Ġm ark",
      "Ġl uma",
      "Ġse e",
      "Ġse l",
      "qu irk",
      "res sive",
      "Ġen abled",
      "pack ssd",
      "ie w",
      "Ġld l",
      "big endian",
      "Ġrai se",
      "packssd w",
      "l j",
      "in line",
      "Ġc x",
      "Ġc ause",
      "Ġa se",
      "ff t",
      "Ġn ut",
      "con tainer",
      "sc ript",
      "src w",
      "filter pos",
      "comp onent",
      "min us",
      "ib m",
      "( __",
      "c at",
      "f loor",
      "l r",
      "t on",
      "Ġ\" /",
      "Ġd yn",
      "av r",
      "ide nt",
      "ol low",
      "Ġx mm",
      "Ġnot hing",
      "ld l",
      "inter val",
      "Ġcomp lete",
      "Ġnv me",
      "e flags",
      "g lyph",
      "u yv",
      "Ġm kv",
      "Ġv mx",
      "mp e",
      "Ġd mv",
      "Ġst w",
      "Ġst uff",
      "ul ated",
      "Ġl pc",
      "ra ise",
      "sh ow",
      "Ġsrc w",
      "Ġcode d",
      "filter s",
      "44 0",
      "Ġoff s",
      "rector y",
      "2 55",
      "5 12",
      "> =",
      "s ce",
      "Ġs core",
      "Ġt ail",
      "Ġav s",
      "Ġd rc",
      "out buf",
      "Ġff abs",
      "nd er",
      "Ġpci device",
      "fl v",
      "Ġab ove",
      "Ġpri u",
      "Ġpend ing",
      "c ert",
      "v reg",
      "re store",
      "re ached",
      "en u",
      "Ġp es",
      "ic ast",
      "Ġd ts",
      "bu cket",
      "Ġu art",
      "Ġx vid",
      "Ġse c",
      "Ġse nse",
      "Ġj ob",
      "Ġfa ctor",
      "mpe genccontext",
      "? ?",
      "n op",
      "er gy",
      "Ġs urface",
      "en coded",
      "Ġt ls",
      "Ġav formatcontext",
      "av x",
      "th ing",
      "il ity",
      "device state",
      "Ġ: :",
      "format ion",
      "fe at",
      "mo di",
      "Ġstream s",
      "Ġpacket s",
      "c x",
      "e ob",
      "n ative",
      "de lete",
      "Ġt pm",
      "le a",
      "Ġn ormal",
      "Ġo hci",
      "ue ss",
      "Ġw ord",
      "Ġfor ce",
      "pa u",
      "mo te",
      "gr ab",
      "Ġcontrol ler",
      "mult i",
      "pri u",
      "p xor",
      "r sp",
      "Ġ4 8",
      "Ġout link",
      "Ġfile s",
      "Ġdir ty",
      "rou ps",
      "fram erate",
      "g olden",
      "h int",
      "h alf",
      "i ble",
      "r ice",
      "x inc",
      "se n",
      "Ġt ab",
      "Ġf r",
      "Ġd own",
      "Ġu hci",
      "Ġex ist",
      "dst h",
      "ert ies",
      "Ġbit rate",
      "inter lace",
      "wr n",
      "c id",
      "en ot",
      "it o",
      "Ġp strc",
      "Ġav discard",
      "el en",
      "Ġv ert",
      "Ġh ls",
      "ac ct",
      "unt il",
      "res ync",
      "save vm",
      "Ġimm edi",
      "Ġrece ived",
      "stri ct",
      "permut ation",
      "lop py",
      ") +",
      "8 8",
      "j ust",
      "l fe",
      "l ambda",
      "o us",
      "t ree",
      "Ġb gr",
      "Ġf loor",
      "ic it",
      "Ġd p",
      "Ġst e",
      "ul ts",
      "Ġo gg",
      "Ġw indow",
      "is o",
      "is hed",
      "ap t",
      "src stride",
      "Ġblock driver",
      "mon o",
      "Ġneed s",
      "lik e",
      "msp el",
      "m enu",
      "p num",
      "in buf",
      "Ġf op",
      "Ġm map",
      "Ġr tl",
      "Ġq decref",
      "as on",
      "Ġarg c",
      "Ġblock dev",
      "tb r",
      "pl us",
      "word s",
      "got i",
      "Ġiscsi lun",
      "Ġapp ly",
      "psrl q",
      "d m",
      "f ac",
      "s lots",
      "Ġav fmt",
      "Ġm mx",
      "Ġn nz",
      "Ġstr ip",
      "Ġ6 3",
      "we en",
      "Ġsy n",
      "Ġev en",
      "ppc state",
      "snapshot s",
      "\" (*",
      "/ /",
      "g db",
      "n ibble",
      "it er",
      "co mpute",
      "um b",
      "us ing",
      "str ip",
      "dex ec",
      "Ġgen er",
      "Ġbe gin",
      "ms mpeg",
      "os ition",
      "Ġpage s",
      "chunk s",
      "delay ed",
      "Ġhp et",
      "5 2",
      "j ump",
      "l inux",
      "le ctor",
      "Ġf ollow",
      "co me",
      "op p",
      "Ġg iv",
      "Ġ\" \",",
      "ex act",
      "ue s",
      "Ġin d",
      "Ġ# %",
      "out puts",
      "nt ax",
      "mem cmp",
      "Ġ: \"",
      "Ġid ct",
      "Ġblk dbg",
      "conv buffer",
      "6 3",
      ": \",",
      "n er",
      "he re",
      "Ġr tc",
      "io cb",
      "Ġ\\ \"",
      "bs wap",
      "low er",
      "decode context",
      "page s",
      "gr p",
      "Ġmov nt",
      "pen dent",
      "vi sion",
      "pri ority",
      "---- ----",
      "Ġigno red",
      "7 6",
      "d flag",
      "t f",
      "Ġ ],",
      "Ġs mb",
      "av c",
      "ss p",
      "mb s",
      "mb ol",
      "Ġse q",
      "Ġk now",
      "]) *",
      "Ġtemp or",
      "inc rement",
      "padd w",
      "mac addr",
      "Ġcoeff s",
      "25 9",
      "alle l",
      "Ġbet ween",
      "Ġproto col",
      "] \"",
      "b t",
      "v ring",
      "v oice",
      "z ag",
      "le ak",
      "Ġp id",
      "Ġg tk",
      "Ġd raw",
      "Ġq pci",
      "ig zag",
      "Ġl p",
      "Ġdst format",
      "uv id",
      "iov ector",
      "ord ing",
      "diction ary",
      "Ġscal er",
      "sty le",
      "' \",",
      "a fter",
      "e ip",
      "w p",
      "st ar",
      "si dual",
      "Ġav c",
      "el p",
      "pe c",
      "Ġr le",
      "Ġh pte",
      "th an",
      "um ent",
      "frame size",
      "ro block",
      "Ġe a",
      "qu ad",
      "vm c",
      "Ġdi scard",
      "Ġdis abled",
      "arm state",
      "initial ized",
      "allow ed",
      "- +",
      "9 7",
      "e red",
      "n ip",
      "Ġ until",
      "Ġs se",
      "Ġa m",
      "or age",
      "Ġb m",
      "Ġm an",
      "Ġv st",
      "av f",
      "Ġl ater",
      "Ġ? ??",
      "vm state",
      "cmp hex",
      "seg v",
      "Ġio req",
      "Ġalloc ated",
      "Ġle ast",
      "reco gn",
      "webso ck",
      "/ (",
      "5 00",
      "d y",
      "m q",
      "en um",
      "Ġa pic",
      "Ġre maining",
      "Ġp lace",
      "al g",
      "un def",
      "mp v",
      "Ġd flag",
      "ma ke",
      "Ġr l",
      "ex pected",
      "Ġq scale",
      "Ġcpu id",
      "and ard",
      "pro m",
      "align ment",
      "rgb a",
      "book e",
      "call back",
      "surface s",
      "enot sup",
      "\" (%",
      "g er",
      "g op",
      "m ant",
      "Ġi ts",
      "Ġs aved",
      "Ġp itch",
      "ate s",
      "ut down",
      "Ġq string",
      "Ġw p",
      "len d",
      "log level",
      "end ptr",
      "bs f",
      "Ġbit stream",
      "mmx ext",
      "cel ls",
      "conne ctor",
      "b v",
      "q list",
      "Ġt ap",
      "co st",
      "Ġg d",
      "Ġv lan",
      "po inter",
      "Ġex pected",
      "20 48",
      "dec or",
      "run ning",
      "vis or",
      "tern ate",
      "single step",
      "Ġspec ific",
      "8 259",
      ": :\"",
      "n pc",
      "s u",
      "re start",
      "re peat",
      "Ġi mp",
      "Ġop p",
      "for ward",
      "Ġcomp at",
      "rt as",
      "') :",
      "over flow",
      "ste ad",
      "exec ute",
      "Ġconne ct",
      "four cc",
      "Ġmig rate",
      "Ġmovnt q",
      "m angle",
      "q object",
      "x p",
      "Ġ/ =",
      "ch s",
      "sh ri",
      "temp late",
      "invalid ate",
      "Ġset ting",
      "du mmy",
      "Ġpo inter",
      "Ġ^ =",
      "ke ys",
      "Ġter m",
      "c q",
      "c reds",
      "f ps",
      "n uma",
      "w mv",
      "Ġs lirp",
      "Ġt m",
      "Ġb in",
      "le ep",
      "co ok",
      "el come",
      "ce il",
      "sc i",
      "sc reen",
      "Ġe very",
      "pre ss",
      "Ġcur sor",
      "sa fe",
      "dx va",
      "Ġother wise",
      "Ġvhd x",
      "Ġvmx net",
      "< =",
      "p lay",
      "v pe",
      "Ġs vga",
      "Ġb ps",
      "lo ss",
      "Ġg lobal",
      "Ġqemu iovector",
      "for ce",
      "Ġarg v",
      "me ssage",
      "rd wr",
      "Ġpro g",
      "queue s",
      "Ġpos ition",
      "Ġpi ix",
      "Ġtable s",
      "machine state",
      "Ġmsi x",
      ") ],",
      "] >>",
      "c re",
      "e st",
      "e pc",
      "t ure",
      "v ps",
      "z rle",
      "Ġre store",
      "et ype",
      "ot ag",
      "pe er",
      "type s",
      "ov erride",
      "Ġco ef",
      "Ġchar driverstate",
      "Ġal t",
      "ld ub",
      "Ġline s",
      "sys mem",
      "prog ressive",
      "tick s",
      "Ġpstrc py",
      "2 7",
      "i mp",
      "n m",
      "p fx",
      "s si",
      "t ol",
      "x ed",
      "en os",
      "ct y",
      "Ġb ank",
      "Ġf c",
      "Ġm r",
      "Ġg ain",
      "Ġv enc",
      "ut f",
      "ps y",
      "Ġ\\ \\",
      "to uv",
      "uint ptr",
      "xf c",
      "Ġmov e",
      "char dev",
      "cor r",
      "virt ual",
      "Ġcond ition",
      "plan ar",
      "\" )));",
      "2 9",
      "b state",
      "f h",
      "h flag",
      "t ce",
      "v iew",
      "Ġs pl",
      "Ġb ro",
      "Ġre port",
      "Ġv ms",
      "Ġv fp",
      "sc hed",
      "Ġcon sumed",
      "sig no",
      "cr n",
      "sw b",
      "Ġrequi red",
      "Ġ!! (",
      "Ġgraph ic",
      "g l",
      "t ached",
      "z stream",
      "Ġre lease",
      "et her",
      "ck er",
      "Ġw ay",
      "Ġin stead",
      "sh li",
      "ip v",
      "Ġen coder",
      "Ġpci e",
      "sy m",
      "wa y",
      "Ġio ctl",
      "__ );",
      "Ġband s",
      "Ġph ysical",
      "Ġsm k",
      "bi as",
      "com ing",
      "bucket s",
      "a head",
      "e si",
      "p fd",
      "p atch",
      "s us",
      "t cr",
      "u le",
      "u buf",
      "x op",
      "re ts",
      "in ation",
      "or a",
      "la ck",
      "Ġin formation",
      "pa s",
      "ps w",
      "Ġl si",
      "block er",
      "count down",
      "Ġun supported",
      "Ġex c",
      "lu ks",
      "Ġbe low",
      "Ġcomp le",
      "Ġass ume",
      "che s",
      "Ġste reo",
      "b id",
      "m ot",
      "u d",
      "v addr",
      "Ġ eth",
      "Ġi ch",
      "on ito",
      "Ġm s",
      "Ġg nut",
      "Ġ\" #",
      "mp pc",
      "lu sive",
      "cr m",
      "Ġbs wap",
      "chr toyv",
      "== ==",
      "Ġptr diff",
      "Ġdrive info",
      "Ġ(; ;)",
      "Ġresp onse",
      "Ġgnut ls",
      "0 5",
      "b al",
      "e ac",
      "h b",
      "n nz",
      "s regs",
      "in cts",
      "Ġa hci",
      "Ġav dictionary",
      "el ist",
      "Ġh alf",
      "reg info",
      "offset of",
      "sh r",
      "add ing",
      "sl b",
      "qemu file",
      "Ġread ing",
      "gp f",
      "sd l",
      "Ġinter face",
      "cl ut",
      "Ġprop erty",
      "dim ensions",
      "Ġcompres sed",
      "h ttp",
      "st ctl",
      "Ġc rc",
      "Ġs sd",
      "Ġs dram",
      "Ġd text",
      "if ormat",
      "Ġar ith",
      "Ġe mpty",
      "Ġen s",
      "Ġpre diction",
      "back ward",
      "fr ont",
      "rep lace",
      "Ġcle anup",
      "oth read",
      "Ġspl it",
      "e again",
      "i eld",
      "m map",
      "Ġ like",
      "de nd",
      "Ġs f",
      "Ġb mv",
      "Ġm ot",
      "ul ation",
      "Ġcon t",
      "ps ll",
      "Ġop tim",
      "Ġqemu opts",
      "ne ss",
      "line s",
      "Ġtr k",
      "ser vice",
      "pos ition",
      "Ġcur r",
      "disp osition",
      "(! (",
      "55 5",
      "Ġdir ac",
      "over lay",
      "Ġme dia",
      "nv enc",
      "Ġfe ed",
      "Ġimplement ation",
      "Ġcalc ulate",
      "c hed",
      "h al",
      "p attern",
      "q io",
      "w elcome",
      "Ġ let",
      "Ġ layout",
      "Ġi vi",
      "Ġre ject",
      "Ġp op",
      "Ġm issing",
      "Ġd id",
      "tr c",
      "con dexec",
      "pi pe",
      "Ġstr to",
      "es pec",
      "Ġpro be",
      "Ġspe ed",
      "Ġme ans",
      "sec ure",
      "Ġke ep",
      "Ġvmd k",
      "patch welcome",
      "Ġens ure",
      "e a",
      "f amily",
      "i id",
      "s lave",
      "Ġv ring",
      "Ġcon f",
      "ge otag",
      "Ġis n",
      "Ġx c",
      "load er",
      "cb pc",
      "comp no",
      "Ġbdrv qcow",
      "region s",
      "hw ctx",
      "yuv a",
      "ler ate",
      "request ed",
      "exp and",
      "Ġ$ \"",
      "va api",
      "power pc",
      "Ġfun cc",
      "fm ts",
      "* )(",
      "c ity",
      "o red",
      "v di",
      "Ġc sr",
      "Ġp attern",
      "ad t",
      "Ġv src",
      "Ġn d",
      "Ġd y",
      "io mem",
      "pa city",
      "alloc ation",
      "sub sample",
      "vm x",
      "fs r",
      "extr act",
      "Ġcomp onent",
      "Ġsd hc",
      "Ġmov ie",
      "Ġconne ction",
      "Ġfrag ment",
      "srs conf",
      "[ ((",
      "d uct",
      "i zer",
      "m ch",
      "p in",
      "v sid",
      "de red",
      "Ġf if",
      "it ask",
      "Ġp e",
      "Ġp ng",
      "si x",
      "con n",
      "Ġ% #",
      "Ġl u",
      "iv i",
      "ext end",
      "sh l",
      "sh ared",
      "Ġ3 6",
      "buffer ref",
      "pre set",
      "sy mbol",
      "lc d",
      "errup ts",
      "uff ix",
      "nv ram",
      "Ġfo oter",
      "mi sc",
      "] ){",
      "a hci",
      "q a",
      "ic y",
      "Ġd ither",
      "bu tt",
      "pa re",
      "th is",
      "and om",
      "Ġis o",
      "init y",
      "Ġsrc format",
      "Ġwh at",
      "chr on",
      "seg s",
      "Ġsub title",
      "event fd",
      "attr s",
      "row s",
      "Ġlo ok",
      "virt queue",
      "mar sh",
      "l z",
      "n an",
      "Ġc g",
      "Ġs g",
      "Ġs oft",
      "Ġt t",
      "Ġt len",
      "Ġp adding",
      "Ġm jpeg",
      "Ġw v",
      "ps d",
      "out link",
      "desc r",
      "Ġsig set",
      "Ġrgb a",
      "spec ific",
      "Ġind ic",
      "butt on",
      "g pu",
      "k b",
      "l sock",
      "m kv",
      "p f",
      "Ġf etch",
      "bu ff",
      "tr k",
      "Ġq virtio",
      "Ġis lit",
      "(\" \\",
      "Ġk v",
      "filter code",
      "ser ted",
      "inter face",
      "opt ind",
      "Ġslice s",
      "Ġrequest ed",
      "b f",
      "q int",
      "z igzag",
      "Ġ endian",
      "re mote",
      "in str",
      "Ġf ram",
      "Ġm t",
      "Ġd u",
      "Ġr tmp",
      "str start",
      "ra ck",
      "init ion",
      "Ġe ither",
      "header s",
      "Ġpa rent",
      "cc w",
      "56 5",
      "request s",
      "Ġdr op",
      "Ġext ension",
      "elem ent",
      "Ġcl ut",
      "Ġwrit ten",
      "samp ling",
      "Ġfeature s",
      "-+ -+",
      "q bus",
      "t arg",
      "in link",
      "at ial",
      "Ġt v",
      "int eger",
      "Ġf li",
      "Ġp m",
      "id le",
      "Ġm pc",
      "Ġg id",
      "ur ing",
      "Ġr ce",
      "Ġw here",
      "ss se",
      "Ġff align",
      "Ġx er",
      "Ġe of",
      "Ġne ver",
      "be fore",
      "Ġpci bus",
      "Ġbuffer s",
      "reset value",
      "Ġchan ged",
      "var i",
      "rou te",
      "prec incts",
      "Ġvirt queue",
      "compat ible",
      "Ġdb dma",
      "Ġactual ly",
      "(; ;)",
      "interle aved",
      "decor r",
      "Ġfif o",
      "5 9",
      "t ight",
      "v cpu",
      "x vid",
      "re size",
      "re sid",
      "st h",
      "Ġc re",
      "am ask",
      "ar ound",
      "Ġ\" -",
      "ed ata",
      "str a",
      "ig ger",
      "Ġl v",
      "ol ution",
      "end point",
      "red p",
      "Ġpro vide",
      "color space",
      "scal ing",
      "a f",
      "f pe",
      "v md",
      "x m",
      "x tensa",
      "Ġav picture",
      "an al",
      "pa sses",
      "sc sw",
      "ac l",
      "ne goti",
      "mv d",
      "Ġblock size",
      "bus y",
      "bo x",
      "prop erties",
      "br cond",
      "seg ments",
      "pect r",
      "26 1",
      "pass word",
      "Ġexec ution",
      "Ġsmb ios",
      "4 00",
      "8 3",
      ": \\",
      "b mds",
      "q test",
      "Ġ ]=",
      "id ate",
      "fo oter",
      "device s",
      "Ġj mp",
      "Ġj ump",
      "Ġstr chr",
      "Ġstr tol",
      "write v",
      "me an",
      "Ġdef ine",
      "gr anularity",
      "edge v",
      "Ġcomm on",
      "group list",
      "watch point",
      "f un",
      "p it",
      "s dp",
      "t id",
      "v msd",
      "Ġ layer",
      "Ġb oth",
      "Ġf fio",
      "lo on",
      "an ts",
      "an ted",
      "get time",
      "Ġq test",
      "dst block",
      "Ġ6 0",
      "object class",
      "rip tion",
      "vd pau",
      "Ġnode s",
      "rn g",
      "Ġvar i",
      "Ġinc lu",
      "Ġatom ic",
      "c flags",
      "d now",
      "f u",
      "p g",
      "p fl",
      "p flash",
      "re x",
      "Ġp error",
      "al en",
      "ase s",
      "Ġcase s",
      "Ġ. .",
      "ft ell",
      "do g",
      "do main",
      "Ġbo ard",
      "link er",
      "Ġtra p",
      "comm it",
      "Ġfield s",
      "Ġcoeff ic",
      "prim aries",
      "esc ape",
      "139 4",
      "recogn ition",
      "c ard",
      "h pte",
      "l ut",
      "p io",
      "v ms",
      "v olatile",
      "Ġs of",
      "int el",
      "am elen",
      "Ġp cr",
      "id sp",
      "Ġn and",
      "Ġint r",
      "Ġin s",
      "ac c",
      "fa ults",
      "Ġe st",
      "Ġdst h",
      "config uration",
      "Ġpar ser",
      "timer s",
      "Ġdevice class",
      "Ġinter nal",
      "padd usb",
      "tile s",
      "Ġvm cb",
      "Ġld q",
      "with in",
      "soft mmu",
      "break point",
      "Ġwr ong",
      "Ġfid p",
      "Ġmis match",
      "targ phys",
      "- =",
      "s qrt",
      "w c",
      "er and",
      "Ġre ason",
      "Ġst q",
      "tr ail",
      "Ġ2 6",
      "Ġ2 7",
      "Ġde n",
      "sp ice",
      "po se",
      "Ġchar dev",
      "Ġ' :",
      "Ġio mem",
      "Ġcmd line",
      "handler s",
      "socket address",
      "Ġnv ram",
      "Ġuv src",
      "Ġbad frame",
      "Ġallow ed",
      "exc lusive",
      "inst ance",
      "sth rough",
      "c uvid",
      "i othread",
      "m issing",
      "s mp",
      "u valpha",
      "in ner",
      "Ġc u",
      "Ġc psr",
      "Ġb ottom",
      "lo cty",
      "Ġre l",
      "Ġp in",
      "Ġm ight",
      "Ġst ill",
      "ab ly",
      "Ġsi mp",
      "str to",
      "ter min",
      "sp lat",
      "Ġse i",
      "Ġse cs",
      "base dev",
      "Ġcode s",
      "Ġma in",
      "Ġso met",
      "xff fc",
      "Ġau d",
      "fr ac",
      "Ġinter laced",
      "ical ly",
      "speci fied",
      ") <<",
      "f sp",
      "p refetch",
      "q c",
      "q string",
      "z lib",
      "Ġc tr",
      "Ġs z",
      "id s",
      "te ction",
      "un ce",
      "Ġo k",
      "av i",
      "Ġh uff",
      "ge o",
      "pix buf",
      "Ġwh ole",
      "Ġfil m",
      "Ġ** )&",
      "Ġcomp no",
      "Ġuse s",
      "Ġcurrent ly",
      "non block",
      "Ġparam s",
      "fli p",
      "marsh al",
      "Ġdu mmy",
      "= \"",
      "[ %",
      "b x",
      "p x",
      "p el",
      "p vr",
      "t as",
      "v op",
      "Ġs vm",
      "Ġt ak",
      "Ġt tbr",
      "co dsty",
      "ad st",
      "Ġm erge",
      "Ġ\" +",
      "un ion",
      "pr m",
      "io context",
      "ab ove",
      "arg c",
      "Ġy scale",
      "Ġmax imum",
      "col um",
      "Ġdis able",
      "medi ate",
      "Ġhand led",
      "div x",
      "reslevel no",
      "ces sed",
      "Ġimmedi ate",
      "d h",
      "g fx",
      "h ls",
      "i h",
      "m add",
      "q td",
      "v io",
      "v net",
      "re nc",
      "Ġc and",
      "or dered",
      "Ġp ush",
      "co lo",
      "Ġ\" <",
      "fi s",
      "reg bp",
      "md ma",
      "Ġma ster",
      "Ġpr im",
      "ev t",
      "Ġcomp are",
      "sd t",
      "Ġcorrect ed",
      "Ġgo od",
      "adc ast",
      "negoti ate",
      "Ġiomem type",
      "a es",
      "d py",
      "re vision",
      "re sidual",
      "Ġ0 0",
      "Ġb x",
      "Ġn op",
      "un der",
      "ate gy",
      "get length",
      "Ġh d",
      "sc f",
      "cpu armstate",
      "ac cept",
      "sh are",
      "sh utdown",
      "init fn",
      "for ced",
      "ph dr",
      "Ġerror s",
      "Ġ6 55",
      "Ġ~ ((",
      "edge h",
      "prev ious",
      "iz ing",
      "Ġorig in",
      "second ary",
      "chapter s",
      "sist ent",
      "b n",
      "h o",
      "l in",
      "n orm",
      "p v",
      "v basedev",
      "Ġt p",
      "Ġb onito",
      "Ġf t",
      "Ġp rom",
      "Ġn one",
      "Ġd uring",
      "pc ms",
      "Ġl s",
      "read b",
      "bs ub",
      "format s",
      "hw def",
      "medi um",
      "vq s",
      "Ġcall back",
      "Ġmet hod",
      "cy cle",
      "Ġfin al",
      "scal er",
      "lav io",
      "deblock ing",
      "m ark",
      "o streams",
      "o hci",
      "r addr",
      "st orage",
      "se m",
      "Ġc vt",
      "Ġt printf",
      "ct r",
      "Ġb nd",
      "Ġp as",
      "Ġv ia",
      "Ġ1 000000",
      "set size",
      "av codec",
      "ata pi",
      "Ġw in",
      "Ġsi mple",
      "is r",
      "Ġde tect",
      "out picref",
      "pro tect",
      "fl tp",
      "quant ize",
      "Ġalloc ation",
      "ren try",
      "Ġro ot",
      "trunc ate",
      "Ġ40 96",
      "sche dule",
      "psll q",
      "b si",
      "f mul",
      "q sv",
      "re order",
      "in coming",
      "de pendent",
      "Ġs x",
      "it s",
      "ot her",
      "fi er",
      "em ent",
      "add l",
      "Ġex ynos",
      "Ġsrc slice",
      "Ġ' /",
      "sy ntax",
      "ft p",
      "Ġat oi",
      "Ġconfig uration",
      "Ġev ents",
      "Ġme an",
      "Ġme ssage",
      "Ġlow pass",
      "Ġpass word",
      "samp lerate",
      "enos ys",
      "Ġkv mppc",
      "0 10",
      "7 7",
      "e val",
      "f stat",
      "i ops",
      "q t",
      "q iv",
      "s low",
      "Ġs now",
      "Ġf ps",
      "Ġf mov",
      "am l",
[...]
