{
  "version": "1.0",
  "truncation": null,
  "padding": null,
  "added_tokens": [
    {
      "id": 0,
      "content": "<s>",
      "single_word": false,
      "lstrip": false,
      "rstrip": false,
      "normalized": false,
      "special": true
    },
    {
      "id": 1,
      "content": "<pad>",
      "single_word": false,
      "lstrip": false,
      "rstrip": false,
      "normalized": false,
      "special": true
    },
    {
      "id": 2,
      "content": "</s>",
      "single_word": false,
      "lstrip": false,
      "rstrip": false,
      "normalized": false,
      "special": true
    },
    {
      "id": 3,
      "content": "<unk>",
      "single_word": false,
      "lstrip": false,
      "rstrip": false,
      "normalized": false,
      "special": true
    }
  ],
  "normalizer": {
    "type": "Lowercase"
  },
  "pre_tokenizer": {
    "type": "ByteLevel",
    "add_prefix_space": true,
    "trim_offsets": true,
    "use_regex": true
  },
  "post_processor": {
    "type": "ByteLevel",
    "add_prefix_space": true,
    "trim_offsets": true,
    "use_regex": true
  },
  "decoder": {
    "type": "ByteLevel",
    "add_prefix_space": true,
    "trim_offsets": true,
    "use_regex": true
  },
  "model": {
    "type": "BPE",
    "dropout": null,
    "unk_token": "<unk>",
    "continuing_subword_prefix": null,
    "end_of_word_suffix": null,
    "fuse_unk": false,
    "vocab": {
      "<s>": 0,
      "<pad>": 1,
      "</s>": 2,
      "<unk>": 3,
      "!": 4,
      "\"": 5,
      "#": 6,
      "$": 7,
      "%": 8,
      "&": 9,
      "'": 10,
      "(": 11,
      ")": 12,
      "*": 13,
      "+": 14,
      ",": 15,
      "-": 16,
      ".": 17,
      "/": 18,
      "0": 19,
      "1": 20,
      "2": 21,
      "3": 22,
      "4": 23,
      "5": 24,
      "6": 25,
      "7": 26,
      "8": 27,
      "9": 28,
      ":": 29,
      ";": 30,
      "<": 31,
      "=": 32,
      ">": 33,
      "?": 34,
      "@": 35,
      "A": 36,
      "B": 37,
      "C": 38,
      "D": 39,
      "E": 40,
      "F": 41,
      "G": 42,
      "H": 43,
      "I": 44,
      "J": 45,
      "K": 46,
      "L": 47,
      "M": 48,
      "N": 49,
      "O": 50,
      "P": 51,
      "Q": 52,
      "R": 53,
      "S": 54,
      "T": 55,
      "U": 56,
      "V": 57,
      "W": 58,
      "X": 59,
      "Y": 60,
      "Z": 61,
      "[": 62,
      "\\": 63,
      "]": 64,
      "^": 65,
      "_": 66,
      "`": 67,
      "a": 68,
      "b": 69,
      "c": 70,
      "d": 71,
      "e": 72,
      "f": 73,
      "g": 74,
      "h": 75,
      "i": 76,
      "j": 77,
      "k": 78,
      "l": 79,
      "m": 80,
      "n": 81,
      "o": 82,
      "p": 83,
      "q": 84,
      "r": 85,
      "s": 86,
      "t": 87,
      "u": 88,
      "v": 89,
      "w": 90,
      "x": 91,
      "y": 92,
      "z": 93,
      "{": 94,
      "|": 95,
      "}": 96,
      "~": 97,
      "¡": 98,
      "¢": 99,
      "£": 100,
      "¤": 101,
      "¥": 102,
      "¦": 103,
      "§": 104,
      "¨": 105,
      "©": 106,
      "ª": 107,
      "«": 108,
      "¬": 109,
      "®": 110,
      "¯": 111,
      "°": 112,
      "±": 113,
      "²": 114,
      "³": 115,
      "´": 116,
      "µ": 117,
      "¶": 118,
      "·": 119,
      "¸": 120,
      "¹": 121,
      "º": 122,
      "»": 123,
      "¼": 124,
      "½": 125,
      "¾": 126,
      "¿": 127,
      "À": 128,
      "Á": 129,
      "Â": 130,
      "Ã": 131,
      "Ä": 132,
      "Å": 133,
      "Æ": 134,
      "Ç": 135,
      "È": 136,
      "É": 137,
      "Ê": 138,
      "Ë": 139,
      "Ì": 140,
      "Í": 141,
      "Î": 142,
      "Ï": 143,
      "Ð": 144,
      "Ñ": 145,
      "Ò": 146,
      "Ó": 147,
      "Ô": 148,
      "Õ": 149,
      "Ö": 150,
      "×": 151,
      "Ø": 152,
      "Ù": 153,
      "Ú": 154,
      "Û": 155,
      "Ü": 156,
      "Ý": 157,
      "Þ": 158,
      "ß": 159,
      "à": 160,
      "á": 161,
      "â": 162,
      "ã": 163,
      "ä": 164,
      "å": 165,
      "æ": 166,
      "ç": 167,
      "è": 168,
      "é": 169,
      "ê": 170,
      "ë": 171,
      "ì": 172,
      "í": 173,
      "î": 174,
      "ï": 175,
      "ð": 176,
      "ñ": 177,
      "ò": 178,
      "ó": 179,
      "ô": 180,
      "õ": 181,
      "ö": 182,
      "÷": 183,
      "ø": 184,
      "ù": 185,
      "ú": 186,
      "û": 187,
      "ü": 188,
      "ý": 189,
      "þ": 190,
      "ÿ": 191,
      "Ā": 192,
      "ā": 193,
      "Ă": 194,
      "ă": 195,
      "Ą": 196,
      "ą": 197,
      "Ć": 198,
      "ć": 199,
      "Ĉ": 200,
      "ĉ": 201,
      "Ċ": 202,
      "ċ": 203,
      "Č": 204,
      "č": 205,
      "Ď": 206,
      "ď": 207,
      "Đ": 208,
      "đ": 209,
      "Ē": 210,
      "ē": 211,
      "Ĕ": 212,
      "ĕ": 213,
      "Ė": 214,
      "ė": 215,
      "Ę": 216,
      "ę": 217,
      "Ě": 218,
      "ě": 219,
      "Ĝ": 220,
      "ĝ": 221,
      "Ğ": 222,
      "ğ": 223,
      "Ġ": 224,
      "ġ": 225,
      "Ģ": 226,
      "ģ": 227,
      "Ĥ": 228,
      "ĥ": 229,
      "Ħ": 230,
      "ħ": 231,
      "Ĩ": 232,
      "ĩ": 233,
      "Ī": 234,
      "ī": 235,
      "Ĭ": 236,
      "ĭ": 237,
      "Į": 238,
      "į": 239,
      "İ": 240,
      "ı": 241,
      "Ĳ": 242,
      "ĳ": 243,
      "Ĵ": 244,
      "ĵ": 245,
      "Ķ": 246,
      "ķ": 247,
      "ĸ": 248,
      "Ĺ": 249,
      "ĺ": 250,
      "Ļ": 251,
      "ļ": 252,
      "Ľ": 253,
      "ľ": 254,
      "Ŀ": 255,
      "ŀ": 256,
      "Ł": 257,
      "ł": 258,
      "Ń": 259,
      "in": 260,
      "st": 261,
      ");": 262,
      "re": 263,
      "le": 264,
      "on": 265,
      "te": 266,
      "Ġ=": 267,
      "ut": 268,
      "ge": 269,
      "se": 270,
      "fi": 271,
      "ne": 272,
      "Ġ{": 273,
      "Ġ}": 274,
      "ti": 275,
      "file": 276,
      "rea": 277,
      "er": 278,
      "me": 279,
      "Ġ(": 280,
      "ce": 281,
      "Ġi": 282,
      "get": 283,
      "at": 284,
      "rin": 285,
      "tion": 286,
      "or": 287,
      "()": 288,
      "Ġc": 289,
      "();": 290,
      "new": 291,
      "ur": 292,
      "Ġt": 293,
      "out": 294,
      "al": 295,
      "Ġ\"": 296,
      "de": 297,
      "put": 298,
      "ar": 299,
      "ring": 300,
      "string": 301,
      "Ġ+": 302,
      "(\"": 303,
      "ch": 304,
      "an": 305,
      "ro": 306,
      "Ġe": 307,
      "Ġnew": 308,
      "Ġp": 309,
      "lo": 310,
      "strea": 311,
      "stream": 312,
      "nt": 313,
      "Ġfile": 314,
      "Ġb": 315,
      "Ġin": 316,
      "ri": 317,
      "ul": 318,
      "Ġf": 319,
      "Ġn": 320,
      "Ġs": 321,
      "ption": 322,
      "putstream": 323,
      "Ġif": 324,
      "ss": 325,
      "xce": 326,
      "xception": 327,
      "di": 328,
      "co": 329,
      "read": 330,
      "ame": 331,
      "Ġre": 332,
      "ull": 333,
      "li": 334,
      "con": 335,
      "\");": 336,
      "Ġstring": 337,
      "url": 338,
      "ry": 339,
      "Ġnull": 340,
      "pe": 341,
      "Ġd": 342,
      "ate": 343,
      "th": 344,
      "name": 345,
      "set": 346,
      "Ġout": 347,
      "id": 348,
      "ue": 349,
      "age": 350,
      "uf": 351,
      "mp": 352,
      "ad": 353,
      "wri": 354,
      "to": 355,
      "exception": 356,
      "yte": 357,
      "ct": 358,
      "Ġth": 359,
      "write": 360,
      "ser": 361,
      "atch": 362,
      "());": 363,
      "Ġm": 364,
      "Ġ0": 365,
      "ra": 366,
      "Ġtry": 367,
      "uff": 368,
      "la": 369,
      "));": 370,
      "row": 371,
      "Ġcatch": 372,
      "ta": 373,
      "lose": 374,
      "il": 375,
      "len": 376,
      "close": 377,
      "ty": 378,
      "Ġcon": 379,
      "Ġurl": 380,
      "ub": 381,
      "si": 382,
      "ction": 383,
      "sp": 384,
      "rint": 385,
      "Ġthrow": 386,
      "ap": 387,
      "Ġ!": 388,
      "up": 389,
      "Ġst": 390,
      "inputstream": 391,
      "so": 392,
      "tp": 393,
      "ata": 394,
      "Ġv": 395,
      "outputstream": 396,
      "print": 397,
      "Ġ!=": 398,
      "log": 399,
      "lin": 400,
      "ck": 401,
      "em": 402,
      "is": 403,
      "nel": 404,
      "Ġh": 405,
      "ing": 406,
      "Ġret": 407,
      "chan": 408,
      "))": 409,
      "ment": 410,
      "un": 411,
      "().": 412,
      "urce": 413,
      "urn": 414,
      "\",": 415,
      "as": 416,
      "Ġreturn": 417,
      "channel": 418,
      "reader": 419,
      "inal": 420,
      "ex": 421,
      "red": 422,
      "oexception": 423,
      "ath": 424,
      "Ġw": 425,
      "yst": 426,
      "ter": 427,
      "mess": 428,
      "err": 429,
      "xt": 430,
      "line": 431,
      "())": 432,
      "message": 433,
      "lic": 434,
      "Ġj": 435,
      "int": 436,
      "ve": 437,
      "pen": 438,
      "Ġbyte": 439,
      "par": 440,
      "qu": 441,
      "ystem": 442,
      "nection": 443,
      "Ġbuff": 444,
      "Ġde": 445,
      "byte": 446,
      "pro": 447,
      "ation": 448,
      "os": 449,
      "ttp": 450,
      "ublic": 451,
      "Ġfinal": 452,
      "gest": 453,
      "Ġsystem": 454,
      "pa": 455,
      "Ġpublic": 456,
      "data": 457,
      "leng": 458,
      "digest": 459,
      "Ġint": 460,
      "length": 461,
      "ver": 462,
      "ln": 463,
      "ble": 464,
      "en": 465,
      "path": 466,
      "error": 467,
      "ot": 468,
      "date": 469,
      "bu": 470,
      "source": 471,
      "Ġco": 472,
      "println": 473,
      "fo": 474,
      "[]": 475,
      "ile": 476,
      "do": 477,
      "ered": 478,
      "ze": 479,
      "for": 480,
      "Ġ1": 481,
      "que": 482,
      "um": 483,
      "Ġel": 484,
      "val": 485,
      "Ġelse": 486,
      "Ġlog": 487,
      "per": 488,
      "fa": 489,
      "it": 490,
      "Ġ-": 491,
      "list": 492,
      "Ġo": 493,
      "type": 494,
      "ger": 495,
      "ctor": 496,
      "mo": 497,
      "Ġex": 498,
      "Ġvo": 499,
      "Ġbuffered": 500,
      "buff": 501,
      "Ġfor": 502,
      "Ġ==": 503,
      "ent": 504,
      "lass": 505,
      "Ġwh": 506,
      "Ġvoid": 507,
      "py": 508,
      "Ġthrows": 509,
      "spon": 510,
      "gs": 511,
      "stan": 512,
      "sponse": 513,
      "cu": 514,
      "connection": 515,
      "quest": 516,
      ").": 517,
      "ly": 518,
      "ip": 519,
      "ack": 520,
      "writer": 521,
      "add": 522,
      "us": 523,
      "oo": 524,
      "Ġa": 525,
      "tent": 526,
      "Ġfileoutputstream": 527,
      "code": 528,
      "update": 529,
      "dir": 530,
      "ase": 531,
      "ult": 532,
      "rc": 533,
      "der": 534,
      "\\\"": 535,
      "tr": 536,
      "vi": 537,
      "text": 538,
      "Ġ>": 539,
      "buffer": 540,
      "Ġinputstream": 541,
      "and": 542,
      "el": 543,
      "av": 544,
      "ray": 545,
      "array": 546,
      "Ġwhile": 547,
      "ml": 548,
      "je": 549,
      "Ġr": 550,
      "Ġfileinputstream": 551,
      "es": 552,
      "stance": 553,
      "ctory": 554,
      "tic": 555,
      "Ġto": 556,
      "value": 557,
      "Ġ<": 558,
      "alse": 559,
      "ils": 560,
      "wor": 561,
      "Ġdo": 562,
      "Ġpro": 563,
      "of": 564,
      "tostring": 565,
      "time": 566,
      "ke": 567,
      "\";": 568,
      "ava": 569,
      "Ġmd": 570,
      "(),": 571,
      "ioexception": 572,
      "size": 573,
      "Ġioexception": 574,
      "Ġsta": 575,
      "form": 576,
      "rom": 577,
      "no": 578,
      "class": 579,
      "qual": 580,
      "he": 581,
      "Ġmessage": 582,
      "ject": 583,
      "bytes": 584,
      "instance": 585,
      "pend": 586,
      "Ġ(!": 587,
      "load": 588,
      "ith": 589,
      "mage": 590,
      "append": 591,
      "Ġstatic": 592,
      "Ġhttp": 593,
      "tra": 594,
      "sult": 595,
      "Ġ((": 596,
      "rent": 597,
      "dex": 598,
      "00": 599,
      "ho": 600,
      "Ġ&": 601,
      "Ġds": 602,
      "Ġget": 603,
      "ist": 604,
      "user": 605,
      "temp": 606,
      "Ġdest": 607,
      "Ġz": 608,
      "able": 609,
      "ted": 610,
      "];": 611,
      "unt": 612,
      "==": 613,
      "Ġis": 614,
      "++": 615,
      "loc": 616,
      "request": 617,
      "Ġso": 618,
      "Ġtr": 619,
      "Ġfinally": 620,
      "</": 621,
      "uid": 622,
      "ds": 623,
      "io": 624,
      "ort": 625,
      "reate": 626,
      "quals": 627,
      "trace": 628,
      "lean": 629,
      "Ġg": 630,
      "am": 631,
      "open": 632,
      "xml": 633,
      "copy": 634,
      "content": 635,
      "ed": 636,
      "\"))": 637,
      "com": 638,
      "oolean": 639,
      "tri": 640,
      "dire": 641,
      "filename": 642,
      "tags": 643,
      "Ġse": 644,
      "\")": 645,
      "Ġmessagedigest": 646,
      "ma": 647,
      "Ġfalse": 648,
      "key": 649,
      "index": 650,
      "stack": 651,
      "http": 652,
      "po": 653,
      "Ġread": 654,
      "ash": 655,
      "Ġl": 656,
      "pre": 657,
      "dest": 658,
      "od": 659,
      "cess": 660,
      "state": 661,
      "Ġen": 662,
      "stacktrace": 663,
      "art": 664,
      "word": 665,
      "Ġboolean": 666,
      "response": 667,
      "Ġdata": 668,
      "printstacktrace": 669,
      "..": 670,
      "ig": 671,
      "ong": 672,
      "Ġbufferedreader": 673,
      "Ġdc": 674,
      "lu": 675,
      "Ġconn": 676,
      "info": 677,
      "lement": 678,
      "proper": 679,
      "Ġsource": 680,
      "lient": 681,
      "sc": 682,
      "bject": 683,
      "ator": 684,
      "--": 685,
      "ans": 686,
      "md": 687,
      "directory": 688,
      "equals": 689,
      "Ġ&&": 690,
      "ion": 691,
      "count": 692,
      "getname": 693,
      "sion": 694,
      "Ġsrc": 695,
      "mt": 696,
      "str": 697,
      "ader": 698,
      "arser": 699,
      "((": 700,
      "ssword": 701,
      "\"));": 702,
      "Ġconnection": 703,
      "Ġtrue": 704,
      "gor": 705,
      "ber": 706,
      "Ġjava": 707,
      "outils": 708,
      "ination": 709,
      "create": 710,
      "Ġresponse": 711,
      "><": 712,
      "ntry": 713,
      "lete": 714,
      "riv": 715,
      "sh": 716,
      "Ġnot": 717,
      "Ġresult": 718,
      "getinstance": 719,
      "map": 720,
      "ecu": 721,
      "Ġioutils": 722,
      "tain": 723,
      "getchannel": 724,
      "ecute": 725,
      "¿½": 726,
      "ï¿½": 727,
      "ix": 728,
      "getbytes": 729,
      "Ġthis": 730,
      "rivate": 731,
      "resource": 732,
      "atus": 733,
      "teger": 734,
      "Ġfi": 735,
      "Ġline": 736,
      "next": 737,
      "Ġlogger": 738,
      "Ġch": 739,
      "Ġprivate": 740,
      "num": 741,
      "format": 742,
      "++)": 743,
      "sq": 744,
      "Ġ|": 745,
      "bo": 746,
      "Ġ:": 747,
      "buil": 748,
      "ten": 749,
      "pt": 750,
      "ixel": 751,
      "ists": 752,
      "mparser": 753,
      "sub": 754,
      "Ġcopy": 755,
      "input": 756,
      "men": 757,
      "statement": 758,
      "let": 759,
      "Ġinput": 760,
      "comm": 761,
      "Ġfrom": 762,
      "bug": 763,
      "test": 764,
      "che": 765,
      "src": 766,
      "Ġfilechannel": 767,
      "execute": 768,
      "uri": 769,
      "Ġexception": 770,
      "param": 771,
      "client": 772,
      "ht": 773,
      "property": 774,
      "xlen": 775,
      "ixeldata": 776,
      "meth": 777,
      "uc": 778,
      "fl": 779,
      "Ġ'": 780,
      "ca": 781,
      "ress": 782,
      "Ġpa": 783,
      "lexception": 784,
      "not": 785,
      "und": 786,
      "Ġoutput": 787,
      "et": 788,
      "Ġx": 789,
      "tem": 790,
      "exists": 791,
      "comp": 792,
      "ler": 793,
      "output": 794,
      "rep": 795,
      "fig": 796,
      "contain": 797,
      "base": 798,
      "sto": 799,
      "vice": 800,
      "arget": 801,
      "Ġdcmparser": 802,
      "cument": 803,
      "from": 804,
      "tity": 805,
      "Ġ||": 806,
      "ac": 807,
      "ameter": 808,
      "urrent": 809,
      "Ġbuffer": 810,
      "sert": 811,
      "server": 812,
      "serv": 813,
      "dc": 814,
      "method": 815,
      "sa": 816,
      "getmessage": 817,
      "all": 818,
      "Ġar": 819,
      "Ġzip": 820,
      "Ġstringbuffer": 821,
      "zip": 822,
      "header": 823,
      "trans": 824,
      "table": 825,
      "algor": 826,
      "ure": 827,
      "Ġname": 828,
      "Ġpre": 829,
      "Ġdi": 830,
      "algorith": 831,
      "Ġreader": 832,
      "true": 833,
      "cted": 834,
      "Ġoutputstream": 835,
      ".\");": 836,
      "last": 837,
      "ties": 838,
      "substring": 839,
      "Ġrequest": 840,
      "Ġimage": 841,
      "cod": 842,
      "parse": 843,
      "readline": 844,
      "with": 845,
      "Ġ*": 846,
      "Ġtemp": 847,
      "Ġno": 848,
      "start": 849,
      "qui": 850,
      "Ġval": 851,
      "()));": 852,
      "ff": 853,
      "ab": 854,
      "ner": 855,
      "Ġerror": 856,
      "files": 857,
      "Ġinputstreamreader": 858,
      "====": 859,
      "Ġas": 860,
      "quer": 861,
      "Ġlong": 862,
      "wn": 863,
      "debug": 864,
      "ize": 865,
      "contains": 866,
      "entry": 867,
      "buf": 868,
      "Ġ2": 869,
      "conn": 870,
      "null": 871,
      "query": 872,
      "ken": 873,
      "Ġsb": 874,
      "col": 875,
      "ssion": 876,
      "Ġps": 877,
      "son": 878,
      "Ġlist": 879,
      "number": 880,
      "servlet": 881,
      "Ġpst": 882,
      "ew": 883,
      "image": 884,
      "can": 885,
      "use": 886,
      "Ġfos": 887,
      "status": 888,
      "factory": 889,
      "Ġ>>": 890,
      "ph": 891,
      "this": 892,
      "openstream": 893,
      "ere": 894,
      "Ġdestination": 895,
      "parameter": 896,
      "Ġfilename": 897,
      "db": 898,
      "app": 899,
      "urlconnection": 900,
      "fer": 901,
      "delete": 902,
      "dexception": 903,
      "rol": 904,
      "Ġclass": 905,
      "utils": 906,
      "password": 907,
      "scri": 908,
      "gin": 909,
      "ï¿½ï¿½": 910,
      "Ġdigest": 911,
      "ok": 912,
      "result": 913,
      "context": 914,
      "Ġhash": 915,
      "uccess": 916,
      "##": 917,
      "Ġsq": 918,
      "back": 919,
      "mi": 920,
      "Ġwriter": 921,
      "vent": 922,
      "roup": 923,
      "one": 924,
      "aut": 925,
      "Ġftp": 926,
      "be": 927,
      "ms": 928,
      "den": 929,
      "indexof": 930,
      "ipe": 931,
      "Ġ?": 932,
      "Ġset": 933,
      "hash": 934,
      "service": 935,
      "Ġmo": 936,
      "andler": 937,
      "Ġuser": 938,
      "Ġma": 939,
      "Ġinteger": 940,
      "Ġ+=": 941,
      "action": 942,
      "object": 943,
      "ary": 944,
      "man": 945,
      "builder": 946,
      "ting": 947,
      "arch": 948,
      "attri": 949,
      "Ġpar": 950,
      "conne": 951,
      "),": 952,
      "=\"": 953,
      "difi": 954,
      "util": 955,
      "64": 956,
      "uble": 957,
      "version": 958,
      "attribu": 959,
      "uch": 960,
      "utf": 961,
      "Ġid": 962,
      "mple": 963,
      "final": 964,
      "mexception": 965,
      "Ġ\".": 966,
      "ush": 967,
      "getinputstream": 968,
      "mode": 969,
      "ic": 970,
      "Ġ\"\";": 971,
      "attribute": 972,
      "ha": 973,
      "Ġbase": 974,
      "config": 975,
      "item": 976,
      "commit": 977,
      "Ġvalue": 978,
      "Ġpxlen": 979,
      "dcm": 980,
      "Ġstmt": 981,
      "Ġarray": 982,
      "java": 983,
      "Ġ\"\\": 984,
      "openconnection": 985,
      "char": 986,
      "Ġcontent": 987,
      "executeupdate": 988,
      "Ġbytearray": 989,
      "mat": 990,
      "Ġ\"/": 991,
      "getint": 992,
      "atcher": 993,
      "rec": 994,
      "Ġrun": 995,
      "].": 996,
      "fin": 997,
      "//": 998,
      "flush": 999,
      "setstring": 1000,
      "td": 1001,
      "group": 1002,
      "Ġtmp": 1003,
      "port": 1004,
      "token": 1005,
      "handler": 1006,
      "false": 1007,
      "Ġ\"'": 1008,
      "Ġthe": 1009,
      "Ġbuf": 1010,
      "(\"\\": 1011,
      "tag": 1012,
      "gu": 1013,
      "Ġ4": 1014,
      "link": 1015,
      "Ġfa": 1016,
      "osuch": 1017,
      "war": 1018,
      "lder": 1019,
      "Ġbufferedinputstream": 1020,
      "fault": 1021,
      "Ġbytes": 1022,
      "ive": 1023,
      "ager": 1024,
      "sele": 1025,
      "modifi": 1026,
      "transfer": 1027,
      "current": 1028,
      "algorithmexception": 1029,
      "osuchalgorithmexception": 1030,
      "sql": 1031,
      "min": 1032,
      "ci": 1033,
      "ded": 1034,
      "Ġentry": 1035,
      "----": 1036,
      "ob": 1037,
      "option": 1038,
      "nex": 1039,
      "cate": 1040,
      "Ġdb": 1041,
      "Ġ\",": 1042,
      "element": 1043,
      "Ġpd": 1044,
      "pixeldata": 1045,
      "tern": 1046,
      "location": 1047,
      "connect": 1048,
      "Ġfis": 1049,
      "host": 1050,
      "Ġ3": 1051,
      "lace": 1052,
      "view": 1053,
      "swith": 1054,
      "ts": 1055,
      "solu": 1056,
      "reak": 1057,
      "solute": 1058,
      "=\\\"": 1059,
      "tid": 1060,
      ">\");": 1061,
      "getstring": 1062,
      "iz": 1063,
      "Ġun": 1064,
      "ui": 1065,
      "long": 1066,
      "texception": 1067,
      "vel": 1068,
      "Ġpath": 1069,
      "Ġfo": 1070,
      "parent": 1071,
      "10": 1072,
      "coding": 1073,
      "Ġbufferedoutputstream": 1074,
      "absolute": 1075,
      "lay": 1076,
      "ipentry": 1077,
      "ries": 1078,
      "]);": 1079,
      "Ġobject": 1080,
      "trim": 1081,
      "tmp": 1082,
      "local": 1083,
      "alo": 1084,
      "Ġ@": 1085,
      "Ġpassword": 1086,
      "ema": 1087,
      "Ġbreak": 1088,
      "parator": 1089,
      "wnload": 1090,
      "roll": 1091,
      "document": 1092,
      "sqlexception": 1093,
      "Ġdst": 1094,
      "post": 1095,
      "ype": 1096,
      "://": 1097,
      "check": 1098,
      "Ġor": 1099,
      "hex": 1100,
      "sho": 1101,
      "destination": 1102,
      "Ġal": 1103,
      "getabsolute": 1104,
      "ftp": 1105,
      "Ġ\":": 1106,
      "ww": 1107,
      "has": 1108,
      "getread": 1109,
      "Ġstr": 1110,
      "coder": 1111,
      "integer": 1112,
      "Ġtarget": 1113,
      "tle": 1114,
      "Ġstream": 1115,
      "Ġos": 1116,
      "instanceuid": 1117,
      "work": 1118,
      "manager": 1119,
      "lan": 1120,
      "mon": 1121,
      "prepa": 1122,
      "eb": 1123,
      "separator": 1124,
      "gra": 1125,
      "Ġmap": 1126,
      "yn": 1127,
      "sig": 1128,
      "fe": 1129,
      "Ġexc": 1130,
      "html": 1131,
      "loader": 1132,
      "umn": 1133,
      "('": 1134,
      "**": 1135,
      "getabsolutepath": 1136,
      "Ġand": 1137,
      "?,": 1138,
      "Ġk": 1139,
      "notfo": 1140,
      "iled": 1141,
      "encode": 1142,
      "Ġuid": 1143,
      "node": 1144,
      "terator": 1145,
      "alog": 1146,
      "ated": 1147,
      "getproperty": 1148,
      "()).": 1149,
      "undexception": 1150,
      "ild": 1151,
      "Ġresource": 1152,
      "target": 1153,
      "net": 1154,
      "sk": 1155,
      "rollback": 1156,
      "Ġbytearrayoutputstream": 1157,
      "ld": 1158,
      "Ġta": 1159,
      "Ġurlconnection": 1160,
      "Ġpo": 1161,
      "Ġsql": 1162,
      "doc": 1163,
      "low": 1164,
      "Ġoutfile": 1165,
      "cry": 1166,
      "notfoundexception": 1167,
      "Ġxml": 1168,
      "over": 1169,
      "Ġdocument": 1170,
      "nd": 1171,
      "mal": 1172,
      "vr": 1173,
      "Ġme": 1174,
      "imp": 1175,
      "address": 1176,
      "(\"<": 1177,
      "replace": 1178,
      "root": 1179,
      "kdir": 1180,
      "Ġargs": 1181,
      "res": 1182,
      "nosuchalgorithmexception": 1183,
      "Ġsuccess": 1184,
      "lugin": 1185,
      "startswith": 1186,
      "ref": 1187,
      "level": 1188,
      "build": 1189,
      "vert": 1190,
      "med": 1191,
      "Ġdate": 1192,
      "dit": 1193,
      "setrequest": 1194,
      "prepare": 1195,
      "Ġkey": 1196,
      "fix": 1197,
      "Ġsa": 1198,
      "modified": 1199,
      "tach": 1200,
      "insert": 1201,
      "24": 1202,
      "rame": 1203,
      "preparestatement": 1204,
      "jar": 1205,
      "ls": 1206,
      "\"),": 1207,
      "Ġbe": 1208,
      "Ġ'\"": 1209,
      "warn": 1210,
      "(\"/": 1211,
      "leg": 1212,
      "Ġ_": 1213,
      "Ġcopyfile": 1214,
      "ord": 1215,
      "Ġca": 1216,
      "ps": 1217,
      "folder": 1218,
      "Ġche": 1219,
      "sha": 1220,
      "por": 1221,
      "Ġcheck": 1222,
      "Ġnum": 1223,
      "Ġproper": 1224,
      "Ġcreate": 1225,
      "gress": 1226,
      "codeparam": 1227,
      "Ġcom": 1228,
      "timeexception": 1229,
      "br": 1230,
      "!\");": 1231,
      "logger": 1232,
      "getparameter": 1233,
      "Ġzipentry": 1234,
      "fiel": 1235,
      "Ġrs": 1236,
      "pxlen": 1237,
      "rlen": 1238,
      "lit": 1239,
      "rix": 1240,
      "upload": 1241,
      "var": 1242,
      "ie": 1243,
      "mkdir": 1244,
      "sup": 1245,
      "da": 1246,
      "chema": 1247,
      "Ġdcmen": 1248,
      ">\\": 1249,
      "icon": 1250,
      "setint": 1251,
      "Ġan": 1252,
      "\\\":": 1253,
      "\").": 1254,
      "Ġstatus": 1255,
      "pane": 1256,
      "system": 1257,
      "attach": 1258,
      "Ġio": 1259,
      "redstatement": 1260,
      "legal": 1261,
      "Ġarraylist": 1262,
      "show": 1263,
      "inter": 1264,
      "mer": 1265,
      "lock": 1266,
      "Ġjar": 1267,
      "Ġ16": 1268,
      "></": 1269,
      "sal": 1270,
      "script": 1271,
      "Ġres": 1272,
      "title": 1273,
      "Ġ8": 1274,
      "Ġprint": 1275,
      "msg": 1276,
      "lter": 1277,
      "nce": 1278,
      "getcontent": 1279,
      "disp": 1280,
      "Ġstate": 1281,
      "valid": 1282,
      "ir": 1283,
      "Ġcomp": 1284,
      "getresource": 1285,
      "default": 1286,
      "Ġbu": 1287,
      "eader": 1288,
      "Ġchar": 1289,
      "formed": 1290,
      "Ġprepa": 1291,
      "Ġupdate": 1292,
      "outfile": 1293,
      "late": 1294,
      "auth": 1295,
      "Ġwrite": 1296,
      "Ġnode": 1297,
      "order": 1298,
      "Ġsize": 1299,
      "Ġtest": 1300,
      "vo": 1301,
      "org": 1302,
      "tive": 1303,
      "dialog": 1304,
      "Ġpstmt": 1305,
      "ec": 1306,
      "numberof": 1307,
      "requi": 1308,
      "========": 1309,
      "ody": 1310,
      "properties": 1311,
      "Ġcurrent": 1312,
      "Ġba": 1313,
      "df": 1314,
      "uld": 1315,
      "sition": 1316,
      "Ġil": 1317,
      "(\".": 1318,
      "fact": 1319,
      "ride": 1320,
      "gen": 1321,
      "Ġdirectory": 1322,
      "Ġ>=": 1323,
      "Ġpreparedstatement": 1324,
      "Ġtrans": 1325,
      "Ġbr": 1326,
      "raw": 1327,
      "process": 1328,
      "Ġassert": 1329,
      "Ġclient": 1330,
      "Ġinchannel": 1331,
      "sta": 1332,
      "gist": 1333,
      "Ġhttpurlconnection": 1334,
      "Ġof": 1335,
      "Ġmy": 1336,
      "frame": 1337,
      "du": 1338,
      "Ġfin": 1339,
      "main": 1340,
      "getpath": 1341,
      "override": 1342,
      "rst": 1343,
      "remo": 1344,
      "Ġdouble": 1345,
      "####": 1346,
      "Ġconvert": 1347,
      "newfile": 1348,
      "Ġ/": 1349,
      "Ġ\"\");": 1350,
      "Ġge": 1351,
      "mar": 1352,
      "spe": 1353,
      "rial": 1354,
      "constan": 1355,
      "ret": 1356,
      "bin": 1357,
      "Ġstringbuilder": 1358,
      "login": 1359,
      "Ġchan": 1360,
      ")));": 1361,
      "quiet": 1362,
      "pi": 1363,
      "uration": 1364,
      "gexception": 1365,
      "Ġfc": 1366,
      "Ġresp": 1367,
      "Ġtags": 1368,
      "getoutputstream": 1369,
      "Ġac": 1370,
      "fail": 1371,
      "fore": 1372,
      "sop": 1373,
      "getparent": 1374,
      "session": 1375,
      "algorithm": 1376,
      "tentry": 1377,
      "itor": 1378,
      "(\"</": 1379,
      "putui": 1380,
      "spixeldata": 1381,
      "Ġinfile": 1382,
      "tohex": 1383,
      "xy": 1384,
      "dcmhandler": 1385,
      "Ġfiles": 1386,
      "Ġproperties": 1387,
      "Ġconfig": 1388,
      "required": 1389,
      "auto": 1390,
      "Ġcol": 1391,
      "ight": 1392,
      "stu": 1393,
      "double": 1394,
      "Ġserver": 1395,
      "tected": 1396,
      "column": 1397,
      "Ġy": 1398,
      "sample": 1399,
      "Ġ\");": 1400,
      "max": 1401,
      "Ġsrcchannel": 1402,
      "by": 1403,
      "quietly": 1404,
      "tex": 1405,
      ")\");": 1406,
      "Ġwhere": 1407,
      "ron": 1408,
      "abled": 1409,
      "tofile": 1410,
      "attern": 1411,
      "getvalue": 1412,
      "meta": 1413,
      "\".": 1414,
      "if": 1415,
      "Ġlength": 1416,
      "ren": 1417,
      "body": 1418,
      "Ġreq": 1419,
      "Ġstatement": 1420,
      "ili": 1421,
      "matrix": 1422,
      "mail": 1423,
      "');": 1424,
      "Ġioe": 1425,
      "()))": 1426,
      "parser": 1427,
      "web": 1428,
      "ener": 1429,
      "optionpane": 1430,
      "filter": 1431,
      "gory": 1432,
      "event": 1433,
      "Ġper": 1434,
      "ace": 1435,
      "12": 1436,
      "Ġstart": 1437,
      "ped": 1438,
      "Ġon": 1439,
      "Ġcount": 1440,
      "bit": 1441,
      "cs": 1442,
      "100": 1443,
      "requiredtype": 1444,
      "ature": 1445,
      "txt": 1446,
      "parseint": 1447,
      "au": 1448,
      "Ġvi": 1449,
      "vid": 1450,
      "plugin": 1451,
      "case": 1452,
      "Ġprotected": 1453,
      "scription": 1454,
      "closequietly": 1455,
      "model": 1456,
      "Ġ10": 1457,
      "Ġjoptionpane": 1458,
      "Ġtype": 1459,
      "Ġformat": 1460,
      "mkdirs": 1461,
      "box": 1462,
      "++;": 1463,
      "Ġho": 1464,
      "flate": 1465,
      "project": 1466,
      "im": 1467,
      "ity": 1468,
      "Ġvalues": 1469,
      ">();": 1470,
      "Ġsession": 1471,
      "Ġruntimeexception": 1472,
      "telement": 1473,
      "\\\\": 1474,
      "Ġms": 1475,
      "tot": 1476,
      "httpurlconnection": 1477,
      "Ġcont": 1478,
      "cation": 1479,
      "isdirectory": 1480,
      "Ġtot": 1481,
      "',": 1482,
      "ale": 1483,
      "Ġload": 1484,
      "...\");": 1485,
      "autocommit": 1486,
      "Ġver": 1487,
      "Ġillegal": 1488,
      "Ġaut": 1489,
      "Ġdir": 1490,
      "dom": 1491,
      "Ġparent": 1492,
      "Ġindex": 1493,
      "success": 1494,
      "sexception": 1495,
      "pack": 1496,
      "real": 1497,
      "ym": 1498,
      "tings": 1499,
      "run": 1500,
      "Ġfilewriter": 1501,
      "Ġhttpclient": 1502,
      "Ġelement": 1503,
      "Ġinto": 1504,
      "dy": 1505,
      "ign": 1506,
      "save": 1507,
      "tor": 1508,
      "Ġve": 1509,
      "constants": 1510,
      "are": 1511,
      "argu": 1512,
      "Ġli": 1513,
      "page": 1514,
      "Ġob": 1515,
      "iterator": 1516,
      "Ġ\"\\\"": 1517,
      "Ġtime": 1518,
      "...": 1519,
      "setrequestproperty": 1520,
      "field": 1521,
      "Ġsha": 1522,
      "cket": 1523,
      "cur": 1524,
      "tial": 1525,
      "Ġbufferedwriter": 1526,
      "Ġtext": 1527,
      "category": 1528,
      "Ġparam": 1529,
      "ado": 1530,
      "nextentry": 1531,
      "before": 1532,
      "command": 1533,
      "Ġmethod": 1534,
      "mil": 1535,
      "serte": 1536,
      "lastmodified": 1537,
      "part": 1538,
      "ree": 1539,
      "infile": 1540,
      "failure": 1541,
      "Ġoutchannel": 1542,
      "search": 1543,
      "select": 1544,
      "transferto": 1545,
      "dataset": 1546,
      "params": 1547,
      "?,?,": 1548,
      "sertequals": 1549,
      "store": 1550,
      "stru": 1551,
      "suppor": 1552,
      "okie": 1553,
      "Ġdstchannel": 1554,
      "urlexception": 1555,
      "lab": 1556,
      "Ġapp": 1557,
      "Ġsw": 1558,
      "listener": 1559,
      "Ġuri": 1560,
      "Ġ\"<": 1561,
      "failed": 1562,
      "split": 1563,
      "='": 1564,
      "getclass": 1565,
      "ingexception": 1566,
      "Ġdisp": 1567,
      "formedurlexception": 1568,
      "pos": 1569,
      "ine": 1570,
      "download": 1571,
      "Ġ\"&": 1572,
      "lis": 1573,
      "Ġlen": 1574,
      "samples": 1575,
      "Ġdestfile": 1576,
      "tension": 1577,
      "series": 1578,
      "progress": 1579,
      "inue": 1580,
      "izer": 1581,
      "attachment": 1582,
      "les": 1583,
      "Ġtable": 1584,
      "tifi": 1585,
      "hoto": 1586,
      "tation": 1587,
      "mentexception": 1588,
      "'t": 1589,
      "study": 1590,
      "metri": 1591,
      "space": 1592,
      "ized": 1593,
      "pair": 1594,
      "op": 1595,
      "hel": 1596,
      ":\"": 1597,
      "home": 1598,
      "Ġhttpservlet": 1599,
      "setdo": 1600,
      "Ġdoc": 1601,
      "norec": 1602,
      "Ġassertequals": 1603,
      "Ġha": 1604,
      "norecase": 1605,
      "cont": 1606,
      "--------": 1607,
      "tempfile": 1608,
      "tohexstring": 1609,
      "equal": 1610,
      "rid": 1611,
      "signorecase": 1612,
      "equalsignorecase": 1613,
      "sol": 1614,
      "located": 1615,
      "Ġquery": 1616,
      "Ġmain": 1617,
      "rexception": 1618,
      "Ġdownload": 1619,
      "Ġfilereader": 1620,
      "Ġu": 1621,
      "cache": 1622,
      "Ġ\"/\"": 1623,
      "cept": 1624,
      "sallocated": 1625,
      "her": 1626,
      "ba": 1627,
      "bitsallocated": 1628,
      "grlen": 1629,
      "Ġheader": 1630,
      "numberofsamples": 1631,
      "0000": 1632,
      "stmt": 1633,
      "setautocommit": 1634,
      "lication": 1635,
      "Ġmode": 1636,
      "valueof": 1637,
      "beforemd": 1638,
      "Ġht": 1639,
      "cparam": 1640,
      "getreadvr": 1641,
      "Ġdcmencparam": 1642,
      "argumentexception": 1643,
      "ces": 1644,
      "ran": 1645,
      "rs": 1646,
      "filenotfoundexception": 1647,
      "vari": 1648,
      "could": 1649,
      "mpty": 1650,
      "Ġaction": 1651,
      "lang": 1652,
      "Ġinstance": 1653,
      "Ġsi": 1654,
      "exit": 1655,
      "idth": 1656,
      "bytearray": 1657,
      "Ġftpclient": 1658,
      "millis": 1659,
      ">\"": 1660,
      "supporte": 1661,
      "ror": 1662,
      "Ġadd": 1663,
      "Ġview": 1664,
      "Ġ(\"": 1665,
      "Ġcontinue": 1666,
      "getresponse": 1667,
      "full": 1668,
      "urlen": 1669,
      "dst": 1670,
      "dis": 1671,
      "getparentfile": 1672,
      "pected": 1673,
      "Ġcan": 1674,
      "vider": 1675,
      "warning": 1676,
      "schema": 1677,
      "unk": 1678,
      "stat": 1679,
      "ont": 1680,
      "valuepair": 1681,
      "dar": 1682,
      "pass": 1683,
      "req": 1684,
      "contenttype": 1685,
      "codingexception": 1686,
      "1024": 1687,
      "args": 1688,
      "ook": 1689,
      "Ġproject": 1690,
      "ends": 1691,
      "Ġvector": 1692,
      "09": 1693,
      "ical": 1694,
      "Ġauth": 1695,
      "Ġbig": 1696,
      "label": 1697,
      "/\"": 1698,
      "dencodingexception": 1699,
      "supportedencodingexception": 1700,
      "dat": 1701,
      "rows": 1702,
      "Ġbin": 1703,
      "point": 1704,
      "Ġcomm": 1705,
      "Ġdebug": 1706,
      "Ġhex": 1707,
      "Ġsourcechannel": 1708,
      "ymbo": 1709,
      "getfile": 1710,
      "loa": 1711,
      "Ġfound": 1712,
      "Ġdatabase": 1713,
      "match": 1714,
      "www": 1715,
      "Ġcontext": 1716,
      "ise": 1717,
      "graph": 1718,
      "regist": 1719,
      "onent": 1720,
      "mime": 1721,
      "asstream": 1722,
      "username": 1723,
      "ipher": 1724,
      "lation": 1725,
      "filepath": 1726,
      "tentity": 1727,
      "utili": 1728,
      "Ġ};": 1729,
      "erence": 1730,
      "currenttime": 1731,
      "change": 1732,
      "ust": 1733,
      "Ġit": 1734,
      "malformedurlexception": 1735,
      ".\",": 1736,
      "loat": 1737,
      "buffered": 1738,
      "ton": 1739,
      "json": 1740,
      "monitor": 1741,
      "Ġpost": 1742,
      "too": 1743,
      "filecopy": 1744,
      "cen": 1745,
      "errorcount": 1746,
      "wd": 1747,
      "Ġad": 1748,
      "Ġdelete": 1749,
      "Ġerrorcount": 1750,
      "sec": 1751,
      "the": 1752,
      "Ġsyn": 1753,
      "photo": 1754,
      "Ġ\";": 1755,
      "Ġencry": 1756,
      "Ġclose": 1757,
      "ï¿½ï¿½ï¿½ï¿½": 1758,
      "clu": 1759,
      "child": 1760,
      "undle": 1761,
      "lear": 1762,
      "metric": 1763,
      "transferfrom": 1764,
      "Ġgzip": 1765,
      "throw": 1766,
      "Ġ});": 1767,
      "Ġcase": 1768,
      "Ġjson": 1769,
      "go": 1770,
      "sum": 1771,
      "currenttimemillis": 1772,
      "hasnext": 1773,
      "lastindexof": 1774,
      "valuebeforemd": 1775,
      "ready": 1776,
      "Ġchannel": 1777,
      "Ġzipoutputstream": 1778,
      "fileinputstream": 1779,
      "sen": 1780,
      "sic": 1781,
      "Ġsave": 1782,
      "cri": 1783,
      "first": 1784,
      "ao": 1785,
      "Ġdefault": 1786,
      "ep": 1787,
      "ini": 1788,
      "my": 1789,
      "endswith": 1790,
      "description": 1791,
      "Ġmax": 1792,
      "11": 1793,
      "iso": 1794,
      "sor": 1795,
      "lable": 1796,
      "Ġinputline": 1797,
      "Ġbytesread": 1798,
      "unable": 1799,
      "Ġsal": 1800,
      "setattribute": 1801,
      "lendar": 1802,
      "ft": 1803,
      "Ġversion": 1804,
      "geti": 1805,
      "Ġwith": 1806,
      "Ġdataset": 1807,
      "site": 1808,
      "Ġmsg": 1809,
      "reply": 1810,
      "destfile": 1811,
      "Ġti": 1812,
      "ja": 1813,
      "ooser": 1814,
      "leted": 1815,
      "timeout": 1816,
      "deta": 1817,
      "end": 1818,
      ")).": 1819,
      "Ġgra": 1820,
      "Ġinstanceof": 1821,
      "bound": 1822,
      "tice": 1823,
      "cookie": 1824,
      "report": 1825,
      "variable": 1826,
      "Ġimp": 1827,
      "lag": 1828,
      "outputfile": 1829,
      "isfile": 1830,
      "va": 1831,
      "Ġparams": 1832,
      "ker": 1833,
      "stra": 1834,
      "ll": 1835,
      "guage": 1836,
      "configuration": 1837,
      "names": 1838,
      "Ġsp": 1839,
      "\\\":\\\"": 1840,
      "Ġcode": 1841,
      "unit": 1842,
      "Ġoutstream": 1843,
      "wa": 1844,
      "thread": 1845,
      "ino": 1846,
      "Ġfailed": 1847,
      "proxy": 1848,
      "88": 1849,
      "Ġservice": 1850,
      "Ġoutputstreamwriter": 1851,
      "stamp": 1852,
      "getrequest": 1853,
      "Ġ<=": 1854,
      "Ġ24": 1855,
      "archive": 1856,
      "Ġsub": 1857,
      "xff": 1858,
      "but": 1859,
      "Ġmi": 1860,
      "createstatement": 1861,
      "Ġran": 1862,
      "job": 1863,
      "vie": 1864,
      "package": 1865,
      "getconnection": 1866,
      "ulti": 1867,
      "gment": 1868,
      "px": 1869,
      "(\"\"))": 1870,
      "tobytearray": 1871,
      "lob": 1872,
      "Ġ(;": 1873,
      "Ġ5": 1874,
      "Ġzipinputstream": 1875,
      "Ġprocess": 1876,
      "ating": 1877,
      "Ġhttpresponse": 1878,
      "replaceall": 1879,
      "ternal": 1880,
      "total": 1881,
      "network": 1882,
      "seth": 1883,
      ",\\\"": 1884,
      "agent": 1885,
      "ilable": 1886,
      "Ġsbvaluebeforemd": 1887,
      "16": 1888,
      "selected": 1889,
      "Ġresultset": 1890,
      "createnewfile": 1891,
      "putnextentry": 1892,
      "categoryid": 1893,
      "mber": 1894,
      "Ġend": 1895,
      "headers": 1896,
      "crea": 1897,
      "lower": 1898,
      "Ġparser": 1899,
      "Ġrec": 1900,
      "fileoutputstream": 1901,
      "getstatus": 1902,
      "Ġhttpget": 1903,
      "Ġro": 1904,
      "orig": 1905,
      "urity": 1906,
      "Ġ?,": 1907,
      "Ġbuil": 1908,
      "throwable": 1909,
      "posi": 1910,
      "clude": 1911,
      "encoding": 1912,
      "Ġevent": 1913,
      "entity": 1914,
      "lowercase": 1915,
      "Ġback": 1916,
      "values": 1917,
      "Ġupload": 1918,
      "Ġbw": 1919,
      "vere": 1920,
      "Ġimageio": 1921,
      "Ġlast": 1922,
      "Ġuse": 1923,
      "Ġconne": 1924,
      "done": 1925,
      "Ġopen": 1926,
      "Ġhttppost": 1927,
      "lain": 1928,
      "dispatcher": 1929,
      "reset": 1930,
      "impl": 1931,
      "ws": 1932,
      "core": 1933,
      "Ġexist": 1934,
      "Ġillegalargumentexception": 1935,
      "task": 1936,
      "Ġurlen": 1937,
      "Ġthread": 1938,
      "59": 1939,
      "typeid": 1940,
      "gener": 1941,
      "remove": 1942,
      "application": 1943,
      "Ġat": 1944,
      "aterial": 1945,
      "Ġurlconn": 1946,
      "outof": 1947,
      "clear": 1948,
      "severe": 1949,
      "chooser": 1950,
      "20": 1951,
      "Ġremo": 1952,
      "face": 1953,
      "Ġbuild": 1954,
      "Ġsup": 1955,
      "lection": 1956,
      "Ġnumber": 1957,
      "gettext": 1958,
      "duct": 1959,
      "][": 1960,
      "Ġtoken": 1961,
      "Ġstringwriter": 1962,
      "getid": 1963,
      "Ġsh": 1964,
      "tolowercase": 1965,
      "resources": 1966,
      "width": 1967,
      "inst": 1968,
      "Ġ\"...\");": 1969,
      "admin": 1970,
      "boundsexception": 1971,
      "ecut": 1972,
      "Ġitem": 1973,
      "sed": 1974,
      "ping": 1975,
      "executequery": 1976,
      "adata": 1977,
      "former": 1978,
      "!\"": 1979,
      "Ġdispatcher": 1980,
      "arg": 1981,
      "indo": 1982,
      "Ġlink": 1983,
      "httpservlet": 1984,
      "pattern": 1985,
      ".,": 1986,
      "hed": 1987,
      "ual": 1988,
      "unter": 1989,
      "Ġencoding": 1990,
      "Ġuids": 1991,
      "Ġpart": 1992,
      "Ġhttpservletresponse": 1993,
      "createimage": 1994,
      "Ġentity": 1995,
      "096": 1996,
      "faul": 1997,
      "outofboundsexception": 1998,
      "inflate": 1999,
      "ule": 2000,
      "inputline": 2001,
      "template": 2002,
      "interpre": 2003,
      "Ġfileformat": 2004,
      "Ġja": 2005,
      "Ġ=>": 2006,
      "proto": 2007,
      "Ġhost": 2008,
      "ance": 2009,
      "tolog": 2010,
      "ght": 2011,
      "sl": 2012,
      "ymbol": 2013,
      "ies": 2014,
      "ore": 2015,
      "ou": 2016,
      "Ġsynch": 2017,
      "Ġbos": 2018,
      "000": 2019,
      ")...": 2020,
      "classuid": 2021,
      "grouplen": 2022,
      "fs": 2023,
      "createtempfile": 2024,
      "Ġoff": 2025,
      "loaded": 2026,
      "\\\",": 2027,
      "decodeparam": 2028,
      "sep": 2029,
      "sign": 2030,
      "af": 2031,
      "Ġcontain": 2032,
      "control": 2033,
      "Ġent": 2034,
      "Ġlocal": 2035,
      "metainfo": 2036,
      "Ġcommand": 2037,
      "rne": 2038,
      "putus": 2039,
      "Ġgrlen": 2040,
      "haspixeldata": 2041,
      "sopinstanceuid": 2042,
      "sopclassuid": 2043,
      "seriesinstanceuid": 2044,
      "studyinstanceuid": 2045,
      "Ġhaspixeldata": 2046,
      "photometric": 2047,
      "pxdata": 2048,
      "interpretation": 2049,
      "rnema": 2050,
      "photometricinterpretation": 2051,
      "lot": 2052,
      "pri": 2053,
      "only": 2054,
      "getdcmhandler": 2055,
      "newdc": 2056,
      "newdataset": 2057,
      "Ġport": 2058,
      "setdcmhandler": 2059,
      "parsedcm": 2060,
      "getreadlength": 2061,
      "newdcmparser": 2062,
      "parsedcmfile": 2063,
      "coded": 2064,
      "Ġiis": 2065,
      "Ġ\\\"": 2066,
      "ool": 2067,
      "setdooutput": 2068,
      "getdcm": 2069,
      "Ġpixeldata": 2070,
      "byteorder": 2071,
      "cach": 2072,
      "Ġpdreader": 2073,
      "Ġpdwriter": 2074,
      "Ġpdfact": 2075,
      "Ġdcmencodeparam": 2076,
      "getdcmdecodeparam": 2077,
      "material": 2078,
      "Ġpack": 2079,
      "database": 2080,
      "Ġprintwriter": 2081,
      "send": 2082,
      "Ġalready": 2083,
      "Ġbut": 2084,
      "tact": 2085,
      "Ġ\"</": 2086,
      "Ġpage": 2087,
      "led": 2088,
      "Ġlogin": 2089,
      "fini": 2090,
      "########": 2091,
      "rentry": 2092,
      "Ġalgorithm": 2093,
      "55": 2094,
      "prefix": 2095,
      "8859": 2096,
      "disconnect": 2097,
      "Ġfout": 2098,
      "tivi": 2099,
      "more": 2100,
      "')": 2101,
      "nexttoken": 2102,
      "charset": 2103,
      "namevaluepair": 2104,
      "lib": 2105,
      "Ġ1024": 2106,
      "****": 2107,
      "settings": 2108,
      "finition": 2109,
      "cannot": 2110,
      "Ġsynchron": 2111,
      "settext": 2112,
      "Ġwor": 2113,
      "indexoutofboundsexception": 2114,
      "getresourceasstream": 2115,
      "Ġmon": 2116,
      "remote": 2117,
      "Ġtotread": 2118,
      "bundle": 2119,
      "setfile": 2120,
      "Ġbytebuffer": 2121,
      "backup": 2122,
      "fy": 2123,
      "nb": 2124,
      "ard": 2125,
      "tivity": 2126,
      "record": 2127,
      "sw": 2128,
      "Ġiterator": 2129,
      "resol": 2130,
      "Ġsearch": 2131,
      "cat": 2132,
      "servletcontext": 2133,
      "dent": 2134,
      "Ġoption": 2135,
      "stomer": 2136,
      "adap": 2137,
      "tokenizer": 2138,
      "ward": 2139,
      "Ġsourcefile": 2140,
      "bus": 2141,
      "Ġdoes": 2142,
      "ization": 2143,
      "ext": 2144,
      "Ġrep": 2145,
      "sing": 2146,
      "classpath": 2147,
      "ario": 2148,
      "elements": 2149,
      "ged": 2150,
      "Ġweb": 2151,
      "Ġ%": 2152,
      "Ġprogress": 2153,
      "Ġsynchronized": 2154,
      "diction": 2155,
      "provider": 2156,
      "unsupportedencodingexception": 2157,
      "boolean": 2158,
      "sv": 2159,
      "('.": 2160,
      "],": 2161,
      "Ġarg": 2162,
      "Ġbiginteger": 2163,
      "details": 2164,
      "Ġparameter": 2165,
      "matcher": 2166,
      "positor": 2167,
      "\\\",\\\"": 2168,
      "complete": 2169,
      "gram": 2170,
      "writing": 2171,
      "Ġtra": 2172,
      "ute": 2173,
      "Ġinfo": 2174,
      "locale": 2175,
      "tadata": 2176,
      "getentity": 2177,
      "Ġoutputfile": 2178,
      "container": 2179,
      "gno": 2180,
      "Ġcipher": 2181,
      "Ġusername": 2182,
      "jec": 2183,
      "dio": 2184,
      "exclude": 2185,
      "quo": 2186,
      "Ġspe": 2187,
      "Ġab": 2188,
      "iness": 2189,
      "bean": 2190,
      "Ġle": 2191,
      "Ġzipfile": 2192,
      "=?": 2193,
      "Ġwr": 2194,
      "person": 2195,
      "Ġsqlexception": 2196,
      "])": 2197,
      "sb": 2198,
      "Ġnosuchalgorithmexception": 2199,
      "pted": 2200,
      "Ġrow": 2201,
      "inf": 2202,
      "showmessage": 2203,
      "scriptor": 2204,
      "Ġbaos": 2205,
      "quence": 2206,
      "isde": 2207,
      "ear": 2208,
      "================": 2209,
      "fest": 2210,
      "chive": 2211,
      "genabled": 2212,
      "compare": 2213,
      "cnt": 2214,
      "gettime": 2215,
      "osition": 2216,
      "forward": 2217,
      "Ġ;": 2218,
      "Ġhashmap": 2219,
      "Ġ)": 2220,
      "Ġxpath": 2221,
      "(\"#": 2222,
      "dia": 2223,
      "Ġ12": 2224,
      "Ġini": 2225,
      "block": 2226,
      "brary": 2227,
      "ses": 2228,
      "product": 2229,
      "Ġpattern": 2230,
      "hasmore": 2231,
      "pository": 2232,
      "sort": 2233,
      "Ġcur": 2234,
      "fromfile": 2235,
      "Ġinsert": 2236,
      "getlogger": 2237,
      "gle": 2238,
      "panel": 2239,
      "Ġgener": 2240,
      "Ġbytearrayinputstream": 2241,
      "fc": 2242,
      "Ġ<<": 2243,
      "Ġzos": 2244,
      "Ġq": 2245,
      "top": 2246,
      "layout": 2247,
      "Ġhexstring": 2248,
      "bugenabled": 2249,
      "isdebugenabled": 2250,
      "fis": 2251,
      "Ġ[": 2252,
      "getresponsecode": 2253,
      "Ġorig": 2254,
      "wl": 2255,
      "getattribute": 2256,
      "color": 2257,
      ")),": 2258,
      "entic": 2259,
      "Ġman": 2260,
      "found": 2261,
      "Ġcache": 2262,
      "dicate": 2263,
      "Ġsax": 2264,
      "56": 2265,
      "Ġvalid": 2266,
      "security": 2267,
      "Ġmatcher": 2268,
      "obj": 2269,
      "skip": 2270,
      "Ġigno": 2271,
      "Ġurlencoder": 2272,
      "height": 2273,
      "gr": 2274,
      "ther": 2275,
      "device": 2276,
      "upd": 2277,
      "Ġdefaul": 2278,
      "author": 2279,
      "pn": 2280,
      "Ġinc": 2281,
      "4096": 2282,
      "setcontenttype": 2283,
      "short": 2284,
      "ain": 2285,
      "call": 2286,
      "invalid": 2287,
      "Ġpos": 2288,
      "peration": 2289,
      "position": 2290,
      "dyn": 2291,
      "reading": 2292,
      "lease": 2293,
      "button": 2294,
      "edit": 2295,
      "Ġbuilder": 2296,
      "Ġcu": 2297,
      "ys": 2298,
      "available": 2299,
      "classloader": 2300,
      "ifest": 2301,
      "Ġvar": 2302,
      "]));": 2303,
      "yy": 2304,
      "destino": 2305,
      "decode": 2306,
      "sourcefile": 2307,
      "gine": 2308,
      "down": 2309,
      "cript": 2310,
      "fields": 2311,
      "Ġtotal": 2312,
      "language": 2313,
      "ference": 2314,
      "=\\\"\"": 2315,
      "Ġiter": 2316,
      "Ġrd": 2317,
      "component": 2318,
      "Ġsettings": 2319,
      "Ġroot": 2320,
      "formation": 2321,
      "Ġmodel": 2322,
      "Ġcal": 2323,
      "Ġ\")": 2324,
      "tools": 2325,
      "business": 2326,
      "cure": 2327,
      "Ġap": 2328,
      "nbsp": 2329,
      "socket": 2330,
      "adapter": 2331,
      "cy": 2332,
      "results": 2333,
      "Ġnotice": 2334,
      "32": 2335,
      "layer": 2336,
      "conf": 2337,
      "36": 2338,
      "cal": 2339,
      "addform": 2340,
      "Ġgraph": 2341,
      "Ġhas": 2342,
      "Ġ--": 2343,
      "Ġcrea": 2344,
      "Ġus": 2345,
      "Ġda": 2346,
      "(\":": 2347,
      "andle": 2348,
      "fine": 2349,
      "(\"[": 2350,
      "Ġdestinationchannel": 2351,
      "messages": 2352,
      "showmessagedialog": 2353,
      "inputfile": 2354,
      "ask": 2355,
      "rup": 2356,
      "setheader": 2357,
      "Ġoc": 2358,
      "Ġobj": 2359,
      "helper": 2360,
      "here": 2361,
      "ib": 2362,
      "80": 2363,
      "setrequestmethod": 2364,
      "img": 2365,
      "flag": 2366,
      "mimetype": 2367,
      "Ġaddress": 2368,
      "return": 2369,
      "oogle": 2370,
      "Ġcall": 2371,
      "closeentry": 2372,
      "Ġmime": 2373,
      "counter": 2374,
      "Ġbo": 2375,
      "compareto": 2376,
      "zipentry": 2377,
      "cap": 2378,
      "Ġprob": 2379,
      "Ġpackage": 2380,
      "idx": 2381,
      "quan": 2382,
      "ints": 2383,
      "added": 2384,
      "Ġnodelist": 2385,
      "compile": 2386,
      "Ġregist": 2387,
      "definition": 2388,
      "lines": 2389,
      "newinstance": 2390,
      "Ġsele": 2391,
      "Ġsimple": 2392,
      "ctr": 2393,
      "Ġtemplate": 2394,
      "Ġhtml": 2395,
      "access": 2396,
      "Ġdatainputstream": 2397,
      ";</": 2398,
      "Ġfiel": 2399,
      "windo": 2400,
      "ode": 2401,
      "Ġwas": 2402,
      "Ġfirst": 2403,
      "Ġ\"_": 2404,
      "ster": 2405,
      "binary": 2406,
      "na": 2407,
      "Ġau": 2408,
      "direct": 2409,
      "Ġfolder": 2410,
      ":&": 2411,
      "lip": 2412,
      "Ġexecute": 2413,
      "parameters": 2414,
      "cimal": 2415,
      "Ġ++": 2416,
      "mit": 2417,
      "we": 2418,
      "Ġdefaulth": 2419,
      "Ġ6": 2420,
      "tx": 2421,
      "pentity": 2422,
      "mension": 2423,
      "Ġtofile": 2424,
      "lex": 2425,
      "Ġcharset": 2426,
      "simple": 2427,
      "Ġ\\\"\"": 2428,
      "arrayindexoutofboundsexception": 2429,
      "Ġconfiguration": 2430,
      "Ġremote": 2431,
      "pc": 2432,
      "Ġover": 2433,
      "Ġexpected": 2434,
      "umer": 2435,
      "Ġconnect": 2436,
      "Ġerr": 2437,
      "Ġsho": 2438,
      "Ġ-=": 2439,
      "Ġparse": 2440,
      "non": 2441,
      "font": 2442,
      "river": 2443,
      "tablename": 2444,
      "Ġurlstring": 2445,
      "phone": 2446,
      "dimage": 2447,
      "visi": 2448,
      "Ġext": 2449,
      "Ġdis": 2450,
      "200": 2451,
      "columns": 2452,
      "fos": 2453,
      "utilities": 2454,
      "encoder": 2455,
      "progressmonitor": 2456,
      "ai": 2457,
      "cer": 2458,
      "member": 2459,
      "organ": 2460,
      "rsrc": 2461,
      "dbc": 2462,
      "reg": 2463,
      "Ġclassname": 2464,
      "inte": 2465,
      "Ġinputsource": 2466,
      "cre": 2467,
      "ia": 2468,
      "right": 2469,
      "deleted": 2470,
      "++,": 2471,
      "Ġsend": 2472,
      "find": 2473,
      "Ġoptions": 2474,
      "calendar": 2475,
      "stateexception": 2476,
      "float": 2477,
      "wait": 2478,
      "pd": 2479,
      "ttpclient": 2480,
      "Ġborder": 2481,
      "ration": 2482,
      "cor": 2483,
      "mary": 2484,
      "Ġlocation": 2485,
      "hasmoreelements": 2486,
      "onical": 2487,
      "jsp": 2488,
      "Ġemail": 2489,
      "Ġclassloader": 2490,
      "Ġstringtokenizer": 2491,
      "writefile": 2492,
      "descriptor": 2493,
      "ubor": 2494,
      "mission": 2495,
      "linkswith": 2496,
      "Ġorg": 2497,
      "linkswithin": 2498,
      "eded": 2499,
      "Ġ\"',": 2500,
      "Ġasserttrue": 2501,
      "ldpath": 2502,
      "cas": 2503,
      "Ġrand": 2504,
      "itemcategoryid": 2505,
      "itemtypeid": 2506,
      "any": 2507,
      "mount": 2508,
      "init": 2509,
      "Ġbasic": 2510,
      "Ġprop": 2511,
      "Ġbis": 2512,
      "ments": 2513,
      "head": 2514,
      "Ġgetclass": 2515,
      "Ġ\":\"": 2516,
      "Ġdefaulthttpclient": 2517,
      "struction": 2518,
      "Ġ\"(": 2519,
      "Ġencrypt": 2520,
      ">\";": 2521,
      "Ġnext": 2522,
      "Ġattachment": 2523,
      "Ġne": 2524,
      "cursor": 2525,
      "filechooser": 2526,
      "Ġjob": 2527,
      "eve": 2528,
      "runtimeexception": 2529,
      "Ġdevice": 2530,
      "hi": 2531,
      "writ": 2532,
      "stor": 2533,
      "Ġpass": 2534,
      "Ġsum": 2535,
      "apro": 2536,
      "srcchannel": 2537,
      "etch": 2538,
      "Ġbook": 2539,
      "ant": 2540,
      "Ġarchive": 2541,
      "Ġcontenttype": 2542,
      "extension": 2543,
      "Ġnewfile": 2544,
      "Ġfz": 2545,
      "umeration": 2546,
      "look": 2547,
      "Ġinst": 2548,
      "nextelement": 2549,
      "fully": 2550,
      "tree": 2551,
      "cent": 2552,
      "iver": 2553,
      "Ġencode": 2554,
      "Ġxm": 2555,
      "listfiles": 2556,
      "ni": 2557,
      "Ġsrcfile": 2558,
      "Ġsalt": 2559,
      "ada": 2560,
      "entries": 2561,
      "Ġgui": 2562,
      "Ġfloat": 2563,
      "bytesread": 2564,
      "Ġmat": 2565,
      "()),": 2566,
      "Ġprefix": 2567,
      "17": 2568,
      "Ġbackup": 2569,
      "Ġmod": 2570,
      "Ġfind": 2571,
      "salt": 2572,
      "realm": 2573,
      "Ġplugin": 2574,
      "Ġhe": 2575,
      "concept": 2576,
      "Ġpsta": 2577,
      "Ġmonitor": 2578,
      "Ġ\"]": 2579,
      "vide": 2580,
      "illegal": 2581,
      "ctrum": 2582,
      "zipfile": 2583,
      "encry": 2584,
      "prop": 2585,
      "Ġproxy": 2586,
      "Ġperson": 2587,
      "modification": 2588,
      "metadata": 2589,
      "isempty": 2590,
      "email": 2591,
      "ished": 2592,
      "canwrite": 2593,
      "random": 2594,
      "pexception": 2595,
      "datasource": 2596,
      "fax": 2597,
      "props": 2598,
      "ked": 2599,
      "Ġ\"'\");": 2600,
      "ning": 2601,
      "Ġurlc": 2602,
      "Ġcolumn": 2603,
      "quote": 2604,
      "getheader": 2605,
      "pdf": 2606,
      "sequence": 2607,
      "chi": 2608,
      "images": 2609,
      "ero": 2610,
      "menu": 2611,
      "canonical": 2612,
      "roo": 2613,
      "terror": 2614,
      "signature": 2615,
      "arge": 2616,
      "geturl": 2617,
      "dimension": 2618,
      "protocol": 2619,
      "Ġ\"-": 2620,
      "activity": 2621,
      "Ġgroup": 2622,
      "ling": 2623,
      "Ġexists": 2624,
      "ecution": 2625,
      "mb": 2626,
      "getdefault": 2627,
      "Ġjavax": 2628,
      "655": 2629,
      "relation": 2630,
      "cel": 2631,
      "(_": 2632,
      "diff": 2633,
      "tencoding": 2634,
      "Ġra": 2635,
      "Ġtri": 2636,
      "urlstring": 2637,
      "Ġcontains": 2638,
      "Ġmar": 2639,
      "bufferedinputstream": 2640,
      "isp": 2641,
      "Ġsec": 2642,
      "plain": 2643,
      "Ġgetservletcontext": 2644,
      "fileformat": 2645,
      "ach": 2646,
      "png": 2647,
      "sist": 2648,
      "httpservletrequest": 2649,
      "rename": 2650,
      "written": 2651,
      "transaction": 2652,
      "mapping": 2653,
      "totread": 2654,
      "dentity": 2655,
      "Ġimport": 2656,
      "dateformat": 2657,
      "timestamp": 2658,
      "rt": 2659,
      "Ġwork": 2660,
      "Ġhtt": 2661,
      "dto": 2662,
      "ug": 2663,
      "65536": 2664,
      "Ġinstream": 2665,
      "__": 2666,
      "tificate": 2667,
      "Ġava": 2668,
      "keyst": 2669,
      "heet": 2670,
      "?,?,?,?,": 2671,
      "Ġfilenotfoundexception": 2672,
      "Ġinputfile": 2673,
      "ssing": 2674,
      "lume": 2675,
      "Ġfactory": 2676,
      "rome": 2677,
      "\")));": 2678,
      ".\";": 2679,
      "Ġdicom": 2680,
      "Ġextension": 2681,
      "Ġ>>>": 2682,
      "Ġhref": 2683,
      "----------------": 2684,
      "cul": 2685,
      "phra": 2686,
      "Ġillegalstateexception": 2687,
      "tect": 2688,
      "ids": 2689,
      "spec": 2690,
      "bufferedoutputstream": 2691,
      "Ġtargetfile": 2692,
      "working": 2693,
      "Ġcas": 2694,
      "rand": 2695,
      "track": 2696,
      "Ġmath": 2697,
      "classname": 2698,
      "Ġraw": 2699,
      "mpl": 2700,
      "gzip": 2701,
      "Ġup": 2702,
      "orary": 2703,
      "Ġreading": 2704,
      "Ġignore": 2705,
      "getmatrix": 2706,
      "Ġcollection": 2707,
      "gets": 2708,
      "Ġcl": 2709,
      "Ġthrown": 2710,
      "frames": 2711,
      "gete": 2712,
      "Ġdocumentbuilder": 2713,
      "ade": 2714,
      "Ġtask": 2715,
      "setcontent": 2716,
      "notnull": 2717,
      "(\"\\\\": 2718,
      "nown": 2719,
      "ctual": 2720,
      "proc": 2721,
      "igh": 2722,
      "Ġla": 2723,
      "Ġdat": 2724,
      "Ġreport": 2725,
      "library": 2726,
      "tokens": 2727,
      "dient": 2728,
      "window": 2729,
      "unction": 2730,
      "dential": 2731,
      "=?,": 2732,
      "cl": 2733,
      "tifier": 2734,
      "Ġattribute": 2735,
      "compress": 2736,
      "cmd": 2737,
      "ceive": 2738,
      "constra": 2739,
      "off": 2740,
      "movie": 2741,
      "emp": 2742,
      "()];": 2743,
      "Ġinflate": 2744,
      "types": 2745,
      "book": 2746,
      "Ġpredicate": 2747,
      "Ġmovie": 2748,
      "ismatch": 2749,
      "srcfile": 2750,
      "filetofile": 2751,
      "Ġstable": 2752,
      "tipo": 2753,
      "ned": 2754,
      "Ġcomponent": 2755,
      "Ġmatrix": 2756,
      "Ġtitle": 2757,
      "setlong": 2758,
      "pied": 2759,
      "ax": 2760,
      "mm": 2761,
      "Ġclasspath": 2762,
      "ging": 2763,
      "[])": 2764,
      "sty": 2765,
      "velbuild": 2766,
      "Ġstablebuild": 2767,
      "struct": 2768,
      "01": 2769,
      "rect": 2770,
      "Ġurls": 2771,
      "getrequestdispatcher": 2772,
      "Ġfilepath": 2773,
      "Ġtar": 2774,
      "del": 2775,
      "pl": 2776,
      "sper": 2777,
      "common": 2778,
      "Ġenumeration": 2779,
      "Ġ\"\"": 2780,
      "getstatusline": 2781,
      "stri": 2782,
      "Ġfail": 2783,
      "where": 2784,
      "sax": 2785,
      "(\"&": 2786,
      "tagname": 2787,
      "umb": 2788,
      "original": 2789,
      "Ġjsonobject": 2790,
      "convert": 2791,
      "las": 2792,
      "Ġcalendar": 2793,
      "Ġserv": 2794,
      "Ġinter": 2795,
      "sca": 2796,
      "contact": 2797,
      "tourl": 2798,
      "('.');": 2799,
      "lookup": 2800,
      "nm": 2801,
      "cn": 2802,
      "oin": 2803,
      "[],": 2804,
      "utility": 2805,
      "Ġdos": 2806,
      "ell": 2807,
      "getnextentry": 2808,
      "accept": 2809,
      "Ġall": 2810,
      "charat": 2811,
      "canread": 2812,
      "Ġhttpconn": 2813,
      "stoexclude": 2814,
      "pg": 2815,
      "Ġph": 2816,
      "metho": 2817,
      "Ġfont": 2818,
      "star": 2819,
      "rap": 2820,
      "Ġje": 2821,
      "Ġdescription": 2822,
      "dian": 2823,
      "vector": 2824,
      "words": 2825,
      "Ġscript": 2826,
      "lns": 2827,
      "Ġtransformer": 2828,
      "other": 2829,
      "48": 2830,
      "ragment": 2831,
      "customer": 2832,
      "dao": 2833,
      "Ġoffset": 2834,
      "outstream": 2835,
      "Ġsocket": 2836,
      "getcontenttype": 2837,
      "Ġjfilechooser": 2838,
      "ifi": 2839,
      "getwriter": 2840,
      "parsedouble": 2841,
      "rm": 2842,
      "domain": 2843,
      "inchannel": 2844,
      "Ġrequestdispatcher": 2845,
      "Ġparts": 2846,
      "rupte": 2847,
      "Ġicon": 2848,
      "andre": 2849,
      "setmatrix": 2850,
      "display": 2851,
      "Ġlan": 2852,
      "123": 2853,
      "setdoinput": 2854,
      "mg": 2855,
      "ital": 2856,
      "cifi": 2857,
      "decimal": 2858,
      "Ġform": 2859,
      "requiredtypegroup": 2860,
      "realpath": 2861,
      "endian": 2862,
      "chem": 2863,
      "Ġserial": 2864,
      "Ġjarfile": 2865,
      "volume": 2866,
      "Ġ\"\",": 2867,
      "Ġfield": 2868,
      "detect": 2869,
      "Ġmapped": 2870,
      "lien": 2871,
      "ori": 2872,
      "Ġgzipinputstream": 2873,
      "ededrsrc": 2874,
      "iv": 2875,
      "tify": 2876,
      "processor": 2877,
      "Ġbasicnamevaluepair": 2878,
      "Ġfw": 2879,
      "Ġscan": 2880,
      "Ġimageinputstream": 2881,
      "seriesuid": 2882,
      "studyuid": 2883,
      "getelement": 2884,
      "getfilename": 2885,
      "cr": 2886,
      "attr": 2887,
      "our": 2888,
      "Ġhttpservletrequest": 2889,
      "Ġ7": 2890,
      "mono": 2891,
      "little": 2892,
      "rer": 2893,
      "<?": 2894,
      "Ġpixel": 2895,
      "upper": 2896,
      "mod": 2897,
      "bad": 2898,
      "quantity": 2899,
      "plo": 2900,
      "repository": 2901,
      "keys": 2902,
      "resolver": 2903,
      "licit": 2904,
      "ved": 2905,
      "keystore": 2906,
      "left": 2907,
      "orted": 2908,
      "entication": 2909,
      "Ġmismatch": 2910,
      "letexception": 2911,
      "cip": 2912,
      "ship": 2913,
      "Ġfn": 2914,
      "Ġold": 2915,
      "Ġmodifi": 2916,
      "Ġfact": 2917,
      "getcanonical": 2918,
      "instuid": 2919,
      "Ġimageoutputstream": 2920,
      "uppercase": 2921,
      "lish": 2922,
      "exion": 2923,
      "Ġzout": 2924,
      "Ġctx": 2925,
      "ruptedexception": 2926,
      "Ġtempfile": 2927,
      "ag": 2928,
      "seten": 2929,
      "skipgrouplen": 2930,
      "Ġsite": 2931,
      "filechannel": 2932,
      "createimageinputstream": 2933,
      "Ġpw": 2934,
      "touppercase": 2935,
      "iis": 2936,
      "mobject": 2937,
      "numberofframes": 2938,
      "ivr": 2939,
      "lue": 2940,
      "Ġfe": 2941,
      "bar": 2942,
      "uni": 2943,
      "resultset": 2944,
      "fmi": 2945,
      "putcs": 2946,
      "chrome": 2947,
      "Ġpfact": 2948,
      "Ġencodeparam": 2949,
      "acrnema": 2950,
      "Ġclassuid": 2951,
      "getreadtag": 2952,
      "vrlittle": 2953,
      "implicit": 2954,
      "newfilemetainfo": 2955,
      "Ġacrnema": 2956,
      "setfilemetainfo": 2957,
      "Ġprobable": 2958,
      "detectfileformat": 2959,
      "monochrome": 2960,
      "vrlittleendian": 2961,
      "implicitvrlittleendian": 2962,
      "Ġdecode": 2963,
      "selection": 2964,
      "setstatus": 2965,
      "cense": 2966,
      "}\",": 2967,
      "hashbox": 2968,
      "getselected": 2969,
      "ffe": 2970,
      "nexpected": 2971,
      "Ġby": 2972,
      "messagedigest": 2973,
      "keyset": 2974,
      "Ġ\".\"": 2975,
      "capt": 2976,
      "gif": 2977,
      "Ġfileutils": 2978,
      "getpixeldata": 2979,
      "newreader": 2980,
      "newwriter": 2981,
      "readpixeldata": 2982,
      "writeheader": 2983,
      "writepixeldata": 2984,
      "writedataset": 2985,
      "Ġreadandre": 2986,
      "Ġdcmobject": 2987,
      "Ġdcmparserfactory": 2988,
      "marker": 2989,
      "createimageoutputstream": 2990,
      "Ġpixeldatareader": 2991,
      "Ġpixeldatawriter": 2992,
      "pdreader": 2993,
      "getpixeldataarray": 2994,
      "Ġreadandrewrite": 2995,
      "Ġdcmobjectfactory": 2996,
      "month": 2997,
      "getkey": 2998,
      "(\"\");": 2999,
      "lative": 3000,
      "coach": 3001,
      "jav": 3002,
      "deleteon": 3003,
      "viewer": 3004,
      "dictionary": 3005,
      "tmpfile": 3006,
      ">(": 3007,
      "dentifier": 3008,
      "cp": 3009,
      "Ġunsupportedencodingexception": 3010,
      "redirect": 3011,
      "audit": 3012,
      "Ġmatch": 3013,
      "Ġsqle": 3014,
      "lobal": 3015,
      "erro": 3016,
      "initial": 3017,
      "cke": 3018,
      "avail": 3019,
      "Ġencoder": 3020,
      "uario": 3021,
      "Ġservletexception": 3022,
      "role": 3023,
      "materialtype": 3024,
      "range": 3025,
      "gz": 3026,
      "tiv": 3027,
      "outchannel": 3028,
      "Ġ\"?": 3029,
      "year": 3030,
      "prod": 3031,
      "Ġdataoutputstream": 3032,
      "caches": 3033,
      "day": 3034,
      "om": 3035,
      "cover": 3036,
      "Ġ1000": 3037,
      "Ġframe": 3038,
      "Ġbooking": 3039,
      "Ġsalid": 3040,
      "dition": 3041,
      "nor": 3042,
      "Ġproperty": 3043,
      "Ġins": 3044,
      "active": 3045,
      "usecaches": 3046,
      "export": 3047,
      "ory": 3048,
      "99": 3049,
      "Ġutil": 3050,
      "tempdir": 3051,
      "methods": 3052,
      "old": 3053,
      "Ġstat": 3054,
      "asstring": 3055,
      "now": 3056,
      "\")))": 3057,
      "sd": 3058,
      "tool": 3059,
      "Ġscanner": 3060,
      "Ġostmt": 3061,
      "Ġprops": 3062,
      "copyfile": 3063,
      "ceived": 3064,
      "secure": 3065,
      "ence": 3066,
      "cc": 3067,
      "round": 3068,
      "getcontentlength": 3069,
      "api": 3070,
      "Ġcontents": 3071,
      "cbuf": 3072,
      "basedir": 3073,
      "ven": 3074,
      "Ġfromfile": 3075,
      "pool": 3076,
      "pub": 3077,
      "Ġprin": 3078,
      "Ġ100": 3079,
      "tologia": 3080,
      "tab": 3081,
      "Ġtmpfile": 3082,
      "(\"\\\"": 3083,
      "Ġnamevaluepair": 3084,
      "deleteonexit": 3085,
      "after": 3086,
      "targetfile": 3087,
      "datastore": 3088,
      "aving": 3089,
      "50": 3090,
      "Ġ(_": 3091,
      "align": 3092,
      "Ġbout": 3093,
      "Ġsen": 3094,
      "term": 3095,
      "Ġdbdyn": 3096,
      "seq": 3097,
      "city": 3098,
      "datastream": 3099,
      "cached": 3100,
      "]),": 3101,
      "Ġviewer": 3102,
      "14": 3103,
      "gre": 3104,
      "Ġsimpledateformat": 3105,
      "Ġshort": 3106,
      "Ġrows": 3107,
      "Ġrandom": 3108,
      "stop": 3109,
      "def": 3110,
      "des": 3111,
      "cao": 3112,
      "llow": 3113,
      "ns": 3114,
      "Ġren": 3115,
      "ched": 3116,
      "transformer": 3117,
      "Ġstm": 3118,
      "userid": 3119,
      "registry": 3120,
      "modu": 3121,
      "Ġcry": 3122,
      "conti": 3123,
      "mark": 3124,
      "Ġ[\"": 3125,
      "(\",": 3126,
      "controller": 3127,
      "Ġselected": 3128,
      "getrow": 3129,
      ">>": 3130,
      "streamreader": 3131,
      "Ġref": 3132,
      "Ġsuper": 3133,
      "Ġheight": 3134,
      "aby": 3135,
      "localhost": 3136,
      "extra": 3137,
      "mac": 3138,
      "used": 3139,
      "storage": 3140,
      "sby": 3141,
      "Ġgenerate": 3142,
      "unch": 3143,
      "Ġconf": 3144,
      "Ġrecord": 3145,
      "lt": 3146,
      "ords": 3147,
      "Ġdone": 3148,
      "errors": 3149,
      "conver": 3150,
      "13": 3151,
      "xm": 3152,
      "xsl": 3153,
      "serial": 3154,
      "reen": 3155,
      "Ġretri": 3156,
      "delement": 3157,
      "Ġchunk": 3158,
      "Ġbuildxml": 3159,
      "Ġfsep": 3160,
      "unity": 3161,
      "ill": 3162,
      "div": 3163,
      "Ġmeta": 3164,
      "spectrum": 3165,
      ")\";": 3166,
      "++++": 3167,
      "units": 3168,
      "Ġlin": 3169,
      "Ġisr": 3170,
      "lash": 3171,
      "Ġuc": 3172,
      "Ġseq": 3173,
      "dig": 3174,
      "Ġdeleted": 3175,
      "Ġresults": 3176,
      "Ġdisplay": 3177,
      "Ġfilter": 3178,
      "uffix": 3179,
      "Ġfilecopy": 3180,
      "locate": 3181,
      "cf": 3182,
      "Ġcer": 3183,
      "alle": 3184,
      "Ġhttpentity": 3185,
      "spro": 3186,
      "Ġentries": 3187,
      "seti": 3188,
      "containskey": 3189,
      "setting": 3190,
      "formate": 3191,
      "cut": 3192,
      "bytebuffer": 3193,
      "notice": 3194,
      "Ġsuccessfully": 3195,
      "Ġstmtdestino": 3196,
      "Ġreplace": 3197,
      "setusecaches": 3198,
      "enabled": 3199,
      "Ġschema": 3200,
      "retri": 3201,
      "Ġservlet": 3202,
      "import": 3203,
      "getreply": 3204,
      "Ġtree": 3205,
      "allen": 3206,
      "hello": 3207,
      "getstatuscode": 3208,
      "rada": 3209,
      "pwd": 3210,
      "19": 3211,
      "getclassloader": 3212,
      "blem": 3213,
      "Ġmodule": 3214,
      "https": 3215,
      "release": 3216,
      "getbusiness": 3217,
      "chier": 3218,
      "modificationdefinition": 3219,
      "Ġfull": 3220,
      "manifest": 3221,
      "charac": 3222,
      "(\":\");": 3223,
      "viron": 3224,
      "gt": 3225,
      "tpo": 3226,
      "decoder": 3227,
      "Ġdown": 3228,
      "allow": 3229,
      "Ġunit": 3230,
      "Ġoverwrite": 3231,
      "256": 3232,
      "basic": 3233,
      "Ġic": 3234,
      "getfirst": 3235,
      "Ġsign": 3236,
      "Ġdevelbuild": 3237,
      ";\");": 3238,
      "pk": 3239,
      "rating": 3240,
      "interface": 3241,
      "unknown": 3242,
      "google": 3243,
      "worker": 3244,
      "chunk": 3245,
      "arraycopy": 3246,
      "Ġlabel": 3247,
      "nextline": 3248,
      "arqui": 3249,
      "tate": 3250,
      "tedi": 3251,
      "(\"-": 3252,
      "Ġsv": 3253,
      "gethome": 3254,
      "Ġabort": 3255,
      "liente": 3256,
      "Ġ\\": 3257,
      "forname": 3258,
      "vironment": 3259,
      "camp": 3260,
      "cipher": 3261,
      "tology": 3262,
      "unexpected": 3263,
      "oc": 3264,
      "Ġcn": 3265,
      "inv": 3266,
      "resp": 3267,
      "ump": 3268,
      "Ġdiff": 3269,
      "Ġ$": 3270,
      "swing": 3271,
      "Ġcookie": 3272,
      "Ġtransfer": 3273,
      "getcode": 3274,
      "jectid": 3275,
      "capture": 3276,
      "Ġflag": 3277,
      "getelementsby": 3278,
      "preference": 3279,
      "Ġcmd": 3280,
      "nable": 3281,
      "syn": 3282,
      "httpservletresponse": 3283,
      "Ġfetch": 3284,
      "Ġmodified": 3285,
      "Ġ200": 3286,
      "Ġcontact": 3287,
      "Ġrea": 3288,
      "large": 3289,
      "performed": 3290,
      "desc": 3291,
      "Ġip": 3292,
      "Ġurlstr": 3293,
      "emap": 3294,
      "Ġpstm": 3295,
      "generator": 3296,
      "function": 3297,
      "symbol": 3298,
      "building": 3299,
      "Ġseat": 3300,
      "\")).": 3301,
      "stocapture": 3302,
      "stocapturelinkswithin": 3303,
      "getcon": 3304,
      "uuid": 3305,
      "Ġplain": 3306,
      "apa": 3307,
      "18": 3308,
      "]).": 3309,
      "getelementsbytagname": 3310,
      "02": 3311,
      "dd": 3312,
      "ient": 3313,
      "getcolumn": 3314,
      "setproperty": 3315,
      "resourceset": 3316,
      "points": 3317,
      "toarray": 3318,
      "Ġ\").": 3319,
      "='\"": 3320,
      "15": 3321,
      "xpath": 3322,
      "stats": 3323,
      "################": 3324,
      "Ġcustomer": 3325,
      "{\\\"": 3326,
      "pointe": 3327,
      "pointerexception": 3328,
      "instream": 3329,
      "tpath": 3330,
      "multi": 3331,
      "atal": 3332,
      "Ġproto": 3333,
      "internal": 3334,
      "getoption": 3335,
      "draw": 3336,
      "Ġnl": 3337,
      "Ġposition": 3338,
      "Ġchild": 3339,
      "getex": 3340,
      "okies": 3341,
      "constraint": 3342,
      "Ġsr": 3343,
      "asci": 3344,
      "Ġdom": 3345,
      "Ġactual": 3346,
      "Ġfromfilename": 3347,
      "Ġmin": 3348,
      "Ġarrays": 3349,
      "Ġlike": 3350,
      "Ġwidth": 3351,
      "Ġdestinationfile": 3352,
      "Ġmarker": 3353,
      "cado": 3354,
      "question": 3355,
      "indexset": 3356,
      "getnode": 3357,
      "actionevent": 3358,
      "Ġexport": 3359,
      "lementation": 3360,
      "Ġxmlns": 3361,
      "vend": 3362,
      "Ġjarentry": 3363,
      "ass": 3364,
      "Ġred": 3365,
      "Ġfs": 3366,
      "shell": 3367,
      "manage": 3368,
      "prin": 3369,
      "gettype": 3370,
      "Ġmember": 3371,
      "disposition": 3372,
      "organize": 3373,
      "feed": 3374,
      "dentials": 3375,
      "Ġbasedir": 3376,
      "Ġ('": 3377,
      "Ġimg": 3378,
      "Ġblock": 3379,
      "country": 3380,
      "ics": 3381,
      "runtime": 3382,
      "Ġextra": 3383,
      "Ġchange": 3384,
      "lasses": 3385,
      "ano": 3386,
      "register": 3387,
      "Ġcreated": 3388,
      "Ġauthor": 3389,
      "Ġdesc": 3390,
      "Ġlines": 3391,
      "itch": 3392,
      "parts": 3393,
      "iter": 3394,
      "mid": 3395,
      "Ġie": 3396,
      "Ġdriver": 3397,
      "Ġinstall": 3398,
      "reference": 3399,
      "region": 3400,
      "operation": 3401,
      "Ġ},": 3402,
      "illegalargumentexception": 3403,
      "Ġ20": 3404,
      "big": 3405,
      "getcurrent": 3406,
      "Ġmal": 3407,
      "scripts": 3408,
      "Ġgzipoutputstream": 3409,
      "allenge": 3410,
      "Ġfcin": 3411,
      "structor": 3412,
      "visible": 3413,
      "high": 3414,
      "namespace": 3415,
      "Ġinitial": 3416,
      "eredimage": 3417,
      "renameto": 3418,
      "Ġfilelist": 3419,
      "writeable": 3420,
      "transform": 3421,
      "Ġunwriteable": 3422,
      "},": 3423,
      "Ġloader": 3424,
      "getvariable": 3425,
      "matches": 3426,
      "dients": 3427,
      "abyfinal": 3428,
      "Ġruntime": 3429,
      "Ġmulti": 3430,
      "times": 3431,
      "Ġlo": 3432,
      "vision": 3433,
      "versioncheck": 3434,
      "baos": 3435,
      "Ġmanifest": 3436,
      "ample": 3437,
      "sm": 3438,
      "Ġcolor": 3439,
      "vals": 3440,
      "js": 3441,
      "Ġze": 3442,
      "(\"_": 3443,
      "urls": 3444,
      "flip": 3445,
      "uring": 3446,
      "phrase": 3447,
      "Ġlanguage": 3448,
      "filereader": 3449,
      "maining": 3450,
      "ome": 3451,
      "utdown": 3452,
      "php": 3453,
      "(\"%": 3454,
      "ati": 3455,
      "jdbc": 3456,
      "Ġjav": 3457,
      "addheader": 3458,
      "Ġss": 3459,
      "40": 3460,
      "Ġ9": 3461,
      "formance": 3462,
      "Ġalign": 3463,
      "account": 3464,
      ":</": 3465,
      "25": 3466,
      "sin": 3467,
      "wrap": 3468,
      "Ġword": 3469,
      "(((": 3470,
      "workingdirectory": 3471,
      "gethost": 3472,
      "offset": 3473,
      "leep": 3474,
      "separatorchar": 3475,
      "act": 3476,
      "Ġpi": 3477,
      "getvariablecontainer": 3478,
      "ditor": 3479,
      "atest": 3480,
      "isr": 3481,
      "nextlong": 3482,
      "combo": 3483,
      "ose": 3484,
      "getpassword": 3485,
      "Ġpk": 3486,
      "Ġsto": 3487,
      "Ġmp": 3488,
      "tran": 3489,
      "varname": 3490,
      "collection": 3491,
      "Ġhandle": 3492,
      "verse": 3493,
      "formatexception": 3494,
      "iss": 3495,
      "Ġnon": 3496,
      "atype": 3497,
      "Ġcre": 3498,
      "ugh": 3499,
      "Ġcould": 3500,
      "Ġhel": 3501,
      "Ġswt": 3502,
      "facet": 3503,
      "touri": 3504,
      "ascii": 3505,
      "=\");": 3506,
      "Ġchem": 3507,
      "Ġfilesize": 3508,
      "Ġfilenamedata": 3509,
      "fr": 3510,
      "seat": 3511,
      "Ġcalcul": 3512,
      "ding": 3513,
      "did": 3514,
      "ipient": 3515,
      "ported": 3516,
      "empty": 3517,
      "std": 3518,
      "modifiedtable": 3519,
      "Ġcamp": 3520,
      "Ġdocumentbuilderfactory": 3521,
      "Ġredlines": 3522,
      "Ġexp": 3523,
      "copying": 3524,
      "Ġfcout": 3525,
      "cell": 3526,
      "Ġcannot": 3527,
      "losing": 3528,
      "destinationfile": 3529,
      "('/": 3530,
      "Ġoriginal": 3531,
      "Ġesca": 3532,
      "Ġop": 3533,
      "sitive": 3534,
      "keep": 3535,
      "comment": 3536,
      "uboru": 3537,
      "style": 3538,
      "tpoints": 3539,
      "Ġdoesn": 3540,
      "Ġheaders": 3541,
      "Ġone": 3542,
      "created": 3543,
      "!\",": 3544,
      "sent": 3545,
      "Ġsc": 3546,
      "serve": 3547,
      "Ġur": 3548,
      "Ġdf": 3549,
      "[@": 3550,
      "blocksize": 3551,
      "ible": 3552,
      "allocate": 3553,
      "addr": 3554,
      "letion": 3555,
      "tile": 3556,
      "Ġinit": 3557,
      "instruction": 3558,
      "Ġbundle": 3559,
      "Ġ'/": 3560,
      "serviceimpl": 3561,
      "Ġ\"=\"": 3562,
      "mapmode": 3563,
      "Ġpri": 3564,
      "lick": 3565,
      "fili": 3566,
      "prediction": 3567,
      "Ġbytecount": 3568,
      "lat": 3569,
      "getlength": 3570,
      "Ġpdf": 3571,
      "exp": 3572,
      "Ġhttprequest": 3573,
      "Ġtile": 3574,
      "media": 3575,
      "getsimple": 3576,
      ")))": 3577,
      "finished": 3578,
      "},{\\\"": 3579,
      "Ġdoversioncheck": 3580,
      "interruptedexception": 3581,
      "tpa": 3582,
      "tw": 3583,
      "():": 3584,
      "dify": 3585,
      "://\"": 3586,
      "external": 3587,
      "tmpdir": 3588,
      "Ġencrypted": 3589,
      "stable": 3590,
      "registro": 3591,
      "classpathentry": 3592,
      "contig": 3593,
      "Ġreply": 3594,
      "Ġwhen": 3595,
      "shif": 3596,
      "permission": 3597,
      "Ġcanal": 3598,
      "Ġte": 3599,
      "Ġstra": 3600,
      "mapper": 3601,
      "Ġyou": 3602,
      "sae": 3603,
      "Ġnow": 3604,
      "Ġconverttohex": 3605,
      "jarfile": 3606,
      "audio": 3607,
      "ploy": 3608,
      "rinfo": 3609,
      "Ġzis": 3610,
      "fragment": 3611,
      "spath": 3612,
      "proces": 3613,
      "Ġbufferedimage": 3614,
      "\\\"><": 3615,
      "ify": 3616,
      "Ġobtain": 3617,
      "passwd": 3618,
      "rop": 3619,
      "Ġtag": 3620,
      "ias": 3621,
      "scale": 3622,
      "Ġhome": 3623,
      "setlastmodified": 3624,
      "aproject": 3625,
      "emode": 3626,
      "Ġpersist": 3627,
      "est": 3628,
      "nto": 3629,
      "rate": 3630,
      "train": 3631,
      "xf": 3632,
      "tpro": 3633,
      "mina": 3634,
      "tt": 3635,
      "getquery": 3636,
      "unds": 3637,
      "oai": 3638,
      "Ġtokens": 3639,
      "Ġcut": 3640,
      "ubble": 3641,
      "srcidx": 3642,
      "iversrcidx": 3643,
      "/>\\": 3644,
      "gi": 3645,
      "tpart": 3646,
      "70": 3647,
      "guid": 3648,
      "responsemodificationdefinition": 3649,
      "price": 3650,
      "setentity": 3651,
      "..\",": 3652,
      "ordinal": 3653,
      "warnings": 3654,
      "********": 3655,
      "owl": 3656,
      "Ġstop": 3657,
      "intvalue": 3658,
      "jsonobject": 3659,
      "_\"": 3660,
      "setvariable": 3661,
      "unic": 3662,
      "Ġresources": 3663,
      "css": 3664,
      "information": 3665,
      "applet": 3666,
      "Ġcm": 3667,
      "Ġcomplete": 3668,
      "composition": 3669,
      "Ġrunnable": 3670,
      "ightstreamreader": 3671,
      "Ġstraightstreamreader": 3672,
      ".\"": 3673,
      "rpc": 3674,
      "Ġsecret": 3675,
      "bile": 3676,
      "termin": 3677,
      "Ġencoded": 3678,
      "Ġamount": 3679,
      "ssl": 3680,
      "Ġ#": 3681,
      "()...\",": 3682,
      "sleep": 3683,
      "Ġreadcount": 3684,
      "bs": 3685,
      "Ġgoogle": 3686,
      ")\",": 3687,
      "Ġstore": 3688,
      "Ġdestdir": 3689,
      "Ġnetwork": 3690,
      "raction": 3691,
      "Ġhashset": 3692,
      "mem": 3693,
      "Ġmust": 3694,
      "Ġdaoexception": 3695,
      "ah": 3696,
      "lecu": 3697,
      "student": 3698,
      "jpg": 3699,
      "zz": 3700,
      "Ġmimetype": 3701,
      "newline": 3702,
      "Ġcd": 3703,
      "Ġgetconnection": 3704,
      "getimage": 3705,
      "Ġnumberof": 3706,
      "aly": 3707,
      "loading": 3708,
      "stringutils": 3709,
      "arraylist": 3710,
      "contents": 3711,
      "Ġparameters": 3712,
      "getheaderfield": 3713,
      "ynt": 3714,
      "Ġtemporary": 3715,
      "Ġpe": 3716,
      "options": 3717,
      "ait": 3718,
      "getsource": 3719,
      "engine": 3720,
      "Ġgd": 3721,
      "xp": 3722,
      "press": 3723,
      "cancel": 3724,
      "handle": 3725,
      "divide": 3726,
      "Ġsplit": 3727,
      "pto": 3728,
      "resh": 3729,
      "Ġhandler": 3730,
      "Ġgene": 3731,
      "aux": 3732,
      "Ġ\")\");": 3733,
      "strings": 3734,
      "missing": 3735,
      "Ġuserid": 3736,
      "hellowor": 3737,
      "bd": 3738,
      "segment": 3739,
      "Ġfr": 3740,
      "Ġdecoder": 3741,
      "perties": 3742,
      "jarentry": 3743,
      "ins": 3744,
      "Ġcommandline": 3745,
      "putation": 3746,
      "getrowdimension": 3747,
      "gb": 3748,
      "pression": 3749,
      "way": 3750,
      "Ġsaxparser": 3751,
      "Ġsk": 3752,
      "Ġ\"\\\"\");": 3753,
      "Ġvarname": 3754,
      "ubblesort": 3755,
      "wi": 3756,
      "Ġactionperformed": 3757,
      "atname": 3758,
      "ctive": 3759,
      "teration": 3760,
      "aowl": 3761,
      "Ġsalidaowl": 3762,
      "Ġfileto": 3763,
      "Ġdatasource": 3764,
      "begin": 3765,
      "setenabled": 3766,
      "Ġzipout": 3767,
      "docroot": 3768,
      "received": 3769,
      "[][]": 3770,
      "fullpath": 3771,
      "Ġescaped": 3772,
      "dl": 3773,
      "arr": 3774,
      "roles": 3775,
      "Ġinformation": 3776,
      "limit": 3777,
      "profile": 3778,
      "getlocal": 3779,
      "Ġjdbc": 3780,
      "ftpclient": 3781,
      "Ġavail": 3782,
      "Ġretrieve": 3783,
      "director": 3784,
      "Ġcopying": 3785,
      "connecttimeout": 3786,
      "dr": 3787,
      "mobile": 3788,
      "Ġaccess": 3789,
      "try": 3790,
      "ume": 3791,
      "ffect": 3792,
      "datafile": 3793,
      "creator": 3794,
      "nature": 3795,
      "neededrsrc": 3796,
      "Ġtargetchannel": 3797,
      "ud": 3798,
      "()\");": 3799,
      "cho": 3800,
      "connector": 3801,
      "currentthread": 3802,
      "(\"/\"))": 3803,
      "getcanonicalpath": 3804,
      "Ġrel": 3805,
      "notation": 3806,
      "cheme": 3807,
      "readable": 3808,
      "getdate": 3809,
      "Ġdel": 3810,
      "ationexception": 3811,
      "ressed": 3812,
      "pie": 3813,
      "Ġ//": 3814,
      "destdir": 3815,
      "Ġconver": 3816,
      "lecule": 3817,
      "ish": 3818,
      "Ġdestchannel": 3819,
      "Ġerrors": 3820,
      "company": 3821,
      "Ġmake": 3822,
      "launch": 3823,
      "Ġjframe": 3824,
      "threads": 3825,
      "Ġshow": 3826,
      "character": 3827,
      "codec": 3828,
      "ffff": 3829,
      "hashmap": 3830,
      "Ġguiutilities": 3831,
      "driver": 3832,
      "mock": 3833,
      "gps": 3834,
      "Ġswitch": 3835,
      "getuser": 3836,
      "Ġsuch": 3837,
      "readobject": 3838,
      "ulo": 3839,
      "Ġtransaction": 3840,
      "Ġapplication": 3841,
      "Ġhave": 3842,
      "gc": 3843,
      "Ġrollback": 3844,
      "geterror": 3845,
      "vt": 3846,
      "lem": 3847,
      "Ġistream": 3848,
      "peg": 3849,
      "zone": 3850,
      "stemp": 3851,
      "module": 3852,
      "digit": 3853,
      "make": 3854,
      "Ġenv": 3855,
      "Ġchanged": 3856,
      "getchild": 3857,
      "Ġloc": 3858,
      "stm": 3859,
      "1000": 3860,
      "Ġrepository": 3861,
      "simpl": 3862,
      "cumen": 3863,
      "Ġcor": 3864,
      "Ġbody": 3865,
      "Ġcore": 3866,
      "sel": 3867,
      "(\"{": 3868,
      "Ġfilelength": 3869,
      "sschema": 3870,
      "cture": 3871,
      "tivator": 3872,
      "dobject": 3873,
      "stract": 3874,
      "area": 3875,
      "reputation": 3876,
      "Ġnsae": 3877,
      "Ġkeystore": 3878,
      "thumb": 3879,
      "support": 3880,
      "Ġworking": 3881,
      "Ġcertificate": 3882,
      "rdf": 3883,
      "ados": 3884,
      "getp": 3885,
      "Ġstar": 3886,
      "apache": 3887,
      "Ġdes": 3888,
      "vio": 3889,
      "elementat": 3890,
      "Ġcity": 3891,
      "lipse": 3892,
      "Ġbinary": 3893,
      "detail": 3894,
      "Ġare": 3895,
      "Ġyour": 3896,
      "tification": 3897,
      "Ġquerystring": 3898,
      "ban": 3899,
      "Ġlocale": 3900,
      "race": 3901,
      "vocation": 3902,
      "Ġoffer": 3903,
      "shift": 3904,
      "ssdf": 3905,
      "setvalue": 3906,
      "mpar": 3907,
      "plaintext": 3908,
      "httpclient": 3909,
      "rement": 3910,
      "ric": 3911,
      "verage": 3912,
      "Ġentryname": 3913,
      "Ġassertnotnull": 3914,
      "Ġtablename": 3915,
      "Ġdecodefiletofile": 3916,
      "Ġnamevaluepairs": 3917,
      "reet": 3918,
      "Ġ\",\"": 3919,
      ".*": 3920,
      "logging": 3921,
      "problem": 3922,
      "Ġdialog": 3923,
      "Ġunzip": 3924,
      "<?>": 3925,
      "Ġmodify": 3926,
      "instr": 3927,
      "Ġresol": 3928,
      "crypt": 3929,
      "30": 3930,
      "Ġprovider": 3931,
      "Ġnewlink": 3932,
      "2001": 3933,
      "rel": 3934,
      "remaining": 3935,
      "execution": 3936,
      "Ġresponsecode": 3937,
      "changed": 3938,
      "Ġlinked": 3939,
      "Ġarti": 3940,
      "targetdirectory": 3941,
      "yntax": 3942,
      "Ġempty": 3943,
      "Ġontologia": 3944,
      "certificate": 3945,
      "Ġstarttime": 3946,
      "Ġorder": 3947,
      "Ġformatter": 3948,
      "codemp": 3949,
      "chetype": 3950,
      "cause": 3951,
      "ioutils": 3952,
      "route": 3953,
      "ground": 3954,
      "relative": 3955,
      "bum": 3956,
      "retrieve": 3957,
      "identity": 3958,
      "Ġutils": 3959,
      "filial": 3960,
      "Ġgps": 3961,
      "Ġfilecopyexception": 3962,
      "setname": 3963,
      "Ġcached": 3964,
      "Ġcbuf": 3965,
      "Ġnews": 3966,
      "attributeinfo": 3967,
      "nonce": 3968,
      "cd": 3969,
      "Ġcp": 3970,
      "Ġoutc": 3971,
      "jedit": 3972,
      "cast": 3973,
      "Ġ\"-\"": 3974,
      "licy": 3975,
      "resourcename": 3976,
      "newdocument": 3977,
      "Ġbutton": 3978,
      "getsession": 3979,
      "Ġplaintext": 3980,
      "Ġwill": 3981,
      "Ġsegment": 3982,
      "Ġsubprogressmonitor": 3983,
      "Ġmessages": 3984,
      "summary": 3985,
      "tes": 3986,
      "confi": 3987,
      ":\\\\": 3988,
      "Ġnames": 3989,
      "Ġusuario": 3990,
      "\\\"/>\\": 3991,
      "buildingtime": 3992,
      "links": 3993,
      "Ġri": 3994,
      "Ġtxt": 3995,
      "ï¿½ï¿½ï¿½": 3996,
      "Ġbubblesort": 3997,
      "archiveentry": 3998,
      ":/": 3999,
      "limi": 4000,
      "urlstr": 4001,
      "appendchild": 4002,
      "spital": 4003,
      "mercado": 4004,
      "Ġrequi": 4005,
      "Ġmapp": 4006,
      "Ġanother": 4007,
      "fic": 4008,
      "cons": 4009,
      "zer": 4010,
      "attributes": 4011,
      "pipe": 4012,
      "directive": 4013,
      "checkout": 4014,
      "getoutput": 4015,
      "kit": 4016,
      "getmethod": 4017,
      "Ġregistro": 4018,
      "dtos": 4019,
      "Ġssl": 4020,
      "amount": 4021,
      "cond": 4022,
      "cand": 4023,
      "rator": 4024,
      "streamwriter": 4025,
      "copied": 4026,
      "Ġcusto": 4027,
      "filefilter": 4028,
      "Ġarr": 4029,
      "Ġidx": 4030,
      "jax": 4031,
      "install": 4032,
      "Ġcreating": 4033,
      "concat": 4034,
      "Ġlda": 4035,
      "completion": 4036,
      "Ġcounter": 4037,
      "Ġtimestamp": 4038,
      "getoptionvalue": 4039,
      "Ġtypes": 4040,
      "secret": 4041,
      "getsystem": 4042,
      "copylarge": 4043,
      "edfile": 4044,
      "Ġdbconn": 4045,
      "getpropertyvalue": 4046,
      "sys": 4047,
      "getcontext": 4048,
      "setmessage": 4049,
      "Ġlibrary": 4050,
      "yes": 4051,
      "setup": 4052,
      "Ġrset": 4053,
      ",\"": 4054,
      "Ġmas": 4055,
      "ucer": 4056,
      "completepath": 4057,
      "origen": 4058,
      "setvisible": 4059,
      "Ġaf": 4060,
      "Ġgive": 4061,
      "tas": 4062,
      "baseurl": 4063,
      "services": 4064,
      "Ġrender": 4065,
      "aw": 4066,
      "vod": 4067,
      "Ġstu": 4068,
      "board": 4069,
      "Ġavailable": 4070,
      "getselectedfile": 4071,
      "dt": 4072,
      "ow": 4073,
      "setdate": 4074,
      "tob": 4075,
      "Ġcopied": 4076,
      "answ": 4077,
      "ast": 4078,
      "exec": 4079,
      "encrypt": 4080,
      "ontology": 4081,
      "Ġenc": 4082,
      "posal": 4083,
      "Ġspecifi": 4084,
      "setconnecttimeout": 4085,
      "toprocess": 4086,
      "hor": 4087,
      "Ġsing": 4088,
      "29": 4089,
      "Ġjb": 4090,
      "Ġcr": 4091,
      "writeobject": 4092,
      "processing": 4093,
      "Ġtab": 4094,
      "islo": 4095,
      "isset": 4096,
      "(\"/\")": 4097,
      "directives": 4098,
      "Ġencodefiletofile": 4099,
      "alignment": 4100,
      "lr": 4101,
      "feature": 4102,
      "none": 4103,
      "limina": 4104,
      "dbdyn": 4105,
      "getcolumndimension": 4106,
      "Ġ=\");": 4107,
      "Ġprep": 4108,
      "transp": 4109,
      "21": 4110,
      "ations": 4111,
      "ind": 4112,
      "Ġrc": 4113,
      "prefilter": 4114,
      "elementtext": 4115,
      "Ġany": 4116,
      "sethome": 4117,
      "lotdata": 4118,
      "stoexcludecomplete": 4119,
      "stoexcludelinkswithin": 4120,
      "'\"": 4121,
      "zbin": 4122,
      "Ġbit": 4123,
      "Ġinstruction": 4124,
      "Ġmaster": 4125,
      "bution": 4126,
      "generate": 4127,
      "car": 4128,
      "oom": 4129,
      "recipe": 4130,
      "Ġmalformedurlexception": 4131,
      "metrics": 4132,
      "couldn": 4133,
      "center": 4134,
      "fri": 4135,
      "Ġyear": 4136,
      "Ġsignature": 4137,
      "Ġmapping": 4138,
      "bose": 4139,
      "Ġ32": 4140,
      "ga": 4141,
      "getruntime": 4142,
      "nodes": 4143,
      "Ġsupported": 4144,
      "Ġldapexception": 4145,
      "getpropertyvalueasstring": 4146,
      "Ġ->": 4147,
      "=\\\"\");": 4148,
      "Ġcompress": 4149,
      "Ġconstan": 4150,
      "till": 4151,
      "getde": 4152,
      "gui": 4153,
      "authentication": 4154,
      "fatal": 4155,
      "Ġcommon": 4156,
      "primary": 4157,
      "Ġapi": 4158,
      "bounds": 4159,
      "connected": 4160,
      "ispo": 4161,
      "getlastmodified": 4162,
      "pedfile": 4163,
      "correct": 4164,
      "Ġdot": 4165,
      "Ġsources": 4166,
      "getdata": 4167,
      "outil": 4168,
      "offer": 4169,
      "temporary": 4170,
      "Ġtempdir": 4171,
      "Ġgram": 4172,
      "Ġshould": 4173,
      "gic": 4174,
      "Ġreadlen": 4175,
      "damage": 4176,
      "coes": 4177,
      "souboru": 4178,
      "perjob": 4179,
      "getresources": 4180,
      "requiredtypename": 4181,
      "requiredtypeid": 4182,
      "requiredtypecategoryid": 4183,
      "requiredtypevolume": 4184,
      "creating": 4185,
      "activityname": 4186,
      "activityid": 4187,
      "requiredtypegroupname": 4188,
      "requiredtypegroupid": 4189,
      "damageperjob": 4190,
      "follow": 4191,
      "valu": 4192,
      "httppost": 4193,
      "render": 4194,
      "Ġremove": 4195,
      "xmlschema": 4196,
      "ymbols": 4197,
      "unique": 4198,
      "]/": 4199,
      "senderror": 4200,
      "personal": 4201,
      "cipal": 4202,
      "free": 4203,
      "soft": 4204,
      "Ġ\"/\");": 4205,
      "Ġcate": 4206,
      "amento": 4207,
      "Ġappend": 4208,
      "Ġtint": 4209,
      "Ġinvalid": 4210,
      "dido": 4211,
      "getsimpleelementtext": 4212,
      "(-": 4213,
      "ian": 4214,
      "Ġexten": 4215,
      "outputdir": 4216,
      "lank": 4217,
      "Ġpermission": 4218,
      "play": 4219,
      "classnotfoundexception": 4220,
      "texta": 4221,
      "2048": 4222,
      "Ġ}));": 4223,
      "Ġthat": 4224,
      "enter": 4225,
      "userreputation": 4226,
      "mig": 4227,
      "za": 4228,
      "suppress": 4229,
      "csv": 4230,
      "Ġusing": 4231,
      "suppresswarnings": 4232,
      "getv": 4233,
      "nome": 4234,
      "Ġpanel": 4235,
      "Ġbuildexception": 4236,
      "arti": 4237,
      "move": 4238,
      "ol": 4239,
      "cookies": 4240,
      "logout": 4241,
      "groups": 4242,
      "administ": 4243,
      "sources": 4244,
      "Ġrange": 4245,
      "protoco": 4246,
      "bigdecimal": 4247,
      "Ġgrammar": 4248,
      "license": 4249,
      "ldap": 4250,
      "pect": 4251,
      "Ġdomain": 4252,
      "predicate": 4253,
      "Ġxsi": 4254,
      "constant": 4255,
      "href": 4256,
      "getroot": 4257,
      "ssible": 4258,
      "yste": 4259,
      "finalstate": 4260,
      "Ġmissing": 4261,
      "dist": 4262,
      "ditem": 4263,
      "imum": 4264,
      "xsi": 4265,
      "Ġattach": 4266,
      "Ġcla": 4267,
      "exist": 4268,
      "siden": 4269,
      "Ġclassnotfoundexception": 4270,
      "initpoints": 4271,
      "ful": 4272,
      "Ġtop": 4273,
      "Ġproc": 4274,
      "campo": 4275,
      "ice": 4276,
      "andtablename": 4277,
      "sschemaandtablename": 4278,
      "game": 4279,
      "stype": 4280,
      "Ġquote": 4281,
      "section": 4282,
      "mouse": 4283,
      "***": 4284,
      "getreplycode": 4285,
      "blue": 4286,
      "Ġqual": 4287,
      "preferences": 4288,
      "oid": 4289,
      "Ġjoin": 4290,
      "verbose": 4291,
      "redirects": 4292,
      "dot": 4293,
      "vis": 4294,
      "igno": 4295,
      "umni": 4296,
      "specifi": 4297,
      "requiredtypeicon": 4298,
      "Ġentrada": 4299,
      "Ġtrain": 4300,
      "Ġaudio": 4301,
      "availupd": 4302,
      "Ġprotocol": 4303,
      "classes": 4304,
      "notify": 4305,
      "Ġtokenizer": 4306,
      "organization": 4307,
      "fro": 4308,
      "Ġinstallclass": 4309,
      "tentencoding": 4310,
      "preparedstatement": 4311,
      "ich": 4312,
      "readtimeout": 4313,
      "entryset": 4314,
      "resolve": 4315,
      "teditpart": 4316,
      "getsize": 4317,
      "aller": 4318,
      "pel": 4319,
      "....": 4320,
      "Ġbean": 4321,
      "chars": 4322,
      "Ġchildren": 4323,
      "medi": 4324,
      "Ġtoo": 4325,
      "Ġuploaded": 4326,
      "getfirstchild": 4327,
      "slot": 4328,
      "ross": 4329,
      "Ġjarname": 4330,
      "ility": 4331,
      "fetch": 4332,
      "Ġconnector": 4333,
      "maccess": 4334,
      "23": 4335,
      "hb": 4336,
      "decomposition": 4337,
      "Ġpwd": 4338,
      "Ġselect": 4339,
      "ki": 4340,
      "Ġpipe": 4341,
      "Ġgetmethod": 4342,
      "Ġsecure": 4343,
      "firstname": 4344,
      "asse": 4345,
      "Ġapplet": 4346,
      "\\\"},{\\\"": 4347,
      "cla": 4348,
      "jo": 4349,
      "domaccess": 4350,
      "Ġblue": 4351,
      "Ġconformance": 4352,
      "Ġwindo": 4353,
      "opcode": 4354,
      "bank": 4355,
      "compressed": 4356,
      "ftpreply": 4357,
      "ispositive": 4358,
      "cion": 4359,
      "mgr": 4360,
      "setbusiness": 4361,
      "updated": 4362,
      "numbers": 4363,
      "refresh": 4364,
      "byname": 4365,
      "Ġretval": 4366,
      "cured": 4367,
      "eclipse": 4368,
      "Ġpredicatemi": 4369,
      "Ġcsv": 4370,
      "Ġhashtable": 4371,
      "dep": 4372,
      "Ġ'%": 4373,
      "actionlistener": 4374,
      "tn": 4375,
      "Ġfilesystem": 4376,
      "soption": 4377,
      "messa": 4378,
      "Ġ(!(": 4379,
      "hide": 4380,
      "molecule": 4381,
      "Ġgetmd": 4382,
      "voke": 4383,
      "Ġsecretkey": 4384,
      "ispositivecompletion": 4385,
      "rotate": 4386,
      "Ġchallenge": 4387,
      "Ġobjectoutputstream": 4388,
      "setfiletype": 4389,
      "exionbd": 4390,
      "policy": 4391,
      "Ġoccured": 4392,
      "addedtable": 4393,
      "deletedtable": 4394,
      "Ġmappedbytebuffer": 4395,
      "fn": 4396,
      "Ġfichier": 4397,
      "Ġlicense": 4398,
      "Ġadded": 4399,
      "variables": 4400,
      "stal": 4401,
      "teri": 4402,
      "timer": 4403,
      "(\"\")": 4404,
      "foaf": 4405,
      "Ġxsl": 4406,
      "Ġmetadata": 4407,
      "gne": 4408,
      "maps": 4409,
      "hasoption": 4410,
      "Ġks": 4411,
      "setid": 4412,
      "(\"\",": 4413,
      "ann": 4414,
      "Ġok": 4415,
      "functions": 4416,
      "Ġstudent": 4417,
      ":\");": 4418,
      "Ġplease": 4419,
      "eno": 4420,
      "Ġstatuscode": 4421,
      "=\"))": 4422,
      "getprotocol": 4423,
      "rinputstream": 4424,
      "Ġsuffix": 4425,
      "sets": 4426,
      "Ġlatest": 4427,
      "Ġxfile": 4428,
      "Ġdbconnection": 4429,
      "Ġpostmethod": 4430,
      "gettest": 4431,
      "Ġmid": 4432,
      "Ġprintln": 4433,
      "Ġnb": 4434,
      "writable": 4435,
      "vies": 4436,
      "Ġobjectinputstream": 4437,
      "piso": 4438,
      "nmr": 4439,
      "cliente": 4440,
      "sure": 4441,
      "slash": 4442,
      "================================": 4443,
      "getemail": 4444,
      "Ġrequired": 4445,
      "torexception": 4446,
      "Ġthumb": 4447,
      "Ġextract": 4448,
      "tet": 4449,
      "ahoo": 4450,
      "Ġextends": 4451,
      "pager": 4452,
      "analy": 4453,
      "printf": 4454,
      "waitcursor": 4455,
      "Ġcrypt": 4456,
      "nate": 4457,
      "urlconn": 4458,
      "getlocation": 4459,
      "ula": 4460,
      "queue": 4461,
      "prestat": 4462,
      "Ġsetpreparestatement": 4463,
      "configurationexception": 4464,
      "gettextcontent": 4465,
      "nte": 4466,
      "fileserver": 4467,
      "Ġwar": 4468,
      "persist": 4469,
      "Ġvari": 4470,
      "Ġaccount": 4471,
      "getnext": 4472,
      "Ġlinesep": 4473,
      "Ġ\"]\");": 4474,
      "rowser": 4475,
      "Ġimageicon": 4476,
      "Ġreg": 4477,
      "Ġhuc": 4478,
      "Ġdebugfile": 4479,
      "aa": 4480,
      "public": 4481,
      "ferred": 4482,
      "faxtools": 4483,
      "Ġmatchevent": 4484,
      "fla": 4485,
      "getserver": 4486,
      "Ġjbutton": 4487,
      "xmldocument": 4488,
      "authorization": 4489,
      "fm": 4490,
      "giversrcidx": 4491,
      "notification": 4492,
      "simp": 4493,
      "Ġwe": 4494,
      "foo": 4495,
      "Ġag": 4496,
      "stored": 4497,
      "Ġobtainuserreputation": 4498,
      "Ġcri": 4499,
      "community": 4500,
      "(\"/\");": 4501,
      "spo": 4502,
      "Ġimagename": 4503,
      "Ġentityutils": 4504,
      "nmrshift": 4505,
      "!!": 4506,
      "amp": 4507,
      "Ġmer": 4508,
      "sfile": 4509,
      "Ġidentity": 4510,
      "shutdown": 4511,
      "minus": 4512,
      "vars": 4513,
      "fileto": 4514,
      "chr": 4515,
      "Ġsequence": 4516,
      "rootdir": 4517,
      "ving": 4518,
      "Ġingre": 4519,
      "\\\">\\": 4520,
      "checksum": 4521,
      "Ġurlencoded": 4522,
      "textarea": 4523,
      "ange": 4524,
      "doarqui": 4525,
      "scan": 4526,
      "/*": 4527,
      "join": 4528,
      "Ġpub": 4529,
      "Ġstringreader": 4530,
      "cls": 4531,
      "tit": 4532,
      "Ġsty": 4533,
      "Ġjcr": 4534,
      "hy": 4535,
      "Ġmonth": 4536,
      "rb": 4537,
      "Ġcos": 4538,
      "cial": 4539,
      "192": 4540,
      "Ġnewzbin": 4541,
      "settime": 4542,
      "Ġstd": 4543,
      "Ġbeen": 4544,
      "Ġfiletype": 4545,
      "mpro": 4546,
      "ioe": 4547,
      "encrypted": 4548,
      "followredirects": 4549,
      "ystemexception": 4550,
      "60": 4551,
      "addrequest": 4552,
      "Ġinet": 4553,
      "doption": 4554,
      "hour": 4555,
      "Ġunreadable": 4556,
      "getplugin": 4557,
      "ora": 4558,
      "prote": 4559,
      "invtype": 4560,
      "Ġchemical": 4561,
      "22": 4562,
      "into": 4563,
      "Ġxmlstreamwriter": 4564,
      "domutil": 4565,
      "Ġexample": 4566,
      "Ġhttpmethod": 4567,
      "rency": 4568,
      "]\",": 4569,
      "disc": 4570,
      "appserviceimpl": 4571,
      "checked": 4572,
      "Ġmethods": 4573,
      "(\"(": 4574,
      "sole": 4575,
      "Ġoccur": 4576,
      "peer": 4577,
      "nmrshiftdb": 4578,
      "locity": 4579,
      "nullpointerexception": 4580,
      "incorrect": 4581,
      "team": 4582,
      "Ġfname": 4583,
      "Ġvalidate": 4584,
      "ams": 4585,
      "Ġarrayindexoutofboundsexception": 4586,
      "speed": 4587,
      "Ġadap": 4588,
      "lef": 4589,
      "getjsonobject": 4590,
      "Ġoutbuf": 4591,
      "addoption": 4592,
      "ctx": 4593,
      "hosts": 4594,
      "blank": 4595,
      "cm": 4596,
      "xsd": 4597,
      "newpath": 4598,
      "Ġzipin": 4599,
      "Ġresourcename": 4600,
      "sidency": 4601,
      "give": 4602,
      "Ġprogram": 4603,
      "bos": 4604,
      "Ġ\"{": 4605,
      "annotation": 4606,
      "codi": 4607,
      "asa": 4608,
      "exc": 4609,
      "Ġbigdecimal": 4610,
      "structure": 4611,
      "externalform": 4612,
      "news": 4613,
      "Ġconstruct": 4614,
      "Ġtofilename": 4615,
      "users": 4616,
      "uctivity": 4617,
      "Ġavailupd": 4618,
      "getparams": 4619,
      "Ġhr": 4620,
      "oose": 4621,
      "getcontextclassloader": 4622,
      "Ġdbo": 4623,
      "atable": 4624,
      "Ġtohex": 4625,
      "Ġtrack": 4626,
      "video": 4627,
      "Ġmatcheventfactory": 4628,
      "Ġsoubor": 4629,
      "geten": 4630,
      "getconfig": 4631,
      "factor": 4632,
      "Ġrdf": 4633,
      "holder": 4634,
      "htt": 4635,
      "limiter": 4636,
      "lerror": 4637,
      "Ġpoint": 4638,
      "bn": 4639,
      "click": 4640,
      "toexternalform": 4641,
      "Ġfido": 4642,
      "htm": 4643,
      "Ġdistri": 4644,
      "mysql": 4645,
      "Ġignored": 4646,
      "Ġlinkedlist": 4647,
      "Ġij": 4648,
      "getx": 4649,
      "luc": 4650,
      "items": 4651,
      "Ġsecurity": 4652,
      "Ġserializer": 4653,
      "(\"***": 4654,
      "Ġstringutils": 4655,
      "Ġindexcounter": 4656,
      "Ġ\"_\"": 4657,
      "rossref": 4658,
      "blob": 4659,
      "dav": 4660,
      "pedido": 4661,
      "ather": 4662,
      "('\\": 4663,
      "editor": 4664,
      "reverse": 4665,
      "sso": 4666,
      "savepoint": 4667,
      "ude": 4668,
      "Ġfich": 4669,
      "Ġiso": 4670,
      "light": 4671,
      "lastname": 4672,
      "searcher": 4673,
      "Ġsearcher": 4674,
      "uk": 4675,
      "memory": 4676,
      "addparameter": 4677,
      "Ġmanager": 4678,
      "smart": 4679,
      "Ġfileout": 4680,
      "toread": 4681,
      "aitcursor": 4682,
      "domaccessfile": 4683,
      "lope": 4684,
      "Ġ</": 4685,
      "imagefile": 4686,
      "tpassword": 4687,
      "protocolexception": 4688,
      "Ġï¿½ï¿½ï¿½ï¿½": 4689,
      "Ġprintstream": 4690,
      "mailsetting": 4691,
      "/\");": 4692,
      "rule": 4693,
      "icalviewer": 4694,
      "addactionlistener": 4695,
      "hospital": 4696,
      "Ġafter": 4697,
      "zos": 4698,
      "getrealpath": 4699,
      "ular": 4700,
      "ventry": 4701,
      "vious": 4702,
      "Ġconstants": 4703,
      "tie": 4704,
      "()[": 4705,
      "ando": 4706,
      "imagen": 4707,
      "filesize": 4708,
      "Ġ\"\"));": 4709,
      "ingre": 4710,
      "cos": 4711,
      "...\",": 4712,
      "combobox": 4713,
      "bot": 4714,
      "Ġsof": 4715,
      "responsecode": 4716,
      "Ġsaxexception": 4717,
      "Ġattributes": 4718,
      "trust": 4719,
      "Ġspecified": 4720,
      "bid": 4721,
      "lsa": 4722,
      "Ġexecution": 4723,
      "infodto": 4724,
      "signaturefacet": 4725,
      "basicinfodto": 4726,
      "getcodeattributeinfo": 4727,
      "invtypebasicinfodto": 4728,
      "global": 4729,
      "00000": 4730,
      "ivemode": 4731,
      "prt": 4732,
      "rma": 4733,
      "statuscode": 4734,
      "overwrite": 4735,
      "releaseconnection": 4736,
      "ql": 4737,
      "rans": 4738,
      "addelement": 4739,
      "Ġseed": 4740,
      "showw": 4741,
      "changeworkingdirectory": 4742,
      "Ġcalculation": 4743,
      "fileutils": 4744,
      "umber": 4745,
      "Ġuuid": 4746,
      "Ġlock": 4747,
      "Ġdefinition": 4748,
      "Ġobjects": 4749,
      "Ġallow": 4750,
      "')\");": 4751,
      "getlong": 4752,
      "spa": 4753,
      "Ġjedit": 4754,
      "Ġcod": 4755,
      "Ġprev": 4756,
      "plugins": 4757,
      "Ġrank": 4758,
      "hidewaitcursor": 4759,
      "showwaitcursor": 4760,
      "player": 4761,
      "derer": 4762,
      "(\"--": 4763,
      "Ġes": 4764,
      "dof": 4765,
      "Ġprofile": 4766,
      "filesystem": 4767,
      "bl": 4768,
      "Ġeno": 4769,
      "disk": 4770,
      "pop": 4771,
      "gorian": 4772,
      "goriancalendar": 4773,
      "that": 4774,
      "ador": 4775,
      "timage": 4776,
      "album": 4777,
      "Ġrut": 4778,
      "Ġsm": 4779,
      "setexception": 4780,
      "there": 4781,
      "ditional": 4782,
      "grape": 4783,
      "smartgrape": 4784,
      "/?": 4785,
      "sheet": 4786,
      "Ġstack": 4787,
      "uncate": 4788,
      "Ġgetnextline": 4789,
      "28": 4790,
      "_\",": 4791,
      "Ġreal": 4792,
      "reason": 4793,
      "appro": 4794,
      "Ġhi": 4795,
      "Ġsourceout": 4796,
      "Ġ\"/\";": 4797,
      "Ġbest": 4798,
      "latest": 4799,
      "origin": 4800,
      "nws": 4801,
      "Ġbg": 4802,
      "ater": 4803,
      "mentity": 4804,
      "svn": 4805,
      "Ġaux": 4806,
      "publish": 4807,
      "math": 4808,
      "newlink": 4809,
      "andclose": 4810,
      "romat": 4811,
      "copystream": 4812,
      "Ġbuffersize": 4813,
      "Ġpathdst": 4814,
      "help": 4815,
      "getnodevalue": 4816,
      "Ġenough": 4817,
      "ipar": 4818,
      "isyntax": 4819,
      "iparchive": 4820,
      "openxmldocument": 4821,
      "repor": 4822,
      "numberformatexception": 4823,
      "getresponsebody": 4824,
      "Ġwebxml": 4825,
      "Ġneededrsrc": 4826,
      "Ġtrim": 4827,
      "vance": 4828,
      "soap": 4829,
      "Ġstored": 4830,
      "saxexception": 4831,
      "sun": 4832,
      "attemp": 4833,
      ">\",": 4834,
      "Ġblob": 4835,
      "bernate": 4836,
      "marsh": 4837,
      "geturi": 4838,
      "cessexception": 4839,
      "())));": 4840,
      "gingexception": 4841,
      "Ġingredients": 4842,
      "lap": 4843,
      "nexo": 4844,
      "newdocumentbuilder": 4845,
      "leffect": 4846,
      "ers": 4847,
      "Ġseparator": 4848,
      "recipient": 4849,
      "plus": 4850,
      "ek": 4851,
      "elimina": 4852,
      "urned": 4853,
      "gestor": 4854,
      "Ġjavacore": 4855,
      "Ġ\"\\\\": 4856,
      "revision": 4857,
      "quota": 4858,
      "bi": 4859,
      "Ġgetfile": 4860,
      "hostexception": 4861,
      "Ġupdated": 4862,
      "licant": 4863,
      "usage": 4864,
      "Ġprefilter": 4865,
      "Ġtmpprefilter": 4866,
      "stocapturelinkswithintags": 4867,
      "stocapturelinkswithinscripts": 4868,
      ">\")": 4869,
      "filetype": 4870,
      "street": 4871,
      "mpres": 4872,
      "bertas": 4873,
      "implementation": 4874,
      "Ġloading": 4875,
      "lesheet": 4876,
      "credentials": 4877,
      "asabertas": 4878,
      "mpresasabertas": 4879,
      "Ġfiletransfer": 4880,
      "Ġnor": 4881,
      "helloworldpath": 4882,
      "pat": 4883,
      "valor": 4884,
      "?,?": 4885,
      "doccontroller": 4886,
      "Ġchecksum": 4887,
      "fname": 4888,
      "xls": 4889,
      "Ġ.": 4890,
      "tpar": 4891,
      "Ġpreference": 4892,
      "Ġlistener": 4893,
      "Ġmock": 4894,
      "chararray": 4895,
      "requirement": 4896,
      "Ġcurr": 4897,
      "setcontentlength": 4898,
      "Ġrealm": 4899,
      "Ġbad": 4900,
      "Ġsort": 4901,
      "Ġvtipo": 4902,
      "formentity": 4903,
      "seticon": 4904,
      "tware": 4905,
      "Ġurlencodedformentity": 4906,
      "Ġsoftware": 4907,
      "isyntaxexception": 4908,
      "Ġprefixresolver": 4909,
      "Ġbus": 4910,
      "cour": 4911,
      "Ä¼": 4912,
      "gex": 4913,
      "verifi": 4914,
      "Ġoper": 4915,
      "nap": 4916,
      "zd": 4917,
      "hostname": 4918,
      "Ġfza": 4919,
      "Ġcls": 4920,
      ":\\": 4921,
      "Ġsaving": 4922,
      "asempresasabertas": 4923,
      "Ġcampos": 4924,
      "vodasempresasabertas": 4925,
      "Ġbitmap": 4926,
      "doarquivodasempresasabertas": 4927,
      "requirementdtos": 4928,
      "Ġdigester": 4929,
      "Ġii": 4930,
      "Ġnu": 4931,
      "Ġproces": 4932,
      "usevent": 4933,
      "ievent": 4934,
      "Ġexisting": 4935,
      "single": 4936,
      "Ġnotify": 4937,
      "ope": 4938,
      "pin": 4939,
      "sess": 4940,
      "Ġduring": 4941,
      "settitle": 4942,
      "setlayout": 4943,
      "Ġreadbytes": 4944,
      "usuario": 4945,
      "mentid": 4946,
      "Ġcomments": 4947,
      "Ġftest": 4948,
      "force": 4949,
      "perm": 4950,
      "Ġspectrum": 4951,
      "Ġpsimpl": 4952,
      "Ġretry": 4953,
      "Ġdescriptor": 4954,
      "useragent": 4955,
      "Ġrslt": 4956,
      "ebug": 4957,
      "deploy": 4958,
      "Ġphoto": 4959,
      "abort": 4960,
      "Ġtmpdir": 4961,
      "zout": 4962,
      "lect": 4963,
      "getroo": 4964,
      "errormessage": 4965,
      "imate": 4966,
      "cenario": 4967,
      "campodoarquivodasempresasabertas": 4968,
      "lding": 4969,
      "Ġdrivermanager": 4970,
      "directories": 4971,
      "getwidth": 4972,
      "Ġfinalprediction": 4973,
      "Ġdbresultset": 4974,
      "static": 4975,
      "coming": 4976,
      "Ġcommunity": 4977,
      "sentity": 4978,
      "Ġfl": 4979,
      "Ġauthentication": 4980,
      "repo": 4981,
      "setreadtimeout": 4982,
      "ido": 4983,
      "locator": 4984,
      "Ġfollow": 4985,
      "primarykey": 4986,
      "jpeg": 4987,
      "getc": 4988,
      "Ġgeturl": 4989,
      "scroll": 4990,
      "messagingexception": 4991,
      "Ġoccurred": 4992,
      "padd": 4993,
      "Ġvalueafter": 4994,
      "workspace": 4995,
      "setnull": 4996,
      "passivemode": 4997,
      "inode": 4998,
      "dn": 4999,
      "tar": 5000,
      "xx": 5001,
      "Ġbefore": 5002,
      "jecut": 5003,
      "commons": 5004,
      "ultimo": 5005,
      "compression": 5006,
      "extract": 5007,
      "wrapper": 5008,
      "%%": 5009,
      "ppt": 5010,
      "Ġlib": 5011,
      "children": 5012,
      "Ġgeneric": 5013,
      "ee": 5014,
      "dict": 5015,
      "arrays": 5016,
      "Ġfoc": 5017,
      "sktop": 5018,
      "Ġmedia": 5019,
      "webdav": 5020,
      "Ġorigin": 5021,
      "sync": 5022,
      "teg": 5023,
      "getport": 5024,
      "dits": 5025,
      "compiler": 5026,
      "ditschema": 5027,
      "mbox": 5028,
      "alg": 5029,
      "chy": 5030,
      "Ġsoldpath": 5031,
      "Ġvalueaftermd": 5032,
      "Ġcv": 5033,
      "Ġvue": 5034,
      "enc": 5035,
      "000000": 5036,
      "Ġdownloaded": 5037,
      "Ġcrl": 5038,
      "Ġ\"\")": 5039,
      "Ġsoap": 5040,
      "Ġbound": 5041,
      "ciple": 5042,
      "multipart": 5043,
      "rex": 5044,
      "nota": 5045,
      "catalog": 5046,
      "Ġgetstring": 5047,
      "Ġchain": 5048,
      "Ġargu": 5049,
      "translation": 5050,
      "debugfile": 5051,
      "Ġtheadapter": 5052,
      "codigo": 5053,
      "Ġconstructor": 5054,
      "documen": 5055,
      "Ġosw": 5056,
      "break": 5057,
      "Ġscore": 5058,
      "Ġmore": 5059,
      "Ġdateformat": 5060,
      "jarname": 5061,
      "Ġger": 5062,
      "getheight": 5063,
      "ratings": 5064,
      "bra": 5065,
      "atom": 5066,
      "toxml": 5067,
      "fech": 5068,
      "validate": 5069,
      "Ġrole": 5070,
      "}\");": 5071,
      "lok": 5072,
      "conds": 5073,
      "sim": 5074,
      "environment": 5075,
      "Ġdatastream": 5076,
      "Ġprogressmonitor": 5077,
      "sco": 5078,
      "sertion": 5079,
      "Ġoid": 5080,
      "Ġhttpstatus": 5081,
      "executemethod": 5082,
      "background": 5083,
      "Ġ\"'\"": 5084,
      "statust": 5085,
      "Ġfields": 5086,
      "pisode": 5087,
      "getheaders": 5088,
      "illa": 5089,
      "combin": 5090,
      "Ġ?\");": 5091,
      "Ġresolve": 5092,
      "04": 5093,
      "review": 5094,
      "fichier": 5095,
      "alumni": 5096,
      "Ġouts": 5097,
      "tracker": 5098,
      "getproperties": 5099,
      "setpath": 5100,
      "prev": 5101,
      "Ġfire": 5102,
      "Ġjsonarray": 5103,
      "Ġcategory": 5104,
      "]\");": 5105,
      "endof": 5106,
      "Ġdstfs": 5107,
      "vidade": 5108,
      "Ġfnfe": 5109,
      "ks": 5110,
      "Ġfragment": 5111,
      "Ġalle": 5112,
      "Ġtimeout": 5113,
      "lm": 5114,
      "filelist": 5115,
      "outage": 5116,
      "++]": 5117,
      "Ġswap": 5118,
      "Ġportal": 5119,
      "cnst": 5120,
      "Ġsaxparserfactory": 5121,
      "prtcnst": 5122,
      "ebugprintln": 5123,
      "place": 5124,
      "Ġwritten": 5125,
      "getnum": 5126,
      "magic": 5127,
      "Ġtempstring": 5128,
      "68": 5129,
      "Ġcrossref": 5130,
      "flated": 5131,
      "labels": 5132,
      "weight": 5133,
      "Ġerro": 5134,
      "Ġoperation": 5135,
      "fined": 5136,
      "51": 5137,
      "Ġnex": 5138,
      "rio": 5139,
      "sourcechannel": 5140,
      "vrage": 5141,
      "ony": 5142,
      "getn": 5143,
      "lid": 5144,
      "tochararray": 5145,
      "rowindexset": 5146,
      "Ġrss": 5147,
      "urlencoded": 5148,
      "getremote": 5149,
      "Ġest": 5150,
      "Ġrule": 5151,
      "bolsa": 5152,
      "Ġvide": 5153,
      "Ġauthentic": 5154,
      "Ġnf": 5155,
      "Ġsymbol": 5156,
      "coord": 5157,
      "approve": 5158,
      "batch": 5159,
      "Ġtc": 5160,
      "Ġtw": 5161,
      "closed": 5162,
      "Ġjlabel": 5163,
      "vided": 5164,
      "tical": 5165,
      "srccand": 5166,
      "Ġbigint": 5167,
      "Ġsupport": 5168,
      "Ġfirstname": 5169,
      "?\");": 5170,
      "dms": 5171,
      "gy": 5172,
      "Ġgame": 5173,
      "Ġxtext": 5174,
      "drop": 5175,
      "pm": 5176,
      "gene": 5177,
      "Ġgrid": 5178,
      "Ġencryp": 5179,
      "Ġjavaproject": 5180,
      "setexceptionstate": 5181,
      "ae": 5182,
      "actual": 5183,
      "Ġsu": 5184,
      "Ġsys": 5185,
      "Ġsorted": 5186,
      "Ġrating": 5187,
      "Ġtran": 5188,
      "datum": 5189,
      "Ġwrong": 5190,
      "specification": 5191,
      "whi": 5192,
      "terna": 5193,
      "10000": 5194,
      "Ġalignment": 5195,
      "recent": 5196,
      "Ġem": 5197,
      "Ġreadlength": 5198,
      "Ġbegin": 5199,
      "constraints": 5200,
      "dif": 5201,
      "custo": 5202,
      "Ġ::": 5203,
      "pptx": 5204,
      "score": 5205,
      "tz": 5206,
      "cus": 5207,
      "pom": 5208,
      "Ġvariable": 5209,
      "27": 5210,
      "scheme": 5211,
      "getdocument": 5212,
      "atna": 5213,
      "itter": 5214,
      "master": 5215,
      "subject": 5216,
      "Ġtmpmailsetting": 5217,
      "Ġanfinal": 5218,
      "=?\");": 5219,
      "Ġcredentials": 5220,
      "Ġ\".\");": 5221,
      "Ġfileurl": 5222,
      "Ġdao": 5223,
      "Ġconten": 5224,
      ">\"))": 5225,
      "sr": 5226,
      "seterror": 5227,
      "setcode": 5228,
      "=\").": 5229,
      "commandline": 5230,
      "('.'": 5231,
      "Ġsz": 5232,
      "Ġreference": 5233,
      "lim": 5234,
      "dirs": 5235,
      "Ġunable": 5236,
      "assign": 5237,
      "som": 5238,
      "supported": 5239,
      "Ġpilotdata": 5240,
      "enterlocal": 5241,
      "Ġbgcolor": 5242,
      "Ġsca": 5243,
      "tap": 5244,
      "percent": 5245,
      "dirname": 5246,
      "Ġauto": 5247,
      "finest": 5248,
      "keepr": 5249,
      "documents": 5250,
      "getrootelement": 5251,
      "gate": 5252,
      "Ġmil": 5253,
      "Ġresultstring": 5254,
      "setstringatname": 5255,
      "fue": 5256,
      "alf": 5257,
      "sof": 5258,
      "Ġother": 5259,
      "Ġmove": 5260,
      "tegsoft": 5261,
      "uce": 5262,
      "onclose": 5263,
      "seed": 5264,
      "Ġcho": 5265,
      "chromat": 5266,
      "Ġpid": 5267,
      "ingredients": 5268,
      "Ġsetup": 5269,
      "senten": 5270,
      "Ġvalidation": 5271,
      "lefone": 5272,
      "hr": 5273,
      "}'": 5274,
      "getservletcontext": 5275,
      "setdefault": 5276,
      "Ġtrying": 5277,
      "Ġurlcon": 5278,
      "Ġobjectid": 5279,
      "31": 5280,
      "ily": 5281,
      "oof": 5282,
      "Ġrprtcnst": 5283,
      "going": 5284,
      "phrases": 5285,
      "pid": 5286,
      "private": 5287,
      "ina": 5288,
      "getdb": 5289,
      "Ġsheet": 5290,
      "socke": 5291,
      "objectid": 5292,
      "owner": 5293,
      "istrace": 5294,
      "Ġmenum": 5295,
      "istraceenabled": 5296,
      "errormsg": 5297,
      "activator": 5298,
      "insertinstr": 5299,
      "downloading": 5300,
      "Ġrotate": 5301,
      "getshort": 5302,
      "mentor": 5303,
      "loccode": 5304,
      "Ġcursor": 5305,
      "(\",\");": 5306,
      "45": 5307,
      "Ġ\"(\"": 5308,
      "Ġimages": 5309,
      "crypted": 5310,
      "getreplystring": 5311,
      "jframe": 5312,
      "siterator": 5313,
      "cussion": 5314,
      "Ġdoget": 5315,
      "cab": 5316,
      "Ġoutputdir": 5317,
      "Ġmaxcount": 5318,
      "fich": 5319,
      "getaddress": 5320,
      "getphrase": 5321,
      "acc": 5322,
      "Ġpop": 5323,
      "note": 5324,
      "Ġcompany": 5325,
      "osite": 5326,
      "Ġrealpath": 5327,
      "Ġnullpointerexception": 5328,
      "Ġoai": 5329,
      "fromurl": 5330,
      "querystring": 5331,
      "Ġsingle": 5332,
      "44": 5333,
      "Ġright": 5334,
      "ood": 5335,
      "ands": 5336,
      "Ġtransform": 5337,
      ")\"": 5338,
      "mor": 5339,
      "reque": 5340,
      "Ġclosing": 5341,
      "portlet": 5342,
      "Ġtargetdirectory": 5343,
      "getrequesturi": 5344,
      "sommapper": 5345,
      "pli": 5346,
      "didate": 5347,
      "Ġxstream": 5348,
      "Ġvaluebeforemd": 5349,
      "validation": 5350,
      "byid": 5351,
      "yyyy": 5352,
      "rerror": 5353,
      "tio": 5354,
      "(\"ï¿½ï¿½ï¿½ï¿½": 5355,
      "advance": 5356,
      "[])...": 5357,
      "arrayright": 5358,
      "filenames": 5359,
      "Ġ':": 5360,
      "divideequals": 5361,
      "getuserid": 5362,
      "Ġpat": 5363,
      "Ġfic": 5364,
      "Ġbaseurl": 5365,
      "Ġ\"'\";": 5366,
      "axis": 5367,
      "answer": 5368,
      "ï¼": 5369,
      "Ġparsing": 5370,
      "Ġcollections": 5371,
      "gettesttool": 5372,
      "Ġue": 5373,
      "ges": 5374,
      "Ġiproject": 5375,
      "pheno": 5376,
      "Ġ\"'>\"": 5377,
      "Ġ4096": 5378,
      "general": 5379,
      "509": 5380,
      "Ġnread": 5381,
      "setselected": 5382,
      "Ġsome": 5383,
      "events": 5384,
      "('/',": 5385,
      "httprequest": 5386,
      "[\"": 5387,
      "Ġnotneededrsrc": 5388,
      "Ġoutputchannel": 5389,
      "Ġprestat": 5390,
      "best": 5391,
      "posit": 5392,
      "suffix": 5393,
      "ä¸": 5394,
      "uthor": 5395,
      "Ġcx": 5396,
      "chine": 5397,
      "Ġvelocity": 5398,
      "vendor": 5399,
      "bib": 5400,
      "Ġmessagingexception": 5401,
      "getpackage": 5402,
      "Ġstor": 5403,
      "isvalid": 5404,
      "expected": 5405,
      "='/?": 5406,
      "playlist": 5407,
      "titem": 5408,
      "Ġhar": 5409,
      "cident": 5410,
      "called": 5411,
      "allel": 5412,
      "Ġnulogger": 5413,
      "46": 5414,
      "ique": 5415,
      "Ġfunction": 5416,
      "Ġsfilename": 5417,
      "Ġmc": 5418,
      "theme": 5419,
      "]+": 5420,
      "paths": 5421,
      "usr": 5422,
      "ashmap": 5423,
      "Ġ:\"": 5424,
      "Ġadmin": 5425,
      "getbundle": 5426,
      "marc": 5427,
      "Ġpredicatecf": 5428,
      "Ġhelp": 5429,
      "69": 5430,
      "gable": 5431,
      "Ġplat": 5432,
      "Ġrelative": 5433,
      "Ġdecimal": 5434,
      "tidad": 5435,
      "Ġrandomaccessfile": 5436,
      "Ġ'/')": 5437,
      "getresponsebodyasstream": 5438,
      "getdescription": 5439,
      "asset": 5440,
      "verify": 5441,
      ".\\": 5442,
      "inser": 5443,
      "setbigdecimal": 5444,
      "execut": 5445,
      "codfilial": 5446,
      "Ġphone": 5447,
      "cexception": 5448,
      "sis": 5449,
      "preview": 5450,
      "formatter": 5451,
      "accessexception": 5452,
      "Ġassertthat": 5453,
      "getcontentencoding": 5454,
      "gett": 5455,
      "rase": 5456,
      "objects": 5457,
      "Ġmedi": 5458,
      "Ġtools": 5459,
      "teria": 5460,
      "persistence": 5461,
      "getusername": 5462,
      "Ġinputchannel": 5463,
      "outputdirectory": 5464,
      "Ġalg": 5465,
      "Ġprobemap": 5466,
      "Ġtemplateelements": 5467,
      "cussionfields": 5468,
      "Ġstorage": 5469,
      "cade": 5470,
      "abstract": 5471,
      "geo": 5472,
      "roid": 5473,
      "metalevel": 5474,
      "512": 5475,
      "vm": 5476,
      "æĸ": 5477,
      "copybytes": 5478,
      "Ġfeed": 5479,
      "Ġtransferred": 5480,
      "stage": 5481,
      "rest": 5482,
      "xmldata": 5483,
      "Ġuserdata": 5484,
      "rsrcidx": 5485,
      "mbly": 5486,
      "wiki": 5487,
      "outdir": 5488,
      "Ġ\"%": 5489,
      "pers": 5490,
      "Ġao": 5491,
      "Ġimpor": 5492,
      "?,?,?,?,?,?,?,?,": 5493,
      "Ġdecimalformat": 5494,
      "archetype": 5495,
      "Ġexternal": 5496,
      "sedout": 5497,
      "bb": 5498,
      "tist": 5499,
      "lave": 5500,
      "gerror": 5501,
      "Ġ\"\\\\\"": 5502,
      "columnname": 5503,
      "Ġpersistence": 5504,
      "Ġagain": 5505,
      "03": 5506,
      "(\"//": 5507,
      "Ġostream": 5508,
      "Ġengine": 5509,
      "strbuff": 5510,
      "Ġnumread": 5511,
      "Ġcanalfue": 5512,
      "Ġcanalfuente": 5513,
      "jb": 5514,
      "ceiver": 5515,
      "ubm": 5516,
      "Ġproduct": 5517,
      "weather": 5518,
      "Ġcs": 5519,
      "alias": 5520,
      "cot": 5521,
      "tries": 5522,
      "Ġnamearray": 5523,
      "://\"))": 5524,
      "controle": 5525,
      "ised": 5526,
      "coachstr": 5527,
      "confirm": 5528,
      "tillcnt": 5529,
      "fun": 5530,
      "got": 5531,
      "ira": 5532,
      "Ġer": 5533,
      "getproject": 5534,
      "Ġmyrand": 5535,
      "Ġiconurl": 5536,
      "geterrorstream": 5537,
      "yahoo": 5538,
      "Ã©": 5539,
      "Ġfileutil": 5540,
      "Ġonly": 5541,
      "Ġmainframe": 5542,
      "Ġportlet": 5543,
      "hasmoretokens": 5544,
      "topdf": 5545,
      "awt": 5546,
      "Ġtintarraylist": 5547,
      "8192": 5548,
      "iel": 5549,
      "Ġioutil": 5550,
      "mailcontact": 5551,
      "getcheckout": 5552,
      "Ġdsventry": 5553,
      "parseexception": 5554,
      "materialtypeid": 5555,
      "materialvolume": 5556,
      "materialtypename": 5557,
      "materialtypeicon": 5558,
      "materialtypecategoryid": 5559,
      "natureids": 5560,
      "gettoken": 5561,
      "(\":\".": 5562,
      "bed": 5563,
      "fileinfo": 5564,
      "intcode": 5565,
      "Ġ(((": 5566,
      "Ġenvironment": 5567,
      "dump": 5568,
      "javaproject": 5569,
      "75": 5570,
      "identifier": 5571,
      "ple": 5572,
      "Ġec": 5573,
      "litem": 5574,
      "Ġchooser": 5575,
      "foldername": 5576,
      "stylesheet": 5577,
      "principal": 5578,
      "-\"": 5579,
      "Ġput": 5580,
      "Ġdj": 5581,
      "sound": 5582,
      "screen": 5583,
      "Ġprestm": 5584,
      "inea": 5585,
      "Ġrecipient": 5586,
      "Ġlastname": 5587,
      "enterlocalpassivemode": 5588,
      "refix": 5589,
      "Ġed": 5590,
      "Ġfiledialog": 5591,
      "setsize": 5592,
      "cols": 5593,
      "Ġentra": 5594,
      "Ġterm": 5595,
      "Ġbb": 5596,
      "--;": 5597,
      "Ġrunning": 5598,
      "fec": 5599,
      "Ġgiveresourceset": 5600,
      "Ġiteration": 5601,
      "updater": 5602,
      "startelement": 5603,
      "Ġquan": 5604,
      "Ġjpanel": 5605,
      "Ġ''": 5606,
      "finish": 5607,
      "Ġorset": 5608,
      "graphicalviewer": 5609,
      "cert": 5610,
      "Ġsalida": 5611,
      "xfile": 5612,
      "anger": 5613,
      "ida": 5614,
      "lng": 5615,
      "Ġlogfile": 5616,
      "Ġoconn": 5617,
      "entrada": 5618,
      "Ġchoose": 5619,
      "nodesource": 5620,
      "Ġmsgdigest": 5621,
      "Ġplatform": 5622,
      "78": 5623,
      "Ġiri": 5624,
      "Ġequal": 5625,
      "Ġpm": 5626,
      "Ġhttps": 5627,
      "Ġgetting": 5628,
      "Ġsol": 5629,
      "Ġbasi": 5630,
      "responsemodificationdefinitions": 5631,
      "Ġrelated": 5632,
      "celed": 5633,
      "ates": 5634,
      "Ġstx": 5635,
      "hashcode": 5636,
      "==========": 5637,
      "=?\";": 5638,
      "Ġregister": 5639,
      "Ġdiscussionfields": 5640,
      "extensions": 5641,
      "white": 5642,
      "'s": 5643,
      "une": 5644,
      "filesto": 5645,
      "mesh": 5646,
      "ading": 5647,
      "Ġproposal": 5648,
      "sci": 5649,
      "Ġsrcfs": 5650,
      "Ġleft": 5651,
      "octet": 5652,
      "fragmentroot": 5653,
      "getlog": 5654,
      "leton": 5655,
      "Ġkeys": 5656,
      "getcontentpane": 5657,
      "Ġhashed": 5658,
      "Ġboundary": 5659,
      "Ġtx": 5660,
      "Ġfilechooser": 5661,
      "coords": 5662,
      "vertex": 5663,
      "Ġsocke": 5664,
      "scal": 5665,
      "crypto": 5666,
      "normal": 5667,
      "ime": 5668,
      "instan": 5669,
      "getentry": 5670,
      "buffersize": 5671,
      "tidade": 5672,
      "encoded": 5673,
      "gov": 5674,
      "Ġcnt": 5675,
      "Ġclear": 5676,
      "Ġace": 5677,
      "parselong": 5678,
      "pages": 5679,
      "relationship": 5680,
      "Ġsvn": 5681,
      "nego": 5682,
      "(\".\");": 5683,
      "setdescription": 5684,
      "writebytes": 5685,
      "vers": 5686,
      "Ġgetresource": 5687,
      "Ġgetrandom": 5688,
      "keywords": 5689,
      "Ġdbf": 5690,
      "Ġactionlistener": 5691,
      "udp": 5692,
      "flags": 5693,
      "filelength": 5694,
      "getfolder": 5695,
      "setmax": 5696,
      "sity": 5697,
      "Ġcomple": 5698,
      "Ġrate": 5699,
      "relational": 5700,
      "Ġ':');": 5701,
      "[(": 5702,
      "_.": 5703,
      "nv": 5704,
      "invoke": 5705,
      "gettitle": 5706,
      "Ġcust": 5707,
      "iplin": 5708,
      "using": 5709,
      "irth": 5710,
      "attachments": 5711,
      "Ġtrace": 5712,
      "shipping": 5713,
      "average": 5714,
      "oldpath": 5715,
      "Ġ30": 5716,
      "getabsolutefile": 5717,
      "Ġsessionid": 5718,
      "windows": 5719,
      "Ġbasedirstr": 5720,
      "Ġclazz": 5721,
      "ost": 5722,
      "dims": 5723,
      "auditschema": 5724,
      "datatype": 5725,
      "Ġthrowable": 5726,
      "islog": 5727,
      "Ġchr": 5728,
      "stoadd": 5729,
      "evalu": 5730,
      "Ġreceived": 5731,
      "Ġ256": 5732,
      "observer": 5733,
      "jarpath": 5734,
      "oldfile": 5735,
      "unicip": 5736,
      "wise": 5737,
      "ink": 5738,
      "getpersonal": 5739,
      "Ġtvrage": 5740,
      "Ġoutheader": 5741,
      "Ġmf": 5742,
      "filenamedata": 5743,
      "Ġsel": 5744,
      "running": 5745,
      "Ġdoneheader": 5746,
      "Ġmidlet": 5747,
      "Ġfiletransferheader": 5748,
      "]))": 5749,
      "nio": 5750,
      "cust": 5751,
      "pres": 5752,
      "Ġmol": 5753,
      "loadexception": 5754,
      "Ġmanage": 5755,
      "Ġhelper": 5756,
      "clo": 5757,
      "kv": 5758,
      "opt": 5759,
      "fill": 5760,
      "Ġdatafile": 5761,
      "Ġcreaterecipe": 5762,
      "128": 5763,
      "celula": 5764,
      "norm": 5765,
      "rw": 5766,
      "deflated": 5767,
      "Ġbasepath": 5768,
      "chain": 5769,
      "jet": 5770,
      "dby": 5771,
      "Ġcomment": 5772,
      "Ġjaroutputstream": 5773,
      "fullname": 5774,
      "sentation": 5775,
      "}''": 5776,
      "Ġ''{": 5777,
      "Ġiclasspathentry": 5778,
      "delimiter": 5779,
      "Ġns": 5780,
      "isassign": 5781,
      "ablefrom": 5782,
      "httpget": 5783,
      "isassignablefrom": 5784,
      "pus": 5785,
      "Ġwriting": 5786,
      "research": 5787,
      "sex": 5788,
      "sentry": 5789,
      "defaul": 5790,
      "unzip": 5791,
      "testedfile": 5792,
      "-----": 5793,
      "Ġmysecure": 5794,
      "urlencoder": 5795,
      "resolvefile": 5796,
      "Ġmysecurerand": 5797,
      "getf": 5798,
      "Ġtm": 5799,
      "Ġfun": 5800,
      "Ġstavailupd": 5801,
      "Ġwhich": 5802,
      "Ġass": 5803,
      "malformed": 5804,
      "Ġmet": 5805,
      "Ġcompare": 5806,
      "lucz": 5807,
      "cfile": 5808,
      "getall": 5809,
      "chart": 5810,
      "live": 5811,
      "reducer": 5812,
      "Ġziparchive": 5813,
      "inputfilename": 5814,
      "scanner": 5815,
      "Ġhelpformatter": 5816,
      "Ġfilein": 5817,
      "Ġbi": 5818,
      "addcontent": 5819,
      "Ġnodeid": 5820,
      "Ġtipo": 5821,
      "outexception": 5822,
      "converter": 5823,
      "34": 5824,
      "atok": 5825,
      "Ġfileobject": 5826,
      "updates": 5827,
      "userinfo": 5828,
      "members": 5829,
      "dev": 5830,
      "Ġspa": 5831,
      "Ġsecond": 5832,
      "securityexception": 5833,
      "unknownhostexception": 5834,
      "Ġreset": 5835,
      "servletconfig": 5836,
      "configfile": 5837,
      "contro": 5838,
      "Ġcontainer": 5839,
      "languages": 5840,
      "################################": 5841,
      "Ġmultipar": 5842,
      "fritz": 5843,
      "relationalword": 5844,
      "Ġcreaterecipeingredients": 5845,
      "])));": 5846,
      "expression": 5847,
      "ashboard": 5848,
      "Ġjarinputstream": 5849,
      "analyzer": 5850,
      "Ġbatna": 5851,
      "setparameter": 5852,
      "Ġreturned": 5853,
      "addkv": 5854,
      "loadclass": 5855,
      "Ġnota": 5856,
      "Ġsqlex": 5857,
      "1111": 5858,
      "svg": 5859,
      "Ġinternet": 5860,
      "Ġpublish": 5861,
      "cio": 5862,
      "push": 5863,
      "Ġpr": 5864,
      "Ġrest": 5865,
      "settimestamp": 5866,
      "Ġmpentity": 5867,
      "Ġois": 5868,
      "connec": 5869,
      "Ġchannels": 5870,
      "Ġinetaddress": 5871,
      "Ġbrowser": 5872,
      "Ġmay": 5873,
      "generated": 5874,
      "countrycode": 5875,
      "Ġtohexstring": 5876,
      "getmsg": 5877,
      "Ġcliente": 5878,
      "devent": 5879,
      "Ġee": 5880,
      "Ġeditor": 5881,
      "Ġpl": 5882,
      "peri": 5883,
      "uploadfile": 5884,
      "Ġdistribution": 5885,
      "zit": 5886,
      "reco": 5887,
      "sequals": 5888,
      "Ġpic": 5889,
      "peo": 5890,
      "bytehashmap": 5891,
      "arrayleft": 5892,
      "ync": 5893,
      "databaseexception": 5894,
      "Ġrowstoadd": 5895,
      "waitfor": 5896,
      "aglobal": 5897,
      "sproperties": 5898,
      "38": 5899,
      "Ġlastmodified": 5900,
      "Ġccn": 5901,
      "Ġprogra": 5902,
      "Ġassertnull": 5903,
      "senha": 5904,
      "):": 5905,
      "ihtml": 5906,
      "unchecked": 5907,
      "Ġprod": 5908,
      "outputfilename": 5909,
      "adoc": 5910,
      "Ġrefused": 5911,
      "Ġprocfound": 5912,
      "topdftransformer": 5913,
      "ihtmltopdftransformer": 5914,
      "cgi": 5915,
      "filedate": 5916,
      "setboolean": 5917,
      "Ġ'\\": 5918,
      "Ġdigraph": 5919,
      "Ġbookkeepr": 5920,
      "met": 5921,
      "ced": 5922,
      "addpart": 5923,
      "Ġftestwriter": 5924,
      "bis": 5925,
      "gri": 5926,
      "hado": 5927,
      "wr": 5928,
      "ority": 5929,
      "thel": 5930,
      "Ġstrin": 5931,
      "exao": 5932,
      "Ġartista": 5933,
      "filestream": 5934,
      "preco": 5935,
      "00000000": 5936,
      "Ġshutdown": 5937,
      "Ġ=\"": 5938,
      "Ġnewpath": 5939,
      "Ġoutputdirectory": 5940,
      "Ġkdu": 5941,
      "validator": 5942,
      "rooteditpart": 5943,
      "advanceindex": 5944,
      "Ġequalto": 5945,
      "isloggable": 5946,
      "getaction": 5947,
      "Ġdeploy": 5948,
      "drawing": 5949,
      "sfilename": 5950,
      "selement": 5951,
      "Ġtgt": 5952,
      "Ġcontentlength": 5953,
      "sentences": 5954,
      "plan": 5955,
      "zoom": 5956,
      "(\";": 5957,
      "come": 5958,
      "Ġuseradd": 5959,
      "selec": 5960,
      "retry": 5961,
      "Ġjax": 5962,
      "saxparser": 5963,
      "Ġsenha": 5964,
      ")(": 5965,
      "49": 5966,
      "Ġmenu": 5967,
      "ution": 5968,
      "gettempdir": 5969,
      "Ġcoord": 5970,
      "forge": 5971,
      "Ġsep": 5972,
      "nextint": 5973,
      "Ġimportlist": 5974,
      "was": 5975,
      "Ġlayer": 5976,
      "Ġdsentry": 5977,
      "radio": 5978,
      "Ġgetparameter": 5979,
      "odt": 5980,
      "methodname": 5981,
      "rolling": 5982,
      "records": 5983,
      "Ġapplicant": 5984,
      "Ġcanaldestino": 5985,
      "Ġsoubortype": 5986,
      "dmsrelationalword": 5987,
      "dx": 5988,
      "targe": 5989,
      "setmethod": 5990,
      "Ġbyteread": 5991,
      "Ġexe": 5992,
      "trs": 5993,
      "numer": 5994,
      "tengine": 5995,
      "selector": 5996,
      "Ġencryptedpassword": 5997,
      "Ġgetrandomguid": 5998,
      "Ġfilemode": 5999
    },
    "merges": [
      "i n",
      "s t",
      ") ;",
      "r e",
      "l e",
      "o n",
      "t e",
      "Ġ =",
      "u t",
      "g e",
      "s e",
      "f i",
      "n e",
      "Ġ {",
      "Ġ }",
      "t i",
      "fi le",
      "re a",
      "e r",
      "m e",
      "Ġ (",
      "c e",
      "Ġ i",
      "ge t",
      "a t",
      "r in",
      "ti on",
      "o r",
      "( )",
      "Ġ c",
      "( );",
      "ne w",
      "u r",
      "Ġ t",
      "o ut",
      "a l",
      "Ġ \"",
      "d e",
      "p ut",
      "a r",
      "rin g",
      "st ring",
      "Ġ +",
      "( \"",
      "c h",
      "a n",
      "r o",
      "Ġ e",
      "Ġ new",
      "Ġ p",
      "l o",
      "st rea",
      "strea m",
      "n t",
      "Ġ file",
      "Ġ b",
      "Ġ in",
      "r i",
      "u l",
      "Ġ f",
      "Ġ n",
      "Ġ s",
      "p tion",
      "put stream",
      "Ġi f",
      "s s",
      "x ce",
      "xce ption",
      "d i",
      "c o",
      "rea d",
      "a me",
      "Ġ re",
      "ul l",
      "l i",
      "c on",
      "\" );",
      "Ġ string",
      "ur l",
      "r y",
      "Ġn ull",
      "p e",
      "Ġ d",
      "a te",
      "t h",
      "n ame",
      "se t",
      "Ġ out",
      "i d",
      "u e",
      "a ge",
      "u f",
      "m p",
      "a d",
      "w ri",
      "t o",
      "e xception",
      "y te",
      "c t",
      "Ġt h",
      "wri te",
      "se r",
      "at ch",
      "() );",
      "Ġ m",
      "Ġ 0",
      "r a",
      "Ġt ry",
      "uf f",
      "l a",
      ") );",
      "ro w",
      "Ġc atch",
      "t a",
      "lo se",
      "i l",
      "le n",
      "c lose",
      "t y",
      "Ġc on",
      "Ġ url",
      "u b",
      "s i",
      "c tion",
      "s p",
      "rin t",
      "Ġth row",
      "a p",
      "Ġ !",
      "u p",
      "Ġ st",
      "in putstream",
      "s o",
      "t p",
      "at a",
      "Ġ v",
      "out putstream",
      "p rint",
      "Ġ! =",
      "lo g",
      "l in",
      "c k",
      "e m",
      "i s",
      "ne l",
      "Ġ h",
      "in g",
      "Ġre t",
      "ch an",
      ") )",
      "me nt",
      "u n",
      "() .",
      "ur ce",
      "ur n",
      "\" ,",
      "a s",
      "Ġret urn",
      "chan nel",
      "read er",
      "in al",
      "e x",
      "re d",
      "o exception",
      "at h",
      "Ġ w",
      "y st",
      "te r",
      "me ss",
      "er r",
      "x t",
      "lin e",
      "() )",
      "mess age",
      "li c",
      "Ġ j",
      "in t",
      "v e",
      "pe n",
      "Ġb yte",
      "p ar",
      "q u",
      "yst em",
      "ne ction",
      "Ġb uff",
      "Ġ de",
      "b yte",
      "p ro",
      "a tion",
      "o s",
      "t tp",
      "ub lic",
      "Ġf inal",
      "ge st",
      "Ġs ystem",
      "p a",
      "Ġp ublic",
      "d ata",
      "len g",
      "di gest",
      "Ġin t",
      "leng th",
      "v er",
      "l n",
      "b le",
      "e n",
      "p ath",
      "err or",
      "o t",
      "d ate",
      "b u",
      "so urce",
      "Ġc o",
      "print ln",
      "f o",
      "[ ]",
      "i le",
      "d o",
      "e red",
      "z e",
      "f or",
      "Ġ 1",
      "q ue",
      "u m",
      "Ġe l",
      "v al",
      "Ġel se",
      "Ġ log",
      "p er",
      "f a",
      "i t",
      "Ġ -",
      "li st",
      "Ġ o",
      "ty pe",
      "ge r",
      "ct or",
      "m o",
      "Ġe x",
      "Ġv o",
      "Ġbuff ered",
      "b uff",
      "Ġf or",
      "Ġ= =",
      "e nt",
      "la ss",
      "Ġw h",
      "Ġvo id",
      "p y",
      "Ġthrow s",
      "sp on",
      "g s",
      "st an",
      "spon se",
      "c u",
      "con nection",
      "que st",
      ") .",
      "l y",
      "i p",
      "a ck",
      "write r",
      "ad d",
      "u s",
      "o o",
      "Ġ a",
      "te nt",
      "Ġfile outputstream",
      "co de",
      "up date",
      "di r",
      "a se",
      "ul t",
      "r c",
      "d er",
      "\\ \"",
      "t r",
      "v i",
      "te xt",
      "Ġ >",
      "buff er",
      "Ġin putstream",
      "an d",
      "e l",
      "a v",
      "ra y",
      "ar ray",
      "Ġwh ile",
      "m l",
      "j e",
      "Ġ r",
      "Ġfile inputstream",
      "e s",
      "stan ce",
      "ctor y",
      "ti c",
      "Ġt o",
      "val ue",
      "Ġ <",
      "al se",
      "il s",
      "w or",
      "Ġd o",
      "Ġp ro",
      "o f",
      "to string",
      "ti me",
      "k e",
      "\" ;",
      "av a",
      "Ġm d",
      "() ,",
      "i oexception",
      "si ze",
      "Ġi oexception",
      "Ġst a",
      "for m",
      "ro m",
      "n o",
      "c lass",
      "qu al",
      "h e",
      "Ġ message",
      "je ct",
      "byte s",
      "in stance",
      "pen d",
      "Ġ( !",
      "lo ad",
      "i th",
      "m age",
      "ap pend",
      "Ġsta tic",
      "Ġh ttp",
      "t ra",
      "s ult",
      "Ġ( (",
      "re nt",
      "de x",
      "0 0",
      "h o",
      "Ġ &",
      "Ġd s",
      "Ġ get",
      "i st",
      "u ser",
      "te mp",
      "Ġde st",
      "Ġ z",
      "a ble",
      "te d",
      "] ;",
      "u nt",
      "= =",
      "Ġi s",
      "+ +",
      "lo c",
      "re quest",
      "Ġs o",
      "Ġt r",
      "Ġfinal ly",
      "< /",
      "u id",
      "d s",
      "i o",
      "or t",
      "rea te",
      "qual s",
      "tra ce",
      "le an",
      "Ġ g",
      "a m",
      "o pen",
      "x ml",
      "co py",
      "con tent",
      "e d",
      "\" ))",
      "co m",
      "oo lean",
      "t ri",
      "di re",
      "file name",
      "ta gs",
      "Ġ se",
      "\" )",
      "Ġmessage digest",
      "m a",
      "Ġf alse",
      "ke y",
      "in dex",
      "st ack",
      "h ttp",
      "p o",
      "Ġ read",
      "as h",
      "Ġ l",
      "p re",
      "de st",
      "o d",
      "ce ss",
      "st ate",
      "Ġe n",
      "stack trace",
      "ar t",
      "wor d",
      "Ġb oolean",
      "re sponse",
      "Ġd ata",
      "print stacktrace",
      ". .",
      "i g",
      "on g",
      "Ġbuffered reader",
      "Ġd c",
      "l u",
      "Ġcon n",
      "in fo",
      "le ment",
      "pro per",
      "Ġso urce",
      "li ent",
      "s c",
      "b ject",
      "at or",
      "- -",
      "an s",
      "m d",
      "dire ctory",
      "e quals",
      "Ġ& &",
      "i on",
      "co unt",
      "get name",
      "si on",
      "Ġs rc",
      "m t",
      "st r",
      "ad er",
      "ar ser",
      "( (",
      "ss word",
      "\" ));",
      "Ġcon nection",
      "Ġtr ue",
      "g or",
      "b er",
      "Ġj ava",
      "out ils",
      "in ation",
      "c reate",
      "Ġre sponse",
      "> <",
      "nt ry",
      "le te",
      "ri v",
      "s h",
      "Ġn ot",
      "Ġre sult",
      "get instance",
      "m ap",
      "e cu",
      "Ġi outils",
      "ta in",
      "get channel",
      "ecu te",
      "¿ ½",
      "ï ¿½",
      "i x",
      "get bytes",
      "Ġth is",
      "riv ate",
      "re source",
      "at us",
      "te ger",
      "Ġ fi",
      "Ġ line",
      "ne xt",
      "Ġlog ger",
      "Ġc h",
      "Ġp rivate",
      "n um",
      "form at",
      "++ )",
      "s q",
      "Ġ |",
      "b o",
      "Ġ :",
      "bu il",
      "te n",
      "p t",
      "ix el",
      "ist s",
      "mp arser",
      "s ub",
      "Ġco py",
      "in put",
      "me n",
      "state ment",
      "le t",
      "Ġin put",
      "com m",
      "Ġf rom",
      "bu g",
      "te st",
      "ch e",
      "s rc",
      "Ġfile channel",
      "ex ecute",
      "ur i",
      "Ġe xception",
      "par am",
      "c lient",
      "h t",
      "proper ty",
      "x len",
      "ixel data",
      "me th",
      "u c",
      "f l",
      "Ġ '",
      "c a",
      "re ss",
      "Ġp a",
      "le xception",
      "n ot",
      "un d",
      "Ġout put",
      "e t",
      "Ġ x",
      "te m",
      "ex ists",
      "co mp",
      "le r",
      "out put",
      "re p",
      "fi g",
      "con tain",
      "b ase",
      "st o",
      "vi ce",
      "ar get",
      "Ġdc mparser",
      "cu ment",
      "f rom",
      "ti ty",
      "Ġ| |",
      "a c",
      "ame ter",
      "ur rent",
      "Ġbuff er",
      "ser t",
      "ser ver",
      "ser v",
      "d c",
      "meth od",
      "s a",
      "get message",
      "al l",
      "Ġ ar",
      "Ġz ip",
      "Ġstring buffer",
      "z ip",
      "he ader",
      "tr ans",
      "ta ble",
      "al gor",
      "u re",
      "Ġn ame",
      "Ġp re",
      "Ġ di",
      "algor ith",
      "Ġ reader",
      "tr ue",
      "c ted",
      "Ġout putstream",
      ". \");",
      "la st",
      "ti es",
      "sub string",
      "Ġre quest",
      "Ġi mage",
      "co d",
      "par se",
      "read line",
      "w ith",
      "Ġ *",
      "Ġ temp",
      "Ġn o",
      "st art",
      "qu i",
      "Ġv al",
      "() ));",
      "f f",
      "a b",
      "ne r",
      "Ġ error",
      "file s",
      "Ġinputstream reader",
      "== ==",
      "Ġ as",
      "qu er",
      "Ġl ong",
      "w n",
      "de bug",
      "i ze",
      "contain s",
      "ent ry",
      "b uf",
      "Ġ 2",
      "con n",
      "n ull",
      "quer y",
      "k en",
      "Ġs b",
      "co l",
      "ss ion",
      "Ġp s",
      "s on",
      "Ġ list",
      "num ber",
      "serv let",
      "Ġp st",
      "e w",
      "i mage",
      "c an",
      "u se",
      "Ġf os",
      "st atus",
      "fa ctory",
      "Ġ> >",
      "p h",
      "th is",
      "open stream",
      "e re",
      "Ġdest ination",
      "par ameter",
      "Ġfile name",
      "d b",
      "ap p",
      "url connection",
      "f er",
      "de lete",
      "de xception",
      "ro l",
      "Ġc lass",
      "ut ils",
      "pa ssword",
      "sc ri",
      "g in",
      "ï¿½ ï¿½",
      "Ġ digest",
      "o k",
      "re sult",
      "con text",
      "Ġh ash",
      "uc cess",
      "# #",
      "Ġs q",
      "b ack",
      "m i",
      "Ġ writer",
      "ve nt",
      "ro up",
      "on e",
      "a ut",
      "Ġf tp",
      "b e",
      "m s",
      "de n",
      "index of",
      "i pe",
      "Ġ ?",
      "Ġ set",
      "h ash",
      "ser vice",
      "Ġm o",
      "and ler",
      "Ġ user",
      "Ġm a",
      "Ġin teger",
      "Ġ+ =",
      "a ction",
      "o bject",
      "ar y",
      "m an",
      "buil der",
      "t ing",
      "ar ch",
      "at tri",
      "Ġp ar",
      "con ne",
      ") ,",
      "= \"",
      "di fi",
      "ut il",
      "6 4",
      "ub le",
      "ver sion",
      "attri bu",
      "u ch",
      "ut f",
      "Ġi d",
      "mp le",
      "f inal",
      "me xception",
      "Ġ\" .",
      "us h",
      "get inputstream",
      "mo de",
      "i c",
      "Ġ\" \";",
      "attribu te",
      "h a",
      "Ġb ase",
      "con fig",
      "i tem",
      "comm it",
      "Ġval ue",
      "Ġp xlen",
      "dc m",
      "Ġst mt",
      "Ġ array",
      "j ava",
      "Ġ\" \\",
      "open connection",
      "ch ar",
      "Ġcon tent",
      "execute update",
      "Ġbyte array",
      "m at",
      "Ġ\" /",
      "get int",
      "atch er",
      "re c",
      "Ġr un",
      "] .",
      "f in",
      "/ /",
      "fl ush",
      "set string",
      "t d",
      "g roup",
      "Ġt mp",
      "p ort",
      "to ken",
      "h andler",
      "f alse",
      "Ġ\" '",
      "Ġth e",
      "Ġb uf",
      "(\" \\",
      "ta g",
      "g u",
      "Ġ 4",
      "lin k",
      "Ġf a",
      "os uch",
      "w ar",
      "l der",
      "Ġbuffered inputstream",
      "fa ult",
      "Ġbyte s",
      "i ve",
      "age r",
      "se le",
      "mo difi",
      "trans fer",
      "c urrent",
      "algorith mexception",
      "osuch algorithmexception",
      "sq l",
      "m in",
      "c i",
      "de d",
      "Ġe ntry",
      "-- --",
      "o b",
      "o ption",
      "ne x",
      "c ate",
      "Ġd b",
      "Ġ\" ,",
      "e lement",
      "Ġp d",
      "p ixeldata",
      "ter n",
      "loc ation",
      "conne ct",
      "Ġfi s",
      "ho st",
      "Ġ 3",
      "la ce",
      "vi ew",
      "s with",
      "t s",
      "so lu",
      "rea k",
      "solu te",
      "= \\\"",
      "ti d",
      "> \");",
      "get string",
      "i z",
      "Ġ un",
      "u i",
      "l ong",
      "te xception",
      "ve l",
      "Ġp ath",
      "Ġf o",
      "pa rent",
      "1 0",
      "cod ing",
      "Ġbuffered outputstream",
      "ab solute",
      "la y",
      "ipe ntry",
      "ri es",
      "] );",
      "Ġo bject",
      "tri m",
      "t mp",
      "loc al",
      "al o",
      "Ġ @",
      "Ġpa ssword",
      "em a",
      "Ġb reak",
      "par ator",
      "wn load",
      "rol l",
      "do cument",
      "sq lexception",
      "Ġd st",
      "po st",
      "y pe",
      ": //",
      "che ck",
      "Ġ or",
      "h ex",
      "s ho",
      "dest ination",
      "Ġ al",
      "get absolute",
      "f tp",
      "Ġ\" :",
      "w w",
      "h as",
      "get read",
      "Ġst r",
      "co der",
      "in teger",
      "Ġt arget",
      "t le",
      "Ġ stream",
      "Ġ os",
      "instance uid",
      "wor k",
      "man ager",
      "l an",
      "m on",
      "pre pa",
      "e b",
      "se parator",
      "g ra",
      "Ġm ap",
      "y n",
      "si g",
      "f e",
      "Ġex c",
      "ht ml",
      "load er",
      "um n",
      "( '",
      "* *",
      "getabsolute path",
      "Ġ and",
      "? ,",
      "Ġ k",
      "not fo",
      "ile d",
      "en code",
      "Ġ uid",
      "no de",
      "ter ator",
      "alo g",
      "ate d",
      "get property",
      "()) .",
      "un dexception",
      "il d",
      "Ġre source",
      "t arget",
      "ne t",
      "s k",
      "roll back",
      "Ġbytearray outputstream",
      "l d",
      "Ġt a",
      "Ġurl connection",
      "Ġp o",
      "Ġsq l",
      "do c",
      "lo w",
      "Ġout file",
      "c ry",
      "notfo undexception",
      "Ġ xml",
      "o ver",
      "Ġdo cument",
      "n d",
      "m al",
      "v r",
      "Ġ me",
      "i mp",
      "add ress",
      "(\" <",
      "rep lace",
      "ro ot",
      "k dir",
      "Ġar gs",
      "re s",
      "n osuchalgorithmexception",
      "Ġs uccess",
      "lu gin",
      "start swith",
      "re f",
      "le vel",
      "buil d",
      "ver t",
      "me d",
      "Ġd ate",
      "di t",
      "set request",
      "prepa re",
      "Ġ key",
      "fi x",
      "Ġs a",
      "modifi ed",
      "ta ch",
      "in sert",
      "2 4",
      "r ame",
      "prepare statement",
      "j ar",
      "l s",
      "\") ,",
      "Ġb e",
      "Ġ' \"",
      "war n",
      "(\" /",
      "le g",
      "Ġ _",
      "Ġcopy file",
      "or d",
      "Ġc a",
      "p s",
      "fo lder",
      "Ġc he",
      "sh a",
      "p or",
      "Ġche ck",
      "Ġn um",
      "Ġpro per",
      "Ġc reate",
      "g ress",
      "code param",
      "Ġco m",
      "time exception",
      "b r",
      "! \");",
      "log ger",
      "get parameter",
      "Ġz ipentry",
      "fi el",
      "Ġr s",
      "p xlen",
      "r len",
      "li t",
      "ri x",
      "up load",
      "v ar",
      "i e",
      "m kdir",
      "s up",
      "d a",
      "ch ema",
      "Ġdc men",
      "> \\",
      "i con",
      "set int",
      "Ġ an",
      "\\\" :",
      "\" ).",
      "Ġst atus",
      "pa ne",
      "s ystem",
      "at tach",
      "Ġi o",
      "red statement",
      "leg al",
      "Ġarray list",
      "sho w",
      "in ter",
      "m er",
      "lo ck",
      "Ġj ar",
      "Ġ1 6",
      "> </",
      "s al",
      "scri pt",
      "Ġre s",
      "ti tle",
      "Ġ 8",
      "Ġp rint",
      "ms g",
      "l ter",
      "n ce",
      "get content",
      "di sp",
      "Ġst ate",
      "val id",
      "i r",
      "Ġco mp",
      "get resource",
      "de fault",
      "Ġb u",
      "e ader",
      "Ġch ar",
      "for med",
      "Ġpre pa",
      "Ġ update",
      "out file",
      "l ate",
      "aut h",
      "Ġ write",
      "Ġno de",
      "or der",
      "Ġs ize",
      "Ġ test",
      "v o",
      "or g",
      "ti ve",
      "di alog",
      "Ġpst mt",
      "e c",
      "number of",
      "re qui",
      "==== ====",
      "od y",
      "proper ties",
      "Ġc urrent",
      "Ġb a",
      "d f",
      "ul d",
      "si tion",
      "Ġi l",
      "(\" .",
      "fa ct",
      "ri de",
      "ge n",
      "Ġ directory",
      "Ġ> =",
      "Ġprepa redstatement",
      "Ġtr ans",
      "Ġb r",
      "ra w",
      "pro cess",
      "Ġas sert",
      "Ġc lient",
      "Ġin channel",
      "st a",
      "g ist",
      "Ġhttp urlconnection",
      "Ġo f",
      "Ġm y",
      "f rame",
      "d u",
      "Ġf in",
      "ma in",
      "get path",
      "over ride",
      "r st",
      "re mo",
      "Ġdo uble",
      "## ##",
      "Ġcon vert",
      "new file",
      "Ġ /",
      "Ġ\" \");",
      "Ġ ge",
      "m ar",
      "s pe",
      "ri al",
      "con stan",
      "re t",
      "b in",
      "Ġstring builder",
      "log in",
      "Ġch an",
      ") ));",
      "qui et",
      "p i",
      "ur ation",
      "ge xception",
      "Ġf c",
      "Ġre sp",
      "Ġta gs",
      "get outputstream",
      "Ġa c",
      "fa il",
      "fo re",
      "so p",
      "get parent",
      "se ssion",
      "algorith m",
      "tent ry",
      "it or",
      "(\" </",
      "put ui",
      "sp ixeldata",
      "Ġin file",
      "to hex",
      "x y",
      "dcm handler",
      "Ġfile s",
      "Ġproper ties",
      "Ġcon fig",
      "requi red",
      "aut o",
      "Ġco l",
      "ig ht",
      "st u",
      "do uble",
      "Ġ server",
      "te cted",
      "col umn",
      "Ġ y",
      "sa mple",
      "Ġ\" );",
      "ma x",
      "Ġsrc channel",
      "b y",
      "quiet ly",
      "te x",
      ") \");",
      "Ġwh ere",
      "r on",
      "able d",
      "to file",
      "at tern",
      "get value",
      "me ta",
      "\" .",
      "i f",
      "Ġ length",
      "re n",
      "b ody",
      "Ġre q",
      "Ġstate ment",
      "i li",
      "mat rix",
      "ma il",
      "' );",
      "Ġio e",
      "() ))",
      "par ser",
      "w eb",
      "e ner",
      "option pane",
      "fi lter",
      "gor y",
      "e vent",
      "Ġp er",
      "a ce",
      "1 2",
      "Ġst art",
      "pe d",
      "Ġ on",
      "Ġco unt",
      "b it",
      "c s",
      "1 00",
      "required type",
      "at ure",
      "t xt",
      "parse int",
      "a u",
      "Ġv i",
      "v id",
      "p lugin",
      "c ase",
      "Ġpro tected",
      "scri ption",
      "close quietly",
      "mode l",
      "Ġ1 0",
      "Ġj optionpane",
      "Ġt ype",
      "Ġfor mat",
      "mkdir s",
      "bo x",
      "++ ;",
      "Ġh o",
      "fl ate",
      "pro ject",
      "i m",
      "i ty",
      "Ġvalue s",
      "> ();",
      "Ġse ssion",
      "Ġrun timeexception",
      "te lement",
      "\\ \\",
      "Ġm s",
      "to t",
      "http urlconnection",
      "Ġcon t",
      "c ation",
      "is directory",
      "Ġt ot",
      "' ,",
      "a le",
      "Ġ load",
      ".. .\");",
      "auto commit",
      "Ġv er",
      "Ġil legal",
      "Ġa ut",
      "Ġ dir",
      "do m",
      "Ġpa rent",
      "Ġin dex",
      "s uccess",
      "se xception",
      "pa ck",
      "rea l",
      "y m",
      "ting s",
      "r un",
      "Ġfile writer",
      "Ġhttp client",
      "Ġe lement",
      "Ġin to",
      "d y",
      "ig n",
      "sa ve",
      "t or",
      "Ġv e",
      "constan ts",
      "a re",
      "ar gu",
      "Ġ li",
      "p age",
      "Ġo b",
      "i terator",
      "Ġ\" \\\"",
      "Ġ time",
      ".. .",
      "setrequest property",
      "fiel d",
      "Ġs ha",
      "ck et",
      "c ur",
      "ti al",
      "Ġbuffered writer",
      "Ġ text",
      "cate gory",
      "Ġpar am",
      "ad o",
      "nex tentry",
      "be fore",
      "comm and",
      "Ġ method",
      "m il",
      "ser te",
      "last modified",
      "par t",
      "re e",
      "in file",
      "fail ure",
      "Ġout channel",
      "se arch",
      "sele ct",
      "transfer to",
      "data set",
      "param s",
      "?, ?,",
      "serte quals",
      "sto re",
      "str u",
      "sup por",
      "ok ie",
      "Ġdst channel",
      "ur lexception",
      "la b",
      "Ġ app",
      "Ġs w",
      "list ener",
      "Ġ uri",
      "Ġ\" <",
      "fa iled",
      "sp lit",
      "= '",
      "get class",
      "in gexception",
      "Ġdi sp",
      "formed urlexception",
      "p os",
      "in e",
      "do wnload",
      "Ġ\" &",
      "li s",
      "Ġ len",
      "sample s",
      "Ġdest file",
      "ten sion",
      "se ries",
      "pro gress",
      "in ue",
      "iz er",
      "attach ment",
      "le s",
      "Ġt able",
      "ti fi",
      "ho to",
      "ta tion",
      "men texception",
      "' t",
      "stu dy",
      "me tri",
      "sp ace",
      "ize d",
      "pa ir",
      "o p",
      "h el",
      ": \"",
      "ho me",
      "Ġhttp servlet",
      "set do",
      "Ġdo c",
      "no rec",
      "Ġas sertequals",
      "Ġh a",
      "norec ase",
      "con t",
      "---- ----",
      "temp file",
      "tohex string",
      "e qual",
      "ri d",
      "sig norecase",
      "equal signorecase",
      "so l",
      "loc ated",
      "Ġ query",
      "Ġma in",
      "re xception",
      "Ġdo wnload",
      "Ġfile reader",
      "Ġ u",
      "ca che",
      "Ġ\"/ \"",
      "ce pt",
      "sal located",
      "h er",
      "b a",
      "bit sallocated",
      "g rlen",
      "Ġh eader",
      "numberof samples",
      "00 00",
      "st mt",
      "set autocommit",
      "lic ation",
      "Ġmo de",
      "value of",
      "before md",
      "Ġh t",
      "c param",
      "getread vr",
      "Ġdcmen cparam",
      "argu mentexception",
      "ce s",
      "r an",
      "r s",
      "file notfoundexception",
      "var i",
      "co uld",
      "mp ty",
      "Ġa ction",
      "lan g",
      "Ġin stance",
      "Ġs i",
      "ex it",
      "id th",
      "byte array",
      "Ġftp client",
      "mil lis",
      "> \"",
      "suppor te",
      "r or",
      "Ġ add",
      "Ġvi ew",
      "Ġ( \"",
      "Ġcont inue",
      "get response",
      "f ull",
      "ur len",
      "d st",
      "di s",
      "getparent file",
      "pe cted",
      "Ġc an",
      "vid er",
      "warn ing",
      "s chema",
      "un k",
      "st at",
      "on t",
      "value pair",
      "d ar",
      "pa ss",
      "re q",
      "content type",
      "cod ingexception",
      "10 24",
      "ar gs",
      "oo k",
      "Ġpro ject",
      "en ds",
      "Ġve ctor",
      "0 9",
      "ic al",
      "Ġaut h",
      "Ġb ig",
      "lab el",
      "/ \"",
      "den codingexception",
      "supporte dencodingexception",
      "d at",
      "row s",
      "Ġb in",
      "po int",
      "Ġcom m",
      "Ġde bug",
      "Ġh ex",
      "Ġsource channel",
      "ym bo",
      "get file",
      "lo a",
      "Ġfo und",
      "Ġdata base",
      "m atch",
      "ww w",
      "Ġcon text",
      "i se",
      "gra ph",
      "re gist",
      "on ent",
      "mi me",
      "as stream",
      "user name",
      "ip her",
      "la tion",
      "file path",
      "ten tity",
      "ut ili",
      "Ġ} ;",
      "ere nce",
      "current time",
      "chan ge",
      "u st",
      "Ġi t",
      "mal formedurlexception",
      ". \",",
      "lo at",
      "buff ered",
      "t on",
      "j son",
      "mon itor",
      "Ġpo st",
      "to o",
      "file copy",
      "ce n",
      "error count",
      "w d",
      "Ġ ad",
      "Ġde lete",
      "Ġerror count",
      "se c",
      "th e",
      "Ġs yn",
      "p hoto",
      "Ġ\" ;",
      "Ġen cry",
      "Ġc lose",
      "ï¿½ï¿½ ï¿½ï¿½",
      "c lu",
      "ch ild",
      "und le",
      "le ar",
      "metri c",
      "transfer from",
      "Ġg zip",
      "th row",
      "Ġ} );",
      "Ġc ase",
      "Ġj son",
      "g o",
      "s um",
      "currenttime millis",
      "has next",
      "last indexof",
      "value beforemd",
      "read y",
      "Ġchan nel",
      "Ġzip outputstream",
      "file inputstream",
      "se n",
      "si c",
      "Ġsa ve",
      "c ri",
      "fi rst",
      "a o",
      "Ġde fault",
      "e p",
      "in i",
      "m y",
      "ends with",
      "de scription",
      "Ġma x",
      "1 1",
      "i so",
      "s or",
      "la ble",
      "Ġinput line",
      "Ġbytes read",
      "un able",
      "Ġs al",
      "set attribute",
      "len dar",
      "f t",
      "Ġver sion",
      "ge ti",
      "Ġw ith",
      "Ġdata set",
      "si te",
      "Ġms g",
      "rep ly",
      "dest file",
      "Ġ ti",
      "j a",
      "oo ser",
      "le ted",
      "time out",
      "de ta",
      "en d",
      ")) .",
      "Ġg ra",
      "Ġinstance of",
      "bo und",
      "ti ce",
      "co okie",
      "rep ort",
      "vari able",
      "Ġi mp",
      "la g",
      "output file",
      "is file",
      "v a",
      "Ġparam s",
      "k er",
      "st ra",
      "l l",
      "gu age",
      "config uration",
      "name s",
      "Ġs p",
      "\\\": \\\"",
      "Ġco de",
      "un it",
      "Ġout stream",
      "w a",
      "th read",
      "in o",
      "Ġfa iled",
      "pro xy",
      "8 8",
      "Ġ service",
      "Ġoutputstream writer",
      "sta mp",
      "get request",
      "Ġ< =",
      "Ġ2 4",
      "arch ive",
      "Ġs ub",
      "x ff",
      "b ut",
      "Ġm i",
      "create statement",
      "Ġr an",
      "j ob",
      "vi e",
      "pack age",
      "get connection",
      "ul ti",
      "g ment",
      "p x",
      "(\" \"))",
      "to bytearray",
      "lo b",
      "Ġ( ;",
      "Ġ 5",
      "Ġzip inputstream",
      "Ġpro cess",
      "at ing",
      "Ġhttp response",
      "replace all",
      "tern al",
      "tot al",
      "net work",
      "se th",
      ", \\\"",
      "age nt",
      "i lable",
      "Ġsb valuebeforemd",
      "1 6",
      "sele cted",
      "Ġresult set",
      "create newfile",
      "put nextentry",
      "category id",
      "m ber",
      "Ġen d",
      "header s",
      "c rea",
      "low er",
      "Ġp arser",
      "Ġre c",
      "file outputstream",
      "get status",
      "Ġhttp get",
      "Ġ ro",
      "or ig",
      "uri ty",
      "Ġ? ,",
      "Ġbu il",
      "throw able",
      "po si",
      "clu de",
      "en coding",
      "Ġe vent",
      "en tity",
      "lower case",
      "Ġb ack",
      "value s",
      "Ġ upload",
      "Ġb w",
      "ve re",
      "Ġimage io",
      "Ġ last",
      "Ġ use",
      "Ġcon ne",
      "d one",
      "Ġo pen",
      "Ġhttp post",
      "la in",
      "disp atcher",
      "re set",
      "imp l",
      "w s",
      "co re",
      "Ġex ist",
      "Ġillegal argumentexception",
      "ta sk",
      "Ġ urlen",
      "Ġth read",
      "5 9",
      "type id",
      "ge ner",
      "remo ve",
      "app lication",
      "Ġ at",
      "ate rial",
      "Ġurl conn",
      "out of",
      "c lear",
      "se vere",
      "ch ooser",
      "2 0",
      "Ġre mo",
      "fa ce",
      "Ġbu ild",
      "Ġs up",
      "le ction",
      "Ġnum ber",
      "get text",
      "du ct",
      "] [",
      "Ġto ken",
      "Ġstring writer",
      "ge tid",
      "Ġs h",
      "to lowercase",
      "resource s",
      "w idth",
      "in st",
      "Ġ\" ...\");",
      "ad min",
      "bound sexception",
      "ec ut",
      "Ġi tem",
      "se d",
      "p ing",
      "execute query",
      "ad ata",
      "form er",
      "! \"",
      "Ġdisp atcher",
      "ar g",
      "in do",
      "Ġ link",
      "http servlet",
      "p attern",
      ". ,",
      "he d",
      "u al",
      "un ter",
      "Ġen coding",
      "Ġuid s",
      "Ġp art",
      "Ġhttpservlet response",
      "create image",
      "Ġen tity",
      "09 6",
      "fa ul",
      "outof boundsexception",
      "in flate",
      "u le",
      "input line",
      "temp late",
      "inter pre",
      "Ġfile format",
      "Ġj a",
      "Ġ= >",
      "pro to",
      "Ġho st",
      "an ce",
      "to log",
      "g ht",
      "s l",
      "ymbo l",
      "i es",
      "o re",
      "o u",
      "Ġsyn ch",
      "Ġb os",
      "00 0",
      "). ..",
      "class uid",
      "group len",
      "f s",
      "create tempfile",
      "Ġo ff",
      "loa ded",
      "\\ \",",
      "de codeparam",
      "se p",
      "sig n",
      "a f",
      "Ġcon tain",
      "cont rol",
      "Ġe nt",
      "Ġ local",
      "meta info",
      "Ġcomm and",
      "r ne",
      "put us",
      "Ġg rlen",
      "ha spixeldata",
      "sop instanceuid",
      "sop classuid",
      "series instanceuid",
      "study instanceuid",
      "Ġha spixeldata",
      "photo metric",
      "px data",
      "interpre tation",
      "rne ma",
      "photometric interpretation",
      "lo t",
      "p ri",
      "on ly",
      "get dcmhandler",
      "new dc",
      "new dataset",
      "Ġp ort",
      "set dcmhandler",
      "parse dcm",
      "getread length",
      "newdc mparser",
      "parsedcm file",
      "code d",
      "Ġi is",
      "Ġ \\\"",
      "oo l",
      "setdo output",
      "get dcm",
      "Ġp ixeldata",
      "byte order",
      "ca ch",
      "Ġpd reader",
      "Ġpd writer",
      "Ġpd fact",
      "Ġdcmen codeparam",
      "getdcm decodeparam",
      "m aterial",
      "Ġp ack",
      "data base",
      "Ġprint writer",
      "se nd",
      "Ġal ready",
      "Ġb ut",
      "ta ct",
      "Ġ\" </",
      "Ġp age",
      "le d",
      "Ġlog in",
      "fin i",
      "#### ####",
      "rent ry",
      "Ġ algorithm",
      "5 5",
      "pre fix",
      "88 59",
      "dis connect",
      "Ġf out",
      "ti vi",
      "mo re",
      "' )",
      "next token",
      "char set",
      "name valuepair",
      "li b",
      "Ġ10 24",
      "** **",
      "set tings",
      "fini tion",
      "can not",
      "Ġsynch ron",
      "set text",
      "Ġw or",
      "index outofboundsexception",
      "getresource asstream",
      "Ġm on",
      "remo te",
      "Ġtot read",
      "b undle",
      "set file",
      "Ġbyte buffer",
      "back up",
      "f y",
      "n b",
      "ar d",
      "tivi ty",
      "rec ord",
      "s w",
      "Ġi terator",
      "re sol",
      "Ġse arch",
      "c at",
      "servlet context",
      "de nt",
      "Ġo ption",
      "sto mer",
      "ad ap",
      "token izer",
      "war d",
      "Ġsource file",
      "bu s",
      "Ġdo es",
      "iz ation",
      "ex t",
      "Ġre p",
      "s ing",
      "class path",
      "ar io",
      "element s",
      "ge d",
      "Ġw eb",
      "Ġ %",
      "Ġpro gress",
      "Ġsynchron ized",
      "di ction",
      "pro vider",
      "un supportedencodingexception",
      "b oolean",
      "s v",
      "(' .",
      "] ,",
      "Ġar g",
      "Ġbig integer",
      "deta ils",
      "Ġpar ameter",
      "m atcher",
      "posi tor",
      "\\\", \\\"",
      "comp lete",
      "gra m",
      "wri ting",
      "Ġt ra",
      "u te",
      "Ġin fo",
      "loc ale",
      "t adata",
      "ge tentity",
      "Ġoutput file",
      "contain er",
      "g no",
      "Ġc ipher",
      "Ġuser name",
      "je c",
      "di o",
      "ex clude",
      "qu o",
      "Ġs pe",
      "Ġa b",
      "ine ss",
      "be an",
      "Ġ le",
      "Ġzip file",
      "= ?",
      "Ġw r",
      "per son",
      "Ġsq lexception",
      "] )",
      "s b",
      "Ġn osuchalgorithmexception",
      "p ted",
      "Ġ row",
      "in f",
      "show message",
      "script or",
      "Ġba os",
      "que nce",
      "is de",
      "e ar",
      "======== ========",
      "fe st",
      "ch ive",
      "gen abled",
      "comp are",
      "c nt",
      "get time",
      "o sition",
      "for ward",
      "Ġ ;",
      "Ġhash map",
      "Ġ )",
      "Ġx path",
      "(\" #",
      "di a",
      "Ġ1 2",
      "Ġin i",
      "b lock",
      "br ary",
      "se s",
      "pro duct",
      "Ġp attern",
      "has more",
      "positor y",
      "s ort",
      "Ġc ur",
      "from file",
      "Ġin sert",
      "get logger",
      "g le",
      "pa nel",
      "Ġge ner",
      "Ġbytearray inputstream",
      "f c",
      "Ġ< <",
      "Ġz os",
      "Ġ q",
      "to p",
      "lay out",
      "Ġhex string",
      "bu genabled",
      "isde bugenabled",
      "fi s",
      "Ġ [",
      "getresponse code",
      "Ġor ig",
      "w l",
      "get attribute",
      "col or",
      ")) ,",
      "en tic",
      "Ġm an",
      "fo und",
      "Ġca che",
      "di cate",
      "Ġsa x",
      "5 6",
      "Ġval id",
      "sec urity",
      "Ġm atcher",
      "ob j",
      "sk ip",
      "Ġi gno",
      "Ġurlen coder",
      "he ight",
      "g r",
      "th er",
      "de vice",
      "up d",
      "Ġde faul",
      "auth or",
      "p n",
      "Ġin c",
      "4 096",
      "set contenttype",
      "sh ort",
      "a in",
      "c all",
      "in valid",
      "Ġp os",
      "per ation",
      "po sition",
      "d yn",
      "read ing",
      "le ase",
      "but ton",
      "e dit",
      "Ġbuil der",
      "Ġc u",
      "y s",
      "ava ilable",
      "class loader",
      "i fest",
      "Ġv ar",
      "] ));",
      "y y",
      "dest ino",
      "de code",
      "source file",
      "gin e",
      "do wn",
      "cri pt",
      "fiel ds",
      "Ġtot al",
      "lan guage",
      "f erence",
      "=\\\" \"",
      "Ġi ter",
      "Ġr d",
      "comp onent",
      "Ġset tings",
      "Ġ root",
      "form ation",
      "Ġmode l",
      "Ġc al",
      "Ġ\" )",
      "too ls",
      "bus iness",
      "cu re",
      "Ġ ap",
      "nb sp",
      "so cket",
      "adap ter",
      "c y",
      "result s",
      "Ġno tice",
      "3 2",
      "lay er",
      "con f",
      "3 6",
      "c al",
      "add form",
      "Ġgra ph",
      "Ġh as",
      "Ġ- -",
      "Ġc rea",
      "Ġ us",
      "Ġd a",
      "(\" :",
      "and le",
      "fin e",
      "(\" [",
      "Ġdestination channel",
      "message s",
      "showmessage dialog",
      "input file",
      "as k",
      "r up",
      "seth eader",
      "Ġo c",
      "Ġob j",
      "hel per",
      "he re",
      "i b",
      "8 0",
      "setrequest method",
      "im g",
      "f lag",
      "mime type",
      "Ġ address",
      "ret urn",
      "oo gle",
      "Ġc all",
      "close entry",
      "Ġmi me",
      "co unter",
      "Ġb o",
      "compare to",
      "z ipentry",
      "c ap",
      "Ġpro b",
      "Ġpack age",
      "id x",
      "qu an",
      "int s",
      "ad ded",
      "Ġnode list",
      "comp ile",
      "Ġre gist",
      "de finition",
      "line s",
      "new instance",
      "Ġse le",
      "Ġsi mple",
      "ct r",
      "Ġtemp late",
      "Ġht ml",
      "ac cess",
      "Ġdata inputstream",
      "; </",
      "Ġfi el",
      "w indo",
      "o de",
      "Ġw as",
      "Ġfi rst",
      "Ġ\" _",
      "st er",
      "bin ary",
      "n a",
      "Ġa u",
      "dire ct",
      "Ġfo lder",
      ": &",
      "li p",
      "Ġex ecute",
      "parameter s",
      "ci mal",
      "Ġ+ +",
      "m it",
      "w e",
      "Ġdefaul th",
      "Ġ 6",
      "t x",
      "pen tity",
      "men sion",
      "Ġto file",
      "le x",
      "Ġchar set",
      "si mple",
      "Ġ\\\" \"",
      "array indexoutofboundsexception",
      "Ġconfig uration",
      "Ġremo te",
      "p c",
      "Ġo ver",
      "Ġex pected",
      "um er",
      "Ġconne ct",
      "Ġ err",
      "Ġs ho",
      "Ġ- =",
      "Ġpar se",
      "n on",
      "f ont",
      "ri ver",
      "table name",
      "Ġurl string",
      "ph one",
      "di mage",
      "vi si",
      "Ġe xt",
      "Ġdi s",
      "2 00",
      "column s",
      "f os",
      "utili ties",
      "en coder",
      "progress monitor",
      "a i",
      "c er",
      "me mber",
      "org an",
      "r src",
      "db c",
      "re g",
      "Ġclass name",
      "in te",
      "Ġinput source",
      "c re",
      "i a",
      "ri ght",
      "de leted",
      "++ ,",
      "Ġse nd",
      "fin d",
      "Ġoption s",
      "ca lendar",
      "state exception",
      "f loat",
      "wa it",
      "p d",
      "ttp client",
      "Ġb order",
      "ra tion",
      "c or",
      "m ary",
      "Ġ location",
      "hasmore elements",
      "on ical",
      "j sp",
      "Ġe mail",
      "Ġclass loader",
      "Ġstring tokenizer",
      "write file",
      "de scriptor",
      "ub or",
      "mi ssion",
      "link swith",
      "Ġor g",
      "linkswith in",
      "e ded",
      "Ġ\"' ,",
      "Ġassert true",
      "ld path",
      "c as",
      "Ġr and",
      "item categoryid",
      "item typeid",
      "an y",
      "mo unt",
      "in it",
      "Ġba sic",
      "Ġpro p",
      "Ġb is",
      "ment s",
      "he ad",
      "Ġget class",
      "Ġ\": \"",
      "Ġdefaulth ttpclient",
      "stru ction",
      "Ġ\" (",
      "Ġencry pt",
      "> \";",
      "Ġ next",
      "Ġ attachment",
      "Ġ ne",
      "cur sor",
      "file chooser",
      "Ġj ob",
      "e ve",
      "run timeexception",
      "Ġde vice",
      "h i",
      "wri t",
      "st or",
      "Ġpa ss",
      "Ġs um",
      "ap ro",
      "src channel",
      "et ch",
      "Ġb ook",
      "an t",
      "Ġar chive",
      "Ġcontent type",
      "ex tension",
      "Ġnew file",
      "Ġf z",
      "umer ation",
      "lo ok",
      "Ġin st",
      "nex telement",
      "full y",
      "t ree",
      "ce nt",
      "i ver",
      "Ġen code",
      "Ġx m",
      "list files",
      "n i",
      "Ġsrc file",
      "Ġsal t",
      "ad a",
      "ent ries",
      "Ġg ui",
      "Ġf loat",
      "bytes read",
      "Ġm at",
      "()) ,",
      "Ġpre fix",
      "1 7",
      "Ġback up",
      "Ġm od",
      "Ġfin d",
      "sal t",
      "real m",
      "Ġp lugin",
      "Ġh e",
      "con cept",
      "Ġpst a",
      "Ġmon itor",
      "Ġ\" ]",
      "vi de",
      "il legal",
      "ctr um",
      "zip file",
      "en cry",
      "pro p",
      "Ġpro xy",
      "Ġper son",
      "modifi cation",
      "me tadata",
      "ise mpty",
      "ema il",
      "is hed",
      "can write",
      "ran dom",
      "pe xception",
      "data source",
      "fa x",
      "pro ps",
      "ke d",
      "Ġ\"' \");",
      "n ing",
      "Ġurl c",
      "Ġcol umn",
      "quo te",
      "get header",
      "p df",
      "se quence",
      "ch i",
      "image s",
      "er o",
      "men u",
      "can onical",
      "ro o",
      "ter ror",
      "sign ature",
      "ar ge",
      "get url",
      "di mension",
      "proto col",
      "Ġ\" -",
      "ac tivity",
      "Ġg roup",
      "lin g",
      "Ġex ists",
      "ecut ion",
      "m b",
      "get default",
      "Ġjava x",
      "6 55",
      "re lation",
      "ce l",
      "( _",
      "di ff",
      "ten coding",
      "Ġ ra",
      "Ġt ri",
      "url string",
      "Ġcontain s",
      "Ġm ar",
      "buffered inputstream",
      "i sp",
      "Ġse c",
      "p lain",
      "Ġget servletcontext",
      "file format",
      "a ch",
      "pn g",
      "si st",
      "httpservlet request",
      "re name",
      "writ ten",
      "trans action",
      "map ping",
      "tot read",
      "den tity",
      "Ġimp ort",
      "date format",
      "time stamp",
      "r t",
      "Ġwor k",
      "Ġht t",
      "d to",
      "u g",
      "655 36",
      "Ġin stream",
      "_ _",
      "tifi cate",
      "Ġa va",
      "ke yst",
      "he et",
      "?,?, ?,?,",
      "Ġfile notfoundexception",
      "Ġinput file",
      "ss ing",
      "lu me",
      "Ġfa ctory",
      "ro me",
      "\") ));",
      ". \";",
      "Ġdi com",
      "Ġex tension",
      "Ġ>> >",
      "Ġh ref",
      "-------- --------",
      "c ul",
      "ph ra",
      "Ġillegal stateexception",
      "te ct",
      "id s",
      "spe c",
      "buffered outputstream",
      "Ġtarget file",
      "work ing",
      "Ġc as",
      "r and",
      "tra ck",
      "Ġm ath",
      "class name",
      "Ġ raw",
      "mp l",
      "g zip",
      "Ġ up",
      "or ary",
      "Ġread ing",
      "Ġigno re",
      "get matrix",
      "Ġcol lection",
      "get s",
      "Ġc l",
      "Ġthrow n",
      "frame s",
      "ge te",
      "Ġdocument builder",
      "a de",
      "Ġt ask",
      "set content",
      "not null",
      "(\"\\ \\",
      "no wn",
      "ct ual",
      "pro c",
      "ig h",
      "Ġ la",
      "Ġd at",
      "Ġre port",
      "li brary",
      "token s",
      "di ent",
      "windo w",
      "un ction",
      "den tial",
      "= ?,",
      "c l",
      "tifi er",
      "Ġ attribute",
      "comp ress",
      "c md",
      "ce ive",
      "con stra",
      "of f",
      "mo vie",
      "e mp",
      "() ];",
      "Ġin flate",
      "type s",
      "b ook",
      "Ġpre dicate",
      "Ġmo vie",
      "is match",
      "src file",
      "file tofile",
      "Ġsta ble",
      "ti po",
      "ne d",
      "Ġcomp onent",
      "Ġmat rix",
      "Ġ title",
      "set long",
      "pi ed",
      "a x",
      "m m",
      "Ġclass path",
      "g ing",
      "[] )",
      "st y",
      "vel build",
      "Ġstable build",
      "stru ct",
      "0 1",
      "re ct",
      "Ġurl s",
      "getrequest dispatcher",
      "Ġfile path",
      "Ġt ar",
      "de l",
      "p l",
      "sp er",
      "comm on",
      "Ġen umeration",
      "Ġ\" \"",
      "getstatus line",
      "st ri",
      "Ġfa il",
      "w here",
      "sa x",
      "(\" &",
      "tag name",
      "um b",
      "orig inal",
      "Ġjson object",
      "con vert",
      "la s",
      "Ġca lendar",
      "Ġ serv",
      "Ġin ter",
      "sc a",
      "con tact",
      "to url",
      "('. ');",
      "look up",
      "n m",
      "c n",
      "o in",
      "[] ,",
      "utili ty",
      "Ġd os",
      "el l",
      "get nextentry",
      "ac cept",
      "Ġ all",
      "char at",
      "can read",
      "Ġhttp conn",
      "sto exclude",
      "p g",
      "Ġp h",
      "meth o",
      "Ġf ont",
      "st ar",
      "ra p",
      "Ġj e",
      "Ġde scription",
      "di an",
      "ve ctor",
      "wor ds",
      "Ġs cript",
      "ln s",
      "Ġtrans former",
      "o ther",
      "4 8",
      "ra gment",
      "cu stomer",
      "da o",
      "Ġoff set",
      "out stream",
      "Ġso cket",
      "getcontent type",
      "Ġj filechooser",
      "i fi",
      "get writer",
      "parse double",
      "r m",
      "do main",
      "in channel",
      "Ġrequest dispatcher",
      "Ġpart s",
      "rup te",
      "Ġi con",
      "and re",
      "set matrix",
      "disp lay",
      "Ġl an",
      "12 3",
      "setdo input",
      "m g",
      "it al",
      "ci fi",
      "de cimal",
      "Ġfor m",
      "requiredtype group",
      "real path",
      "en dian",
      "ch em",
      "Ġse rial",
      "Ġjar file",
      "vo lume",
      "Ġ\" \",",
      "Ġfiel d",
      "de tect",
      "Ġmap ped",
      "li en",
      "or i",
      "Ġgzip inputstream",
      "eded rsrc",
      "i v",
      "ti fy",
      "process or",
      "Ġbasic namevaluepair",
      "Ġf w",
      "Ġs can",
      "Ġimage inputstream",
      "series uid",
      "study uid",
      "ge telement",
      "get filename",
      "c r",
      "at tr",
      "o ur",
      "Ġhttpservlet request",
      "Ġ 7",
      "mon o",
      "lit tle",
      "re r",
      "< ?",
      "Ġp ixel",
      "up per",
      "mo d",
      "b ad",
      "quan tity",
      "p lo",
      "re pository",
      "key s",
      "resol ver",
      "lic it",
      "ve d",
      "keyst ore",
      "le ft",
      "or ted",
      "entic ation",
      "Ġm ismatch",
      "lete xception",
      "c ip",
      "sh ip",
      "Ġf n",
      "Ġo ld",
      "Ġmo difi",
      "Ġfa ct",
      "get canonical",
      "inst uid",
      "Ġimage outputstream",
      "upper case",
      "li sh",
      "ex ion",
      "Ġz out",
      "Ġc tx",
      "rupte dexception",
      "Ġtemp file",
      "a g",
      "se ten",
      "skip grouplen",
      "Ġsi te",
      "file channel",
      "createimage inputstream",
      "Ġp w",
      "to uppercase",
      "i is",
      "mo bject",
      "numberof frames",
      "i vr",
      "l ue",
      "Ġf e",
      "b ar",
      "un i",
      "result set",
      "f mi",
      "put cs",
      "ch rome",
      "Ġp fact",
      "Ġen codeparam",
      "ac rnema",
      "Ġclass uid",
      "getread tag",
      "vr little",
      "imp licit",
      "newfile metainfo",
      "Ġac rnema",
      "setfile metainfo",
      "Ġprob able",
      "detect fileformat",
      "mono chrome",
      "vrlittle endian",
      "implicit vrlittleendian",
      "Ġde code",
      "sele ction",
      "set status",
      "cen se",
      "} \",",
      "hash box",
      "get selected",
      "ff e",
      "nex pected",
      "Ġb y",
      "message digest",
      "key set",
      "Ġ\". \"",
      "cap t",
      "g if",
      "Ġfile utils",
      "get pixeldata",
      "new reader",
      "new writer",
      "read pixeldata",
      "write header",
      "write pixeldata",
      "write dataset",
      "Ġread andre",
      "Ġdc mobject",
      "Ġdcmparser factory",
      "mar ker",
      "createimage outputstream",
      "Ġpixeldata reader",
      "Ġpixeldata writer",
      "pd reader",
      "getpixeldata array",
      "Ġreadandre write",
      "Ġdcmobject factory",
      "mon th",
      "get key",
      "(\" \");",
      "la tive",
      "co ach",
      "j av",
      "delete on",
      "view er",
      "diction ary",
      "tmp file",
      "> (",
      "den tifier",
      "c p",
      "Ġun supportedencodingexception",
      "re direct",
      "au dit",
      "Ġm atch",
      "Ġsq le",
      "lob al",
      "er ro",
      "ini tial",
      "ck e",
      "ava il",
      "Ġen coder",
      "u ario",
      "Ġserv letexception",
      "ro le",
      "material type",
      "ran ge",
      "g z",
      "ti v",
      "out channel",
      "Ġ\" ?",
      "y ear",
      "pro d",
      "Ġdata outputstream",
      "cach es",
      "da y",
      "o m",
      "co ver",
      "Ġ1 000",
      "Ġf rame",
      "Ġbook ing",
      "Ġsal id",
      "di tion",
      "n or",
      "Ġproper ty",
      "Ġin s",
      "ac tive",
      "use caches",
      "ex port",
      "or y",
      "9 9",
      "Ġ util",
      "temp dir",
      "metho ds",
      "o ld",
      "Ġst at",
      "as string",
      "no w",
      "\")) )",
      "s d",
      "too l",
      "Ġscan ner",
      "Ġo stmt",
      "Ġpro ps",
      "copy file",
      "ceive d",
      "se cure",
      "en ce",
      "c c",
      "ro und",
      "getcontent length",
      "ap i",
      "Ġcontent s",
      "c buf",
      "base dir",
      "ve n",
      "Ġfrom file",
      "p ool",
      "p ub",
      "Ġp rin",
      "Ġ1 00",
      "tolog ia",
      "ta b",
      "Ġtmp file",
      "(\" \\\"",
      "Ġname valuepair",
      "deleteon exit",
      "af ter",
      "target file",
      "data store",
      "av ing",
      "5 0",
      "Ġ( _",
      "al ign",
      "Ġb out",
      "Ġse n",
      "ter m",
      "Ġdb dyn",
      "se q",
      "ci ty",
      "data stream",
      "cach ed",
      "] ),",
      "Ġview er",
      "1 4",
      "g re",
      "Ġsimple dateformat",
      "Ġsh ort",
      "Ġ rows",
      "Ġran dom",
      "sto p",
      "de f",
      "de s",
      "ca o",
      "l low",
      "n s",
      "Ġre n",
      "ch ed",
      "trans former",
      "Ġst m",
      "use rid",
      "regist ry",
      "mo du",
      "Ġc ry",
      "con ti",
      "mar k",
      "Ġ[ \"",
      "(\" ,",
      "control ler",
      "Ġsele cted",
      "get row",
      "> >",
      "stream reader",
      "Ġre f",
      "Ġsup er",
      "Ġhe ight",
      "ab y",
      "local host",
      "ex tra",
      "ma c",
      "use d",
      "stor age",
      "s by",
      "Ġgener ate",
      "un ch",
      "Ġcon f",
      "Ġrec ord",
      "l t",
      "or ds",
      "Ġd one",
      "error s",
      "con ver",
      "1 3",
      "x m",
      "x sl",
      "se rial",
      "re en",
      "Ġret ri",
      "de lement",
      "Ġch unk",
      "Ġbuild xml",
      "Ġf sep",
      "un ity",
      "il l",
      "di v",
      "Ġme ta",
      "spe ctrum",
      ") \";",
      "++ ++",
      "unit s",
      "Ġ lin",
      "Ġis r",
      "la sh",
      "Ġ uc",
      "Ġse q",
      "di g",
      "Ġde leted",
      "Ġresult s",
      "Ġdisp lay",
      "Ġfi lter",
      "uf fix",
      "Ġfile copy",
      "loc ate",
      "c f",
      "Ġc er",
      "al le",
      "Ġhtt pentity",
      "sp ro",
      "Ġent ries",
      "se ti",
      "contains key",
      "set ting",
      "form ate",
      "c ut",
      "byte buffer",
      "no tice",
      "Ġsuccess fully",
      "Ġstmt destino",
      "Ġrep lace",
      "set usecaches",
      "en abled",
      "Ġs chema",
      "re tri",
      "Ġ servlet",
      "imp ort",
      "get reply",
      "Ġt ree",
      "al len",
      "hel lo",
      "getstatus code",
      "r ada",
      "p wd",
      "1 9",
      "getclass loader",
      "ble m",
      "Ġmod ule",
      "http s",
      "re lease",
      "get business",
      "chi er",
      "modification definition",
      "Ġf ull",
      "man ifest",
      "char ac",
      "(\": \");",
      "vi ron",
      "g t",
      "tp o",
      "de coder",
      "Ġdo wn",
      "al low",
      "Ġun it",
      "Ġover write",
      "2 56",
      "ba sic",
      "Ġi c",
      "get first",
      "Ġs ign",
      "Ġde velbuild",
      "; \");",
      "p k",
      "r ating",
      "inter face",
      "unk nown",
      "g oogle",
      "work er",
      "ch unk",
      "array copy",
      "Ġ label",
      "next line",
      "ar qui",
      "t ate",
      "te di",
      "(\" -",
      "Ġs v",
      "get home",
      "Ġab ort",
      "lien te",
      "Ġ \\",
      "for name",
      "viron ment",
      "ca mp",
      "c ipher",
      "tolog y",
      "u nexpected",
      "o c",
      "Ġc n",
      "in v",
      "re sp",
      "u mp",
      "Ġdi ff",
      "Ġ $",
      "sw ing",
      "Ġco okie",
      "Ġtrans fer",
      "get code",
      "jec tid",
      "capt ure",
      "Ġf lag",
      "getelement sby",
      "pre ference",
      "Ġc md",
      "n able",
      "s yn",
      "httpservlet response",
      "Ġf etch",
      "Ġmodifi ed",
      "Ġ2 00",
      "Ġcon tact",
      "Ġ rea",
      "l arge",
      "per formed",
      "de sc",
      "Ġi p",
      "Ġurl str",
      "em ap",
      "Ġpst m",
      "gener ator",
      "f unction",
      "s ymbol",
      "build ing",
      "Ġse at",
      "\")) .",
      "sto capture",
      "stocapture linkswithin",
      "get con",
      "u uid",
      "Ġp lain",
      "ap a",
      "1 8",
      "] ).",
      "getelementsby tagname",
      "0 2",
      "d d",
      "i ent",
      "get column",
      "set property",
      "resource set",
      "point s",
      "to array",
      "Ġ\" ).",
      "=' \"",
      "1 5",
      "x path",
      "stat s",
      "######## ########",
      "Ġcu stomer",
      "{ \\\"",
      "po inte",
      "pointe rexception",
      "in stream",
      "tp ath",
      "m ulti",
      "at al",
      "Ġpro to",
      "in ternal",
      "get option",
      "d raw",
      "Ġn l",
      "Ġpo sition",
      "Ġch ild",
      "ge tex",
      "ok ies",
      "constra int",
      "Ġs r",
      "as ci",
      "Ġdo m",
      "Ġa ctual",
      "Ġfrom filename",
      "Ġm in",
      "Ġarray s",
      "Ġli ke",
      "Ġw idth",
      "Ġdestination file",
      "Ġmar ker",
      "c ado",
      "quest ion",
      "index set",
      "get node",
      "action event",
      "Ġex port",
      "lement ation",
      "Ġxm lns",
      "ve nd",
      "Ġja rentry",
      "a ss",
      "Ġre d",
      "Ġf s",
      "sh ell",
      "man age",
      "p rin",
      "get type",
      "Ġme mber",
      "disp osition",
      "organ ize",
      "fe ed",
      "dential s",
      "Ġbase dir",
      "Ġ( '",
      "Ġi mg",
      "Ġb lock",
      "count ry",
      "ic s",
      "run time",
      "Ġext ra",
      "Ġchan ge",
      "las ses",
      "an o",
      "regist er",
      "Ġcrea ted",
      "Ġauth or",
      "Ġde sc",
      "Ġline s",
      "it ch",
      "par ts",
      "i ter",
      "m id",
      "Ġi e",
      "Ġd river",
      "Ġinst all",
      "ref erence",
      "reg ion",
      "o peration",
      "Ġ} ,",
      "illegal argumentexception",
      "Ġ2 0",
      "b ig",
      "get current",
      "Ġm al",
      "script s",
      "Ġgzip outputstream",
      "allen ge",
      "Ġfc in",
      "stru ctor",
      "visi ble",
      "h igh",
      "name space",
      "Ġini tial",
      "ere dimage",
      "rename to",
      "Ġfile list",
      "write able",
      "trans form",
      "Ġun writeable",
      "} ,",
      "Ġ loader",
      "get variable",
      "match es",
      "dient s",
      "aby final",
      "Ġrun time",
      "Ġm ulti",
      "time s",
      "Ġ lo",
      "vi sion",
      "version check",
      "ba os",
      "Ġman ifest",
      "a mple",
      "s m",
      "Ġcol or",
      "val s",
      "j s",
      "Ġ ze",
      "(\" _",
      "url s",
      "f lip",
      "u ring",
      "phra se",
      "Ġlan guage",
      "file reader",
      "main ing",
      "o me",
      "ut down",
      "ph p",
      "(\" %",
      "a ti",
      "j dbc",
      "Ġj av",
      "add header",
      "Ġs s",
      "4 0",
      "Ġ 9",
      "form ance",
      "Ġal ign",
      "ac count",
      ": </",
      "2 5",
      "s in",
      "w rap",
      "Ġw ord",
      "(( (",
      "working directory",
      "get host",
      "off set",
      "le ep",
      "separator char",
      "a ct",
      "Ġp i",
      "getvariable container",
      "dit or",
      "ate st",
      "is r",
      "next long",
      "com bo",
      "o se",
      "get password",
      "Ġp k",
      "Ġst o",
      "Ġ mp",
      "tr an",
      "var name",
      "col lection",
      "Ġh andle",
      "ver se",
      "formate xception",
      "i ss",
      "Ġn on",
      "at ype",
      "Ġc re",
      "ug h",
      "Ġco uld",
      "Ġh el",
      "Ġsw t",
      "face t",
      "to uri",
      "asci i",
      "= \");",
      "Ġch em",
      "Ġfile size",
      "Ġfilename data",
      "f r",
      "se at",
      "Ġcal cul",
      "d ing",
      "di d",
      "ip ient",
      "por ted",
      "e mpty",
      "st d",
      "modified table",
      "Ġca mp",
      "Ġdocumentbuilder factory",
      "Ġred lines",
      "Ġex p",
      "copy ing",
      "Ġfc out",
      "ce ll",
      "Ġcan not",
      "lo sing",
      "destination file",
      "(' /",
      "Ġorig inal",
      "Ġe sca",
      "Ġo p",
      "si tive",
      "ke ep",
      "com ment",
      "ubor u",
      "sty le",
      "tpo ints",
      "Ġdoes n",
      "Ġheader s",
      "Ġ one",
      "crea ted",
      "! \",",
      "se nt",
      "Ġs c",
      "ser ve",
      "Ġ ur",
      "Ġd f",
      "[ @",
      "block size",
      "i ble",
      "al locate",
      "add r",
      "le tion",
      "ti le",
      "Ġin it",
      "in struction",
      "Ġb undle",
      "Ġ' /",
      "service impl",
      "Ġ\" =\"",
      "map mode",
      "Ġp ri",
      "li ck",
      "fi li",
      "pre diction",
      "Ġbyte count",
      "l at",
      "get length",
      "Ġpd f",
      "ex p",
      "Ġhttp request",
      "Ġti le",
      "me dia",
      "get simple",
      ")) )",
      "fin ished",
      "}, {\\\"",
      "Ġdo versioncheck",
      "inter ruptedexception",
      "tp a",
      "t w",
      "() :",
      "di fy",
      ":// \"",
      "ex ternal",
      "tmp dir",
      "Ġencry pted",
      "st able",
      "regist ro",
      "classpath entry",
      "conti g",
      "Ġrep ly",
      "Ġwh en",
      "sh if",
      "per mission",
      "Ġcan al",
      "Ġ te",
      "Ġst ra",
      "map per",
      "Ġy ou",
      "sa e",
      "Ġno w",
      "Ġconvert tohex",
      "jar file",
      "au dio",
      "plo y",
      "rin fo",
      "Ġz is",
      "f ragment",
      "sp ath",
      "pro ces",
      "Ġbuff eredimage",
      "\\\" ><",
      "if y",
      "Ġob tain",
      "pass wd",
      "ro p",
      "Ġta g",
      "i as",
      "sc ale",
      "Ġho me",
      "set lastmodified",
      "apro ject",
      "em ode",
      "Ġper sist",
      "e st",
      "nt o",
      "r ate",
      "tra in",
      "x f",
      "tp ro",
      "min a",
      "t t",
      "get query",
      "un ds",
      "o ai",
      "Ġtoken s",
      "Ġc ut",
      "ub ble",
      "src idx",
      "iver srcidx",
      "/ >\\",
      "g i",
      "tp art",
      "7 0",
      "g uid",
      "response modificationdefinition",
      "pri ce",
      "se tentity",
      ".. \",",
      "ord inal",
      "warning s",
      "**** ****",
      "o wl",
      "Ġst op",
      "int value",
      "json object",
      "_ \"",
      "set variable",
      "un ic",
      "Ġresource s",
      "c ss",
      "in formation",
      "app let",
      "Ġc m",
      "Ġcomp lete",
      "comp osition",
      "Ġrun nable",
      "ight streamreader",
      "Ġstra ightstreamreader",
      ". \"",
      "r pc",
      "Ġsec ret",
      "b ile",
      "ter min",
      "Ġen coded",
      "Ġa mount",
      "ss l",
      "Ġ #",
      "(). ..\",",
      "s leep",
      "Ġread count",
      "b s",
      "Ġg oogle",
      ") \",",
      "Ġst ore",
      "Ġdest dir",
      "Ġ network",
      "ra ction",
      "Ġhash set",
      "me m",
      "Ġm ust",
      "Ġda oexception",
      "a h",
      "le cu",
      "stu dent",
      "j pg",
      "z z",
      "Ġmime type",
      "new line",
      "Ġc d",
      "Ġget connection",
      "geti mage",
      "Ġnumber of",
      "al y",
      "load ing",
      "string utils",
      "array list",
      "content s",
      "Ġparameter s",
      "getheader field",
      "y nt",
      "Ġtemp orary",
      "Ġp e",
      "option s",
      "a it",
      "get source",
      "en gine",
      "Ġg d",
      "x p",
      "pre ss",
      "can cel",
      "h andle",
      "di vide",
      "Ġsp lit",
      "p to",
      "re sh",
      "Ġh andler",
      "Ġge ne",
      "au x",
      "Ġ\" )\");",
      "string s",
      "mi ssing",
      "Ġuse rid",
      "hello wor",
      "b d",
      "se gment",
      "Ġf r",
      "Ġde coder",
      "per ties",
      "ja rentry",
      "in s",
      "Ġcommand line",
      "put ation",
      "getrow dimension",
      "g b",
      "pre ssion",
      "wa y",
      "Ġsax parser",
      "Ġs k",
      "Ġ\"\\\" \");",
      "Ġvar name",
      "ubble sort",
      "w i",
      "Ġaction performed",
      "at name",
      "c tive",
      "te ration",
      "ao wl",
      "Ġsalid aowl",
      "Ġfile to",
      "Ġdata source",
      "be gin",
      "seten abled",
      "Ġzip out",
      "doc root",
      "re ceived",
      "[] []",
      "full path",
      "Ġesca ped",
      "d l",
      "ar r",
      "ro les",
      "Ġin formation",
      "li mit",
      "pro file",
      "get local",
      "Ġj dbc",
      "ftp client",
      "Ġava il",
      "Ġretri eve",
      "dire ctor",
      "Ġcopy ing",
      "connect timeout",
      "d r",
      "mo bile",
      "Ġac cess",
      "t ry",
      "u me",
      "ffe ct",
      "data file",
      "crea tor",
      "n ature",
      "ne ededrsrc",
      "Ġtar getchannel",
      "u d",
      "() \");",
      "ch o",
      "conne ctor",
      "current thread",
      "(\"/ \"))",
      "getcanonical path",
      "Ġre l",
      "no tation",
      "che me",
      "read able",
      "get date",
      "Ġde l",
      "ation exception",
      "res sed",
      "p ie",
      "Ġ //",
      "dest dir",
      "Ġcon ver",
      "lecu le",
      "is h",
      "Ġdest channel",
      "Ġerror s",
      "comp any",
      "Ġma ke",
      "la unch",
      "Ġj frame",
      "thread s",
      "Ġsho w",
      "charac ter",
      "code c",
      "ff ff",
      "hash map",
      "Ġgui utilities",
      "d river",
      "mo ck",
      "g ps",
      "Ġsw itch",
      "get user",
      "Ġs uch",
      "read object",
      "u lo",
      "Ġtrans action",
      "Ġapp lication",
      "Ġha ve",
      "g c",
      "Ġ rollback",
      "ge terror",
      "v t",
      "le m",
      "Ġi stream",
      "pe g",
      "z one",
      "st emp",
      "modu le",
      "dig it",
      "ma ke",
      "Ġen v",
      "Ġchan ged",
      "get child",
      "Ġ loc",
      "st m",
      "100 0",
      "Ġre pository",
      "si mpl",
      "cu men",
      "Ġc or",
      "Ġb ody",
      "Ġco re",
      "se l",
      "(\" {",
      "Ġfile length",
      "ss chema",
      "ct ure",
      "tiv ator",
      "do bject",
      "stra ct",
      "a rea",
      "re putation",
      "Ġn sae",
      "Ġ keystore",
      "th umb",
      "sup port",
      "Ġwork ing",
      "Ġcer tificate",
      "r df",
      "ad os",
      "get p",
      "Ġst ar",
      "apa che",
      "Ġde s",
      "vi o",
      "element at",
      "Ġc ity",
      "lip se",
      "Ġbin ary",
      "deta il",
      "Ġa re",
      "Ġy our",
      "tifi cation",
      "Ġquery string",
      "b an",
      "Ġ locale",
      "ra ce",
      "vo cation",
      "Ġoff er",
      "shif t",
      "ss df",
      "set value",
      "mp ar",
      "plain text",
      "http client",
      "re ment",
      "ri c",
      "ver age",
      "Ġentry name",
      "Ġassert notnull",
      "Ġtable name",
      "Ġdecode filetofile",
      "Ġnamevaluepair s",
      "re et",
      "Ġ\", \"",
      ". *",
      "log ging",
      "pro blem",
      "Ġdi alog",
      "Ġun zip",
      "<? >",
      "Ġmo dify",
      "in str",
      "Ġre sol",
      "cry pt",
      "3 0",
      "Ġpro vider",
      "Ġnew link",
      "200 1",
      "re l",
      "re maining",
      "ex ecution",
      "Ġresponse code",
      "change d",
      "Ġlin ked",
      "Ġar ti",
      "target directory",
      "ynt ax",
      "Ġe mpty",
      "Ġon tologia",
      "cer tificate",
      "Ġstart time",
      "Ġor der",
      "Ġformat ter",
      "code mp",
      "che type",
      "ca use",
      "i outils",
      "ro ute",
      "g round",
      "re lative",
      "bu m",
      "retri eve",
      "i dentity",
      "Ġ utils",
      "fili al",
      "Ġg ps",
      "Ġfilecopy exception",
      "set name",
      "Ġca ched",
      "Ġc buf",
      "Ġnew s",
      "attribute info",
      "non ce",
      "c d",
      "Ġc p",
      "Ġout c",
      "je dit",
      "ca st",
      "Ġ\"- \"",
      "lic y",
      "resource name",
      "new document",
      "Ġbut ton",
      "get session",
      "Ġplain text",
      "Ġw ill",
      "Ġse gment",
      "Ġsub progressmonitor",
      "Ġmessage s",
      "sum mary",
      "te s",
      "con fi",
      ": \\\\",
      "Ġname s",
      "Ġus uario",
      "\\\" />\\",
      "building time",
      "link s",
      "Ġ ri",
      "Ġt xt",
      "ï¿½ï¿½ ï¿½",
      "Ġb ubblesort",
      "archive entry",
      ": /",
      "li mi",
      "url str",
      "append child",
      "sp ital",
      "mer cado",
      "Ġre qui",
      "Ġm app",
      "Ġan other",
      "fi c",
      "con s",
      "z er",
      "attribute s",
      "p ipe",
      "dire ctive",
      "check out",
      "get output",
      "k it",
      "get method",
      "Ġregist ro",
      "dto s",
      "Ġs sl",
      "a mount",
      "con d",
      "c and",
      "r ator",
      "stream writer",
      "co pied",
      "Ġcu sto",
      "file filter",
      "Ġar r",
      "Ġid x",
      "ja x",
      "inst all",
      "Ġcrea ting",
      "con cat",
      "Ġl da",
      "comp letion",
      "Ġco unter",
      "Ġtime stamp",
      "getoption value",
      "Ġtype s",
      "sec ret",
      "get system",
      "copy large",
      "ed file",
      "Ġdb conn",
      "getproperty value",
      "s ys",
      "get context",
      "set message",
      "Ġli brary",
      "y es",
      "set up",
      "Ġr set",
      ", \"",
      "Ġm as",
      "uc er",
      "complete path",
      "ori gen",
      "set visible",
      "Ġa f",
      "Ġg ive",
      "ta s",
      "base url",
      "service s",
      "Ġren der",
      "a w",
      "v od",
      "Ġst u",
      "bo ard",
      "Ġava ilable",
      "getselected file",
      "d t",
      "o w",
      "set date",
      "to b",
      "Ġco pied",
      "ans w",
      "a st",
      "ex ec",
      "encry pt",
      "on tology",
      "Ġen c",
      "pos al",
      "Ġspe cifi",
      "set connecttimeout",
      "to process",
      "h or",
      "Ġs ing",
      "2 9",
      "Ġj b",
      "Ġc r",
      "write object",
      "process ing",
      "Ġt ab",
      "is lo",
      "is set",
      "(\"/ \")",
      "directive s",
      "Ġencode filetofile",
      "align ment",
      "l r",
      "fe ature",
      "n one",
      "li mina",
      "db dyn",
      "getcolumn dimension",
      "Ġ= \");",
      "Ġp rep",
      "tran sp",
      "2 1",
      "ation s",
      "in d",
      "Ġ rc",
      "pre filter",
      "element text",
      "Ġan y",
      "seth ome",
      "lot data",
      "stoexclude complete",
      "stoexclude linkswithin",
      "' \"",
      "z bin",
      "Ġb it",
      "Ġin struction",
      "Ġma ster",
      "but ion",
      "gener ate",
      "c ar",
      "oo m",
      "rec ipe",
      "Ġmal formedurlexception",
      "metri cs",
      "could n",
      "cen ter",
      "f ri",
      "Ġy ear",
      "Ġsign ature",
      "Ġmapp ing",
      "bo se",
      "Ġ3 2",
      "g a",
      "get runtime",
      "node s",
      "Ġsup ported",
      "Ġlda pexception",
      "getpropertyvalue asstring",
      "Ġ- >",
      "=\\\" \");",
      "Ġcomp ress",
      "Ġcon stan",
      "ti ll",
      "get de",
      "gu i",
      "auth entication",
      "f atal",
      "Ġcom mon",
      "pri mary",
      "Ġap i",
      "bo unds",
      "conne cted",
      "isp o",
      "get lastmodified",
      "ped file",
      "cor rect",
      "Ġd ot",
      "Ġsource s",
      "get data",
      "out il",
      "of fer",
      "temp orary",
      "Ġtemp dir",
      "Ġgra m",
      "Ġsho uld",
      "g ic",
      "Ġread len",
      "da mage",
      "co es",
      "so uboru",
      "per job",
      "getresource s",
      "requiredtype name",
      "requiredtype id",
      "requiredtype categoryid",
      "requiredtype volume",
      "crea ting",
      "activity name",
      "activity id",
      "requiredtypegroup name",
      "requiredtypegroup id",
      "damage perjob",
      "fo llow",
      "val u",
      "http post",
      "ren der",
      "Ġremo ve",
      "xml schema",
      "ymbo ls",
      "uni que",
      "] /",
      "send error",
      "person al",
      "cip al",
      "f ree",
      "so ft",
      "Ġ\"/ \");",
      "Ġc ate",
      "ame nto",
      "Ġ append",
      "Ġt int",
      "Ġin valid",
      "di do",
      "getsimple elementtext",
      "( -",
      "i an",
      "Ġex ten",
      "output dir",
      "lan k",
      "Ġper mission",
      "p lay",
      "class notfoundexception",
      "tex ta",
      "20 48",
      "Ġ} ));",
      "Ġth at",
      "en ter",
      "user reputation",
      "m ig",
      "z a",
      "sup press",
      "cs v",
      "Ġus ing",
      "suppress warnings",
      "get v",
      "no me",
      "Ġpa nel",
      "Ġbuil dexception",
      "ar ti",
      "mo ve",
      "o l",
      "co okies",
      "log out",
      "group s",
      "admin ist",
      "source s",
      "Ġran ge",
      "proto co",
      "big decimal",
      "Ġgram mar",
      "li cense",
      "ld ap",
      "pe ct",
[...]
